{
  "version": "1.0",
  "truncation": null,
  "padding": null,
  "added_tokens": [
    {
      "id": 7992,
      "content": "<|endoftext|>",
      "single_word": false,
      "lstrip": false,
      "rstrip": false,
      "normalized": false,
      "special": true
    },
    {
      "id": 7993,
      "content": "<think>",
      "single_word": false,
      "lstrip": false,
      "rstrip": false,
      "normalized": false,
      "special": true
    },
    {
      "id": 7994,
      "content": "</think>",
      "single_word": false,
      "lstrip": false,
      "rstrip": false,
      "normalized": false,
      "special": true
    },
    {
      "id": 7995,
      "content": "<answer>",
      "single_word": false,
      "lstrip": false,
      "rstrip": false,
      "normalized": false,
      "special": true
    },
    {
      "id": 7996,
      "content": "<|reserved_0|>",
      "single_word": false,
      "lstrip": false,
      "rstrip": false,
      "normalized": false,
      "special": true
    },
    {
      "id": 7997,
      "content": "<|reserved_1|>",
      "single_word": false,
      "lstrip": false,
      "rstrip": false,
      "normalized": false,
      "special": true
    },
    {
      "id": 7998,
      "content": "<|reserved_2|>",
      "single_word": false,
      "lstrip": false,
      "rstrip": false,
      "normalized": false,
      "special": true
    },
    {
      "id": 7999,
      "content": "<|reserved_3|>",
      "single_word": false,
      "lstrip": false,
      "rstrip": false,
      "normalized": false,
      "special": true
    }
  ],
  "normalizer": null,
  "pre_tokenizer": {
    "type": "Sequence",
    "pretokenizers": [
      {
        "type": "Digits",
        "individual_digits": false
      },
      {
        "type": "Split",
        "pattern": {
          "Regex": "(?=(\\d{3})+(?!\\d))"
        },
        "behavior": "Isolated",
        "invert": false
      },
      {
        "type": "ByteLevel",
        "add_prefix_space": false,
        "trim_offsets": true,
        "use_regex": false
      }
    ]
  },
  "post_processor": null,
  "decoder": {
    "type": "ByteLevel",
    "add_prefix_space": true,
    "trim_offsets": true,
    "use_regex": true
  },
  "model": {
    "type": "BPE",
    "dropout": null,
    "unk_token": null,
    "continuing_subword_prefix": null,
    "end_of_word_suffix": null,
    "fuse_unk": false,
    "byte_fallback": false,
    "ignore_merges": false,
    "vocab": {
      "\u0100": 0,
      "\u0101": 1,
      "\u0102": 2,
      "\u0103": 3,
      "\u0104": 4,
      "\u0105": 5,
      "\u0106": 6,
      "\u0107": 7,
      "\u0108": 8,
      "\u0109": 9,
      "\u010a": 10,
      "\u010b": 11,
      "\u010c": 12,
      "\u010d": 13,
      "\u010e": 14,
      "\u010f": 15,
      "\u0110": 16,
      "\u0111": 17,
      "\u0112": 18,
      "\u0113": 19,
      "\u0114": 20,
      "\u0115": 21,
      "\u0116": 22,
      "\u0117": 23,
      "\u0118": 24,
      "\u0119": 25,
      "\u011a": 26,
      "\u011b": 27,
      "\u011c": 28,
      "\u011d": 29,
      "\u011e": 30,
      "\u011f": 31,
      "\u0120": 32,
      "!": 33,
      "\"": 34,
      "#": 35,
      "$": 36,
      "%": 37,
      "&": 38,
      "'": 39,
      "(": 40,
      ")": 41,
      "*": 42,
      "+": 43,
      ",": 44,
      "-": 45,
      ".": 46,
      "/": 47,
      "0": 48,
      "1": 49,
      "2": 50,
      "3": 51,
      "4": 52,
      "5": 53,
      "6": 54,
      "7": 55,
      "8": 56,
      "9": 57,
      ":": 58,
      ";": 59,
      "<": 60,
      "=": 61,
      ">": 62,
      "?": 63,
      "@": 64,
      "A": 65,
      "B": 66,
      "C": 67,
      "D": 68,
      "E": 69,
      "F": 70,
      "G": 71,
      "H": 72,
      "I": 73,
      "J": 74,
      "K": 75,
      "L": 76,
      "M": 77,
      "N": 78,
      "O": 79,
      "P": 80,
      "Q": 81,
      "R": 82,
      "S": 83,
      "T": 84,
      "U": 85,
      "V": 86,
      "W": 87,
      "X": 88,
      "Y": 89,
      "Z": 90,
      "[": 91,
      "\\": 92,
      "]": 93,
      "^": 94,
      "_": 95,
      "`": 96,
      "a": 97,
      "b": 98,
      "c": 99,
      "d": 100,
      "e": 101,
      "f": 102,
      "g": 103,
      "h": 104,
      "i": 105,
      "j": 106,
      "k": 107,
      "l": 108,
      "m": 109,
      "n": 110,
      "o": 111,
      "p": 112,
      "q": 113,
      "r": 114,
      "s": 115,
      "t": 116,
      "u": 117,
      "v": 118,
      "w": 119,
      "x": 120,
      "y": 121,
      "z": 122,
      "{": 123,
      "|": 124,
      "}": 125,
      "~": 126,
      "\u0121": 127,
      "\u0122": 128,
      "\u0123": 129,
      "\u0124": 130,
      "\u0125": 131,
      "\u0126": 132,
      "\u0127": 133,
      "\u0128": 134,
      "\u0129": 135,
      "\u012a": 136,
      "\u012b": 137,
      "\u012c": 138,
      "\u012d": 139,
      "\u012e": 140,
      "\u012f": 141,
      "\u0130": 142,
      "\u0131": 143,
      "\u0132": 144,
      "\u0133": 145,
      "\u0134": 146,
      "\u0135": 147,
      "\u0136": 148,
      "\u0137": 149,
      "\u0138": 150,
      "\u0139": 151,
      "\u013a": 152,
      "\u013b": 153,
      "\u013c": 154,
      "\u013d": 155,
      "\u013e": 156,
      "\u013f": 157,
      "\u0140": 158,
      "\u0141": 159,
      "\u0142": 160,
      "\u00a1": 161,
      "\u00a2": 162,
      "\u00a3": 163,
      "\u00a4": 164,
      "\u00a5": 165,
      "\u00a6": 166,
      "\u00a7": 167,
      "\u00a8": 168,
      "\u00a9": 169,
      "\u00aa": 170,
      "\u00ab": 171,
      "\u00ac": 172,
      "\u0143": 173,
      "\u00ae": 174,
      "\u00af": 175,
      "\u00b0": 176,
      "\u00b1": 177,
      "\u00b2": 178,
      "\u00b3": 179,
      "\u00b4": 180,
      "\u00b5": 181,
      "\u00b6": 182,
      "\u00b7": 183,
      "\u00b8": 184,
      "\u00b9": 185,
      "\u00ba": 186,
      "\u00bb": 187,
      "\u00bc": 188,
      "\u00bd": 189,
      "\u00be": 190,
      "\u00bf": 191,
      "\u00c2": 192,
      "\u00c3": 193,
      "\u00c4": 194,
      "\u00c5": 195,
      "\u00c6": 196,
      "\u00c7": 197,
      "\u00c8": 198,
      "\u00c9": 199,
      "\u00ca": 200,
      "\u00cb": 201,
      "\u00cc": 202,
      "\u00cd": 203,
      "\u00ce": 204,
      "\u00cf": 205,
      "\u00d0": 206,
      "\u00d1": 207,
      "\u00d2": 208,
      "\u00d3": 209,
      "\u00d4": 210,
      "\u00d5": 211,
      "\u00d6": 212,
      "\u00d7": 213,
      "\u00d8": 214,
      "\u00d9": 215,
      "\u00da": 216,
      "\u00db": 217,
      "\u00dc": 218,
      "\u00dd": 219,
      "\u00de": 220,
      "\u00df": 221,
      "\u00e0": 222,
      "\u00e1": 223,
      "\u00e2": 224,
      "\u00e3": 225,
      "\u00e4": 226,
      "\u00e5": 227,
      "\u00e6": 228,
      "\u00e7": 229,
      "\u00e8": 230,
      "\u00e9": 231,
      "\u00ea": 232,
      "\u00eb": 233,
      "\u00ec": 234,
      "\u00ed": 235,
      "\u00ee": 236,
      "\u00ef": 237,
      "\u00f0": 238,
      "\u00f1": 239,
      "\u00f2": 240,
      "\u00f3": 241,
      "\u00f4": 242,
      "\u0120t": 243,
      "\u0120a": 244,
      "in": 245,
      "he": 246,
      "re": 247,
      "\u0120the": 248,
      "on": 249,
      "\u0120s": 250,
      "er": 251,
      "at": 252,
      "\u0120c": 253,
      "\u0120o": 254,
      "en": 255,
      "es": 256,
      "\u0120w": 257,
      "ing": 258,
      "an": 259,
      "it": 260,
      "is": 261,
      "\u0120p": 262,
      "\u0120f": 263,
      "\u0120b": 264,
      "ou": 265,
      "\u0120an": 266,
      "or": 267,
      "al": 268,
      "\u0120m": 269,
      "\u0120to": 270,
      "ed": 271,
      "ar": 272,
      "\u0120of": 273,
      "\u0120and": 274,
      "\u0120in": 275,
      "\u0120d": 276,
      "ic": 277,
      "ion": 278,
      "le": 279,
      "ro": 280,
      "\u0120th": 281,
      "\u0120h": 282,
      "as": 283,
      "ct": 284,
      "\u0120l": 285,
      "\u0120e": 286,
      "ent": 287,
      "il": 288,
      "ve": 289,
      "om": 290,
      "\u0120is": 291,
      ".\u010a": 292,
      "\u0120re": 293,
      "\u0120y": 294,
      "us": 295,
      "\u0120g": 296,
      "ly": 297,
      "et": 298,
      "\u0120n": 299,
      "\u0120you": 300,
      "\u0120be": 301,
      "ow": 302,
      "ut": 303,
      "im": 304,
      "ot": 305,
      "id": 306,
      "st": 307,
      "\u0120T": 308,
      "ig": 309,
      "ce": 310,
      "ol": 311,
      "\u0120for": 312,
      "ra": 313,
      "ch": 314,
      "\u0120that": 315,
      "\u0120st": 316,
      "ir": 317,
      "\u0120on": 318,
      "ur": 319,
      "\u0120A": 320,
      "\u0120it": 321,
      "ation": 322,
      "\u0120are": 323,
      "el": 324,
      "\u0120I": 325,
      "ver": 326,
      "ay": 327,
      "ith": 328,
      "\u0120pro": 329,
      "ul": 330,
      "un": 331,
      "if": 332,
      "se": 333,
      "\u0120with": 334,
      "\u0120or": 335,
      "\u0120as": 336,
      "\u0120con": 337,
      ".\u010a\u010a": 338,
      "est": 339,
      "\u0120S": 340,
      "\u0120al": 341,
      "her": 342,
      "am": 343,
      "\u0120can": 344,
      "ad": 345,
      "ke": 346,
      "\u0120wh": 347,
      "od": 348,
      "ant": 349,
      "ter": 350,
      "ure": 351,
      "ess": 352,
      "ill": 353,
      "\u0120com": 354,
      "\u0120The": 355,
      "igh": 356,
      "ge": 357,
      "\u0120C": 358,
      "ate": 359,
      "pe": 360,
      "ore": 361,
      "qu": 362,
      "\u0120W": 363,
      "\u010a\u010a": 364,
      "\u0120your": 365,
      "\u0120us": 366,
      "\u0120ha": 367,
      "ers": 368,
      "\u0120ex": 369,
      "'s": 370,
      "um": 371,
      "ab": 372,
      "\u0120he": 373,
      "\u0120we": 374,
      "ity": 375,
      "ive": 376,
      "\u0120se": 377,
      "ld": 378,
      "th": 379,
      "ain": 380,
      "ck": 381,
      "ment": 382,
      "\u0120sh": 383,
      "rom": 384,
      "\u0120de": 385,
      "ist": 386,
      "ies": 387,
      "\u0120v": 388,
      "\u0120ch": 389,
      "and": 390,
      "\u0120ne": 391,
      "\u0120en": 392,
      "op": 393,
      "\u0120pl": 394,
      "ight": 395,
      "os": 396,
      "ial": 397,
      "oun": 398,
      "\u0120r": 399,
      "\u0120at": 400,
      "\u0120su": 401,
      "\u0120have": 402,
      "ect": 403,
      "pp": 404,
      "\u0120B": 405,
      "em": 406,
      "\u0120M": 407,
      "\u0120from": 408,
      "\u0120P": 409,
      "ort": 410,
      "all": 411,
      "ren": 412,
      "\u0120le": 413,
      "ome": 414,
      "\u0120not": 415,
      "iv": 416,
      "per": 417,
      "res": 418,
      "ust": 419,
      "\u0120H": 420,
      "\u0120D": 421,
      "\u0120by": 422,
      "\u0120ma": 423,
      "\u0120un": 424,
      "ould": 425,
      "\u0120this": 426,
      "ide": 427,
      "art": 428,
      "ally": 429,
      "ater": 430,
      "ud": 431,
      "\u0120(": 432,
      "\u0120do": 433,
      "\u0120ab": 434,
      "out": 435,
      "ns": 436,
      "ard": 437,
      "\u0120they": 438,
      "act": 439,
      "\u0120F": 440,
      "\u00e2\u0122": 441,
      "\u0120will": 442,
      "\u0120whe": 443,
      "ast": 444,
      "ost": 445,
      "\u0120im": 446,
      "ri": 447,
      "\u0120their": 448,
      "ell": 449,
      "\u0120wor": 450,
      "red": 451,
      "\u0120k": 452,
      "ich": 453,
      "ther": 454,
      "\u0120so": 455,
      "gh": 456,
      "ine": 457,
      "\u0120int": 458,
      "The": 459,
      "pt": 460,
      "ood": 461,
      "du": 462,
      "\u0120comp": 463,
      "ff": 464,
      "ound": 465,
      "our": 466,
      "\u0120ad": 467,
      "ions": 468,
      "so": 469,
      "\u0120more": 470,
      "\u0120R": 471,
      "\u0120E": 472,
      "ough": 473,
      "iz": 474,
      "ag": 475,
      "oo": 476,
      "age": 477,
      "pl": 478,
      "\u0120all": 479,
      "king": 480,
      "able": 481,
      "\u0120was": 482,
      "hat": 483,
      "\u0120cl": 484,
      "ry": 485,
      "\u0120but": 486,
      "og": 487,
      "cc": 488,
      "der": 489,
      "\u0120cont": 490,
      "wer": 491,
      "\u0120te": 492,
      "ru": 493,
      "ous": 494,
      "ated": 495,
      "ical": 496,
      "\u0120G": 497,
      "ans": 498,
      "\u0120j": 499,
      "estion": 500,
      "\u0120L": 501,
      "up": 502,
      "Qu": 503,
      "ac": 504,
      "\u0120N": 505,
      "ike": 506,
      "\u0120sp": 507,
      "\u0120out": 508,
      "ind": 509,
      "ong": 510,
      "\u0120has": 511,
      "ance": 512,
      "end": 513,
      "\u0120me": 514,
      "ip": 515,
      "ep": 516,
      "\u0120which": 517,
      "\u0120also": 518,
      "\u0120imp": 519,
      "ult": 520,
      "\u0120inc": 521,
      "\u0120ro": 522,
      "his": 523,
      "\u0120tim": 524,
      "\u0120dis": 525,
      "ack": 526,
      "\u0120other": 527,
      "ear": 528,
      "av": 529,
      "ib": 530,
      "\u0120\"": 531,
      "fe": 532,
      "\u0120them": 533,
      "nswer": 534,
      "\u0120res": 535,
      "\u0120O": 536,
      "Question": 537,
      "orm": 538,
      "\u0120In": 539,
      "ace": 540,
      "\u0120Answer": 541,
      "'t": 542,
      "ie": 543,
      "\u0120ca": 544,
      "ations": 545,
      "\u0120man": 546,
      "\u0120one": 547,
      "\u0120ar": 548,
      "very": 549,
      "one": 550,
      "rent": 551,
      "\u0120It": 552,
      "vel": 553,
      "ign": 554,
      "\u0120fe": 555,
      "\u0120like": 556,
      "ction": 557,
      "ci": 558,
      "\u0120spe": 559,
      "\u0120fl": 560,
      "ks": 561,
      "\u0120about": 562,
      "\u0120ev": 563,
      "ress": 564,
      "ire": 565,
      "ence": 566,
      "ite": 567,
      "\u0120some": 568,
      "\u0120up": 569,
      "ice": 570,
      "\u0120when": 571,
      "ors": 572,
      "ase": 573,
      "\u0120pre": 574,
      "ents": 575,
      "ish": 576,
      "ass": 577,
      "\u0120U": 578,
      "row": 579,
      "reat": 580,
      "ition": 581,
      "\u0120kn": 582,
      "ach": 583,
      "ild": 584,
      "\u0120time": 585,
      "\u0120qu": 586,
      "\u0120gen": 587,
      "\u0120need": 588,
      "ens": 589,
      "\u0120per": 590,
      "ile": 591,
      "\u0120dif": 592,
      "ings": 593,
      "\u0120into": 594,
      "\u0120if": 595,
      "ary": 596,
      "\u0120sa": 597,
      "\u0120use": 598,
      "\u0120This": 599,
      "use": 600,
      "\u0120how": 601,
      "own": 602,
      "ays": 603,
      "lect": 604,
      "ces": 605,
      "te": 606,
      "\u0120its": 607,
      "ree": 608,
      "\u0120bec": 609,
      "\u0120part": 610,
      "\u0120may": 611,
      "\u0120any": 612,
      "ll": 613,
      "\u0120used": 614,
      "\u0120ta": 615,
      "\u0120hel": 616,
      "\u0120water": 617,
      "ric": 618,
      "ue": 619,
      "\u0120there": 620,
      "oc": 621,
      "\u0120Y": 622,
      "ose": 623,
      "\u0120sy": 624,
      "\u0120than": 625,
      "ari": 626,
      "\u0120over": 627,
      "\u0120plant": 628,
      "\u0120What": 629,
      "\u0120app": 630,
      "20": 631,
      "\u0120col": 632,
      "ific": 633,
      "\u0120help": 634,
      "ame": 635,
      "\u0120pe": 636,
      "\u0120these": 637,
      "les": 638,
      "\u0120comm": 639,
      "ting": 640,
      "\u0120co": 641,
      "form": 642,
      "\u0120bl": 643,
      "\u0120tr": 644,
      "\u0120bet": 645,
      "cess": 646,
      "ts": 647,
      "ber": 648,
      "ap": 649,
      "\u0120cons": 650,
      "\u0120ra": 651,
      "\u0120des": 652,
      "cial": 653,
      "ail": 654,
      "oth": 655,
      "\u0120diffe": 656,
      "\u0120what": 657,
      "\u0120\u00e2\u0122": 658,
      "ds": 659,
      "\u0120tra": 660,
      "\u0120make": 661,
      "ating": 662,
      "ang": 663,
      "ular": 664,
      "\u0120get": 665,
      "\u0120produ": 666,
      "ove": 667,
      "\u0120ind": 668,
      "rough": 669,
      "\u0120go": 670,
      "\u0120our": 671,
      "\u0120such": 672,
      "\u0120most": 673,
      "we": 674,
      "ower": 675,
      "ia": 676,
      "\u0120rec": 677,
      "\u0120sc": 678,
      "ten": 679,
      "ook": 680,
      "\u0120year": 681,
      "ick": 682,
      "\u0120ty": 683,
      "als": 684,
      "\u0120gr": 685,
      "\u0120off": 686,
      "eth": 687,
      "\u0120should": 688,
      "\u0120eff": 689,
      "\u0120acc": 690,
      "ons": 691,
      "hes": 692,
      "olog": 693,
      "\u0120under": 694,
      "uring": 695,
      "\u0120ke": 696,
      "\u0120sol": 697,
      "vers": 698,
      "ak": 699,
      "\u0120who": 700,
      "ility": 701,
      "ature": 702,
      "stem": 703,
      "\u0120sm": 704,
      "\u0120act": 705,
      "\u0120new": 706,
      "\u0120prov": 707,
      "\u0120stud": 708,
      "\u0120tw": 709,
      "\u0120add": 710,
      "ople": 711,
      "\u0120J": 712,
      "hen": 713,
      "\u0120been": 714,
      "ject": 715,
      "ory": 716,
      "low": 717,
      "ful": 718,
      "lud": 719,
      "\u0120would": 720,
      "ms": 721,
      "ade": 722,
      "ub": 723,
      "ments": 724,
      "ov": 725,
      "tain": 726,
      "\u0120sur": 727,
      "\u0120ag": 728,
      "\u0120just": 729,
      "\u0120am": 730,
      "ning": 731,
      "\u0120many": 732,
      "ys": 733,
      "\u0120through": 734,
      "ange": 735,
      "irst": 736,
      "\u0120were": 737,
      "are": 738,
      "its": 739,
      "\u0120po": 740,
      "\u0120bu": 741,
      "ord": 742,
      "\u0120work": 743,
      "\u0120grow": 744,
      "ause": 745,
      "\u0120high": 746,
      "ble": 747,
      "\u0120different": 748,
      "erg": 749,
      "ple": 750,
      "\u0120people": 751,
      "xt": 752,
      "\u0120only": 753,
      "\u0120well": 754,
      "\u0120pr": 755,
      "\u0120spec": 756,
      "bs": 757,
      "\u0120system": 758,
      "\u0120em": 759,
      "erv": 760,
      "fore": 761,
      "\u0120includ": 762,
      "ced": 763,
      "\u0120light": 764,
      "ates": 765,
      "ics": 766,
      "\u0120rem": 767,
      "ise": 768,
      "chn": 769,
      "ual": 770,
      "\u0120import": 771,
      "oss": 772,
      "\u0120no": 773,
      "\u0120two": 774,
      "\u0120car": 775,
      "?\u010a": 776,
      "\u0120long": 777,
      "\u0120ph": 778,
      "\u0120know": 779,
      "\u0120way": 780,
      "ible": 781,
      "ft": 782,
      "\u0120vari": 783,
      "\u0120An": 784,
      "\u0120does": 785,
      "aterial": 786,
      "\u0120St": 787,
      "In": 788,
      "ne": 789,
      "ities": 790,
      "\u0120it's": 791,
      "ark": 792,
      "\u0120reg": 793,
      "ph": 794,
      "\u0120They": 795,
      "ond": 796,
      "hed": 797,
      "get": 798,
      "ink": 799,
      "\u0120main": 800,
      "\u0120inst": 801,
      "\u0120K": 802,
      "ount": 803,
      "ually": 804,
      "\u0120where": 805,
      "ential": 806,
      "\u0120att": 807,
      "\u0120could": 808,
      "\u0120rep": 809,
      "fter": 810,
      "\u0120first": 811,
      "\u0120rel": 812,
      "\u0120sim": 813,
      "\u0120material": 814,
      "n't": 815,
      "lic": 816,
      "uch": 817,
      "\u0120my": 818,
      "wn": 819,
      "\u0120even": 820,
      "alth": 821,
      "arch": 822,
      "ife": 823,
      "on't": 824,
      "\u0120exper": 825,
      "velop": 826,
      "\u0120process": 827,
      "\u0120br": 828,
      "ract": 829,
      "ize": 830,
      "ween": 831,
      "ative": 832,
      "\u0120inter": 833,
      "\u0120because": 834,
      "\u0120elect": 835,
      "enc": 836,
      "\u0120di": 837,
      "\u0120trans": 838,
      "int": 839,
      "\u0120requ": 840,
      "ever": 841,
      "\u0120every": 842,
      "ob": 843,
      "\u0120important": 844,
      "\u0120If": 845,
      "\u0120very": 846,
      "\u0120techn": 847,
      "\u0120then": 848,
      "\u0120det": 849,
      "'re": 850,
      "\u0120his": 851,
      "\u0120cre": 852,
      "\u0120che": 853,
      "\u0120between": 854,
      "\u0120How": 855,
      "\u0120ins": 856,
      "ines": 857,
      "\u0120Wh": 858,
      "\u0120using": 859,
      "\u0120inv": 860,
      "\u0120V": 861,
      "\u0120gl": 862,
      "\u0120air": 863,
      "00": 864,
      "erm": 865,
      "\u0120develop": 866,
      "ins": 867,
      "mer": 868,
      "pect": 869,
      "\u0120Ch": 870,
      "old": 871,
      "\u0120fun": 872,
      "\u0120good": 873,
      "iqu": 874,
      "iron": 875,
      "\u0120see": 876,
      "\u0120rese": 877,
      "\u0120back": 878,
      "\u0120ac": 879,
      "\u0120mod": 880,
      "\u0120much": 881,
      "\u0120You": 882,
      "\u0120dra": 883,
      "\u0120sign": 884,
      "\u0120dec": 885,
      "ures": 886,
      "ased": 887,
      "ily": 888,
      "\u0120lar": 889,
      "\u0120ext": 890,
      "ock": 891,
      "stand": 892,
      "\u0120form": 893,
      "\u0120exp": 894,
      "ergy": 895,
      "\u0120small": 896,
      "\u0120pat": 897,
      "ruct": 898,
      "\u0120years": 899,
      "ality": 900,
      "ety": 901,
      "\u0120pa": 902,
      "ene": 903,
      "\u0120want": 904,
      "\u0120eas": 905,
      "ural": 906,
      "\u0120child": 907,
      "\u0120av": 908,
      "\u0120find": 909,
      "ution": 910,
      "\u0120hum": 911,
      "\u0120gener": 912,
      "\u0120design": 913,
      "ere": 914,
      "\u0120power": 915,
      "\u0120typ": 916,
      "?\u010a\u010a": 917,
      "\u0120pers": 918,
      "\u0120health": 919,
      "\u0120\u00e2\u0122\u0135": 920,
      "vent": 921,
      "ious": 922,
      "\u0120supp": 923,
      "\u0120pot": 924,
      "\u0120had": 925,
      "iss": 926,
      "els": 927,
      "gan": 928,
      "ically": 929,
      "\u0120made": 930,
      "\u0120met": 931,
      "\u0120food": 932,
      "19": 933,
      "\u0120effect": 934,
      "gg": 935,
      "\u0120while": 936,
      "\u0120world": 937,
      "\u0120hand": 938,
      "\u0120her": 939,
      "ology": 940,
      "\u0120gra": 941,
      "\u0120each": 942,
      "\u0120found": 943,
      "ather": 944,
      "\u0120conc": 945,
      "elf": 946,
      "\u0120take": 947,
      "\u0120often": 948,
      "ps": 949,
      "\u0120Un": 950,
      "\u0120-": 951,
      "\u0120cle": 952,
      "\u0120play": 953,
      "..": 954,
      "ists": 955,
      "rit": 956,
      "\u0120start": 957,
      "\u0120allow": 958,
      "oy": 959,
      "\u0120cur": 960,
      "\u0120being": 961,
      "\u00e2\u0122\u013b": 962,
      "\u0120around": 963,
      "\u0120disc": 964,
      "ool": 965,
      "ron": 966,
      "\u0120keep": 967,
      "rib": 968,
      "viron": 969,
      "\u0120sk": 970,
      "\u0120before": 971,
      "ian": 972,
      "\u0120result": 973,
      "\u0120home": 974,
      "other": 975,
      "\u0120she": 976,
      "\u0120call": 977,
      "\u0120during": 978,
      "\u0120best": 979,
      "\u0120plants": 980,
      "imate": 981,
      "ash": 982,
      "\u0120proper": 983,
      "\u0120str": 984,
      "kes": 985,
      "\u0120set": 986,
      "\u0120lear": 987,
      "of": 988,
      "\u0120min": 989,
      "\u0120energy": 990,
      "\u0120look": 991,
      "ages": 992,
      "arm": 993,
      "\u0120art": 994,
      "ider": 995,
      "\u0120don't": 996,
      "\u0120fol": 997,
      "\u0120comple": 998,
      "tle": 999,
      "\u0120after": 1000,
      "read": 1001,
      "\u0120exam": 1002,
      "\u0120aut": 1003,
      "\u0120fact": 1004,
      "ied": 1005,
      "dition": 1006,
      ".\"": 1007,
      "ident": 1008,
      "\u0120too": 1009,
      "\u0120inf": 1010,
      "ix": 1011,
      "ives": 1012,
      "ros": 1013,
      "\u0120down": 1014,
      "\u0120As": 1015,
      "\u0120ens": 1016,
      "\u0120sub": 1017,
      "oid": 1018,
      "\u0120incre": 1019,
      "\u0120right": 1020,
      "\u0120expl": 1021,
      "\u0120cut": 1022,
      "\u0120same": 1023,
      "\u0120cell": 1024,
      "\u0120num": 1025,
      "\u0120ear": 1026,
      "aw": 1027,
      "\u0120fish": 1028,
      "\u0120cor": 1029,
      "\u0120environ": 1030,
      "\u0120inform": 1031,
      "\u0120opt": 1032,
      "\u0120common": 1033,
      "ices": 1034,
      "urn": 1035,
      "\u0120person": 1036,
      "\u0120dep": 1037,
      "\u0120sec": 1038,
      "\u0120life": 1039,
      "ient": 1040,
      "What": 1041,
      "\u0120loc": 1042,
      "\u0120gu": 1043,
      "\u0120show": 1044,
      "ues": 1045,
      "\u0120prot": 1046,
      "ty": 1047,
      "led": 1048,
      "\u0120ap": 1049,
      "ody": 1050,
      "ases": 1051,
      "ram": 1052,
      "wor": 1053,
      "cept": 1054,
      "\u0120bo": 1055,
      "\u0120sci": 1056,
      "\u0120those": 1057,
      "\u0120own": 1058,
      "\u0120dr": 1059,
      "\u0120We": 1060,
      "ets": 1061,
      "\u0120both": 1062,
      "ized": 1063,
      "\u0120level": 1064,
      "\u0120som": 1065,
      "ake": 1066,
      "201": 1067,
      "\u0120said": 1068,
      "\u0120char": 1069,
      "\u0120pres": 1070,
      "ec": 1071,
      "\u0120cat": 1072,
      "ward": 1073,
      "\u0120ent": 1074,
      "ional": 1075,
      "\u0120lead": 1076,
      "rop": 1077,
      "\u0120build": 1078,
      "ness": 1079,
      "\u0120partic": 1080,
      "ason": 1081,
      "\u0120product": 1082,
      "\u0120solar": 1083,
      "\u0120pop": 1084,
      "\u0120mat": 1085,
      "\u0120understand": 1086,
      "\u0120eng": 1087,
      "\u0120less": 1088,
      "eng": 1089,
      "\u0120redu": 1090,
      "\u0120follow": 1091,
      "\u0120proble": 1092,
      "\u0120adv": 1093,
      "\u0120poss": 1094,
      "\u0120tem": 1095,
      "ational": 1096,
      "ands": 1097,
      "ency": 1098,
      "\u0120plan": 1099,
      "\u0120contro": 1100,
      "omm": 1101,
      "\u0120dam": 1102,
      "\u0120ref": 1103,
      "ides": 1104,
      "\u0120ob": 1105,
      "iel": 1106,
      "\u0120might": 1107,
      "\u0120care": 1108,
      "How": 1109,
      "\u0120provide": 1110,
      "\u0120dist": 1111,
      "\u0120For": 1112,
      "\u0120These": 1113,
      "ted": 1114,
      "\u0120day": 1115,
      "ots": 1116,
      "\u0120vis": 1117,
      "\u0120fin": 1118,
      "\u0120making": 1119,
      "ves": 1120,
      "way": 1121,
      "air": 1122,
      "\u0120bir": 1123,
      "\u0120project": 1124,
      "\u0120sl": 1125,
      "ving": 1126,
      "\u0120environment": 1127,
      "ved": 1128,
      "NA": 1129,
      ",\"": 1130,
      "uc": 1131,
      "\u0120mon": 1132,
      "\u0120ve": 1133,
      "\u0120end": 1134,
      "\u0120great": 1135,
      "\u0120experi": 1136,
      "\u0120now": 1137,
      "\u0120tool": 1138,
      "\u0120read": 1139,
      "\u0120surf": 1140,
      "\u0120lit": 1141,
      "\u0120prof": 1142,
      "ways": 1143,
      "chool": 1144,
      "any": 1145,
      ":\u010a": 1146,
      "tern": 1147,
      "ivers": 1148,
      "ger": 1149,
      "ier": 1150,
      "\u0120He": 1151,
      "ling": 1152,
      "\u0120dise": 1153,
      "\u0120protect": 1154,
      "\u0120type": 1155,
      "\u0120anim": 1156,
      "ank": 1157,
      "10": 1158,
      "\u0120information": 1159,
      "ale": 1160,
      "ars": 1161,
      "\u0120const": 1162,
      "\u0120soil": 1163,
      "\u0120commun": 1164,
      "\u0120still": 1165,
      "less": 1166,
      "\u0120better": 1167,
      "day": 1168,
      "acter": 1169,
      "reen": 1170,
      "\u0120med": 1171,
      "\u0120change": 1172,
      "ave": 1173,
      "\u0120ide": 1174,
      "-s": 1175,
      ").": 1176,
      "\u0120'": 1177,
      "),": 1178,
      "\u0120pur": 1179,
      "\u0120without": 1180,
      "\u0120did": 1181,
      "\u0120creat": 1182,
      "\u0120dire": 1183,
      "\u0120known": 1184,
      "\u0120equ": 1185,
      "\u0120organ": 1186,
      "io": 1187,
      "iving": 1188,
      "ew": 1189,
      "\u0120large": 1190,
      "\u0120specific": 1191,
      "pen": 1192,
      "\u0120few": 1193,
      "-f": 1194,
      "ouse": 1195,
      "ited": 1196,
      "ict": 1197,
      "-b": 1198,
      "til": 1199,
      "\u0120ed": 1200,
      "This": 1201,
      "ired": 1202,
      "ants": 1203,
      "\u0120def": 1204,
      "ips": 1205,
      "\u0120test": 1206,
      "It": 1207,
      "\u0120research": 1208,
      "\u0120bre": 1209,
      "\u0120materials": 1210,
      "enef": 1211,
      "\u0120serv": 1212,
      "\u0120create": 1213,
      "eg": 1214,
      "ism": 1215,
      "ivid": 1216,
      "ters": 1217,
      "\u0120sure": 1218,
      "\u0120cost": 1219,
      "\u0120top": 1220,
      "\u0120draw": 1221,
      "\u0120Al": 1222,
      "\u0120But": 1223,
      "\u0120you're": 1224,
      "\u0120place": 1225,
      "\u0120meth": 1226,
      "itions": 1227,
      "ern": 1228,
      "\u0120Pro": 1229,
      "\u0120species": 1230,
      "ffect": 1231,
      "ince": 1232,
      "ven": 1233,
      "\u0120val": 1234,
      "\u0120hard": 1235,
      "etic": 1236,
      "perature": 1237,
      "If": 1238,
      "\u0120ass": 1239,
      "\u0120appe": 1240,
      "ute": 1241,
      "\u0120loo": 1242,
      "\u0120impro": 1243,
      "'ll": 1244,
      "\u0120study": 1245,
      "iew": 1246,
      "\u0120body": 1247,
      "the": 1248,
      "ull": 1249,
      "\u0120mo": 1250,
      "\u0120again": 1251,
      "\u0120To": 1252,
      "\u0120There": 1253,
      "\u0120bel": 1254,
      "\u0120including": 1255,
      "ata": 1256,
      "aves": 1257,
      "\u0120prevent": 1258,
      "\u0120So": 1259,
      "irc": 1260,
      "\u0120happ": 1261,
      "-c": 1262,
      "\u0120occ": 1263,
      "\u0120ess": 1264,
      "\u0120think": 1265,
      "ined": 1266,
      "\u0120nat": 1267,
      "hers": 1268,
      "ining": 1269,
      "\u0120However": 1270,
      "ead": 1271,
      "\u0120consider": 1272,
      "ium": 1273,
      "ique": 1274,
      "ont": 1275,
      "\u0120contain": 1276,
      "nect": 1277,
      "\u0120Th": 1278,
      "\u0120fam": 1279,
      "ention": 1280,
      "\u0120When": 1281,
      "ense": 1282,
      "\u0120rad": 1283,
      "\u0120though": 1284,
      "\u0120chang": 1285,
      "ng": 1286,
      "\u0120things": 1287,
      "\u0120beh": 1288,
      "rence": 1289,
      "\u0120cent": 1290,
      "\u0120And": 1291,
      "\u0120wear": 1292,
      "iness": 1293,
      "\u0120benef": 1294,
      "ustr": 1295,
      "\u0120ident": 1296,
      "\u0120impact": 1297,
      "\u0120must": 1298,
      "\u0120real": 1299,
      "\u0120temperature": 1300,
      "\u0120feel": 1301,
      "ner": 1302,
      "\u0120called": 1303,
      "\u0120sty": 1304,
      "cing": 1305,
      "\u0120wood": 1306,
      "\u0120ele": 1307,
      "eds": 1308,
      "\u0120method": 1309,
      "\u0120struct": 1310,
      "ior": 1311,
      "ething": 1312,
      "oes": 1313,
      "ertain": 1314,
      "\u0120ser": 1315,
      "\u0120number": 1316,
      "\u0120cho": 1317,
      "\u0120ensure": 1318,
      "\u0120area": 1319,
      "\u0120iss": 1320,
      "ared": 1321,
      "yc": 1322,
      ":\u010a\u010a": 1323,
      "\u0120sun": 1324,
      "\u0120ris": 1325,
      "\u0120why": 1326,
      "\u0120example": 1327,
      "\u0120sw": 1328,
      "ability": 1329,
      "ush": 1330,
      "ulation": 1331,
      "\u0120three": 1332,
      "\u0120current": 1333,
      "\u0120key": 1334,
      "\u0120require": 1335,
      "\u0120various": 1336,
      "ids": 1337,
      "ath": 1338,
      "ental": 1339,
      "ime": 1340,
      "\u0120caus": 1341,
      "\u0120types": 1342,
      "ape": 1343,
      "\u0120children": 1344,
      "\u0120human": 1345,
      "ivity": 1346,
      "ify": 1347,
      "\u0120pol": 1348,
      "\u0120come": 1349,
      "\u0120students": 1350,
      "\u0120perform": 1351,
      "ross": 1352,
      "me": 1353,
      "\u0120pract": 1354,
      "oor": 1355,
      "\u0120something": 1356,
      "rees": 1357,
      "\u0120surface": 1358,
      "\u0120resp": 1359,
      "\u0120pan": 1360,
      "\u0120potential": 1361,
      "ield": 1362,
      "\u0120bas": 1363,
      "\u0120text": 1364,
      "\u0120cause": 1365,
      "\u0120control": 1366,
      "\u0120clean": 1367,
      "\u00e2\u0122\u013bs": 1368,
      "\u0120space": 1369,
      "\u0120I'": 1370,
      "\u0120step": 1371,
      "\u0120become": 1372,
      "line": 1373,
      "\u0120learn": 1374,
      "\u0120pos": 1375,
      "\u0120profess": 1376,
      "Wh": 1377,
      "\u0120able": 1378,
      "\u0120individ": 1379,
      "itive": 1380,
      "\u0120cr": 1381,
      "aste": 1382,
      "here": 1383,
      "\u0120try": 1384,
      "\u0120cour": 1385,
      "\u0120signific": 1386,
      "\u0120prog": 1387,
      "arden": 1388,
      "\u0120class": 1389,
      "\u0120oper": 1390,
      "\u0120lot": 1391,
      "\u0120always": 1392,
      "\u0120contin": 1393,
      "fort": 1394,
      "\u0120another": 1395,
      "\u0120addition": 1396,
      "\u0120really": 1397,
      "ording": 1398,
      "\u0120meas": 1399,
      "ently": 1400,
      "\u0120little": 1401,
      "\u0120Ad": 1402,
      "\u0120It's": 1403,
      "\u0120last": 1404,
      "\u0120put": 1405,
      "\u0120going": 1406,
      "ished": 1407,
      "\u0120essential": 1408,
      "\u0120conf": 1409,
      "\u0120low": 1410,
      "\u0120support": 1411,
      "requ": 1412,
      "\u0120circ": 1413,
      "\u0120cra": 1414,
      "\u0120let": 1415,
      "light": 1416,
      "br": 1417,
      "\u0120due": 1418,
      "\u0120team": 1419,
      "-t": 1420,
      "\u0120roof": 1421,
      "An": 1422,
      "\u0120pass": 1423,
      "\u0120cond": 1424,
      "pr": 1425,
      "\u0120point": 1426,
      "\u0120means": 1427,
      "\u0120data": 1428,
      "\u0120mark": 1429,
      "over": 1430,
      "\u0120move": 1431,
      "\u0120sit": 1432,
      "\u0120possible": 1433,
      "\u0120run": 1434,
      "\u0120del": 1435,
      "thing": 1436,
      "\u0120sever": 1437,
      "\u0120par": 1438,
      "\u0120direct": 1439,
      "ator": 1440,
      "\u0120within": 1441,
      "\u0120natural": 1442,
      "\u0120connect": 1443,
      "ends": 1444,
      "\u0120bus": 1445,
      "\u0120stand": 1446,
      "\u0120needs": 1447,
      "\u0120vol": 1448,
      "enn": 1449,
      "ills": 1450,
      "\u0120Pl": 1451,
      "ats": 1452,
      "\u0120scient": 1453,
      "astic": 1454,
      "ches": 1455,
      "\u0120ste": 1456,
      "de": 1457,
      "ember": 1458,
      "\u0120hy": 1459,
      "iversity": 1460,
      "ital": 1461,
      "ision": 1462,
      "\u0120makes": 1463,
      "\u0120disease": 1464,
      "ering": 1465,
      "\u0120free": 1466,
      "\u0120sour": 1467,
      "\u0120say": 1468,
      "\u0120invol": 1469,
      "omes": 1470,
      "\u0120here": 1471,
      "\u0120treat": 1472,
      "\u0120appro": 1473,
      "iven": 1474,
      "osed": 1475,
      "\u0120usually": 1476,
      "aces": 1477,
      "\u0120avail": 1478,
      "ination": 1479,
      "When": 1480,
      "\u0120size": 1481,
      "\u0120areas": 1482,
      "\u0120school": 1483,
      "be": 1484,
      "ccess": 1485,
      "\u0120several": 1486,
      "rodu": 1487,
      "\u0120include": 1488,
      "\u0120enough": 1489,
      "200": 1490,
      "\u0120wind": 1491,
      "rete": 1492,
      "par": 1493,
      "\u0120bi": 1494,
      "\u0120count": 1495,
      "\u0120applic": 1496,
      "ending": 1497,
      "\u0120wee": 1498,
      "ards": 1499,
      "\u0120install": 1500,
      "\u0120head": 1501,
      "\u0120affect": 1502,
      "\u0120technology": 1503,
      "\u0120es": 1504,
      "\u0120phys": 1505,
      "olution": 1506,
      "uss": 1507,
      "\u0120color": 1508,
      "\u0120electric": 1509,
      "\u0120pain": 1510,
      "\u0120dev": 1511,
      "ex": 1512,
      "\u0120grou": 1513,
      "oms": 1514,
      "...": 1515,
      "\u0120damage": 1516,
      "fer": 1517,
      "\u0120effic": 1518,
      "\u0120hist": 1519,
      "\u0120pub": 1520,
      "\u0120significant": 1521,
      "ilar": 1522,
      "erest": 1523,
      "\u0120mean": 1524,
      "\u0120give": 1525,
      "\u0120la": 1526,
      "cially": 1527,
      "\u0120lay": 1528,
      "\u0120cap": 1529,
      "ems": 1530,
      "\u0120fil": 1531,
      "aking": 1532,
      "\u0120quality": 1533,
      "\u0120systems": 1534,
      "\u0120ground": 1535,
      "ster": 1536,
      "\u0120experience": 1537,
      "\u0120beg": 1538,
      "\u0120old": 1539,
      "\u0120big": 1540,
      "ug": 1541,
      "\u0120open": 1542,
      "meric": 1543,
      "\u0120mach": 1544,
      "arc": 1545,
      "\u0120el": 1546,
      "mat": 1547,
      "\u0120interest": 1548,
      "\u0120heat": 1549,
      "\u0120est": 1550,
      "\u0120lo": 1551,
      "iver": 1552,
      "\u0120garden": 1553,
      "\u0120On": 1554,
      "fact": 1555,
      "\u0120rest": 1556,
      "ieve": 1557,
      "ably": 1558,
      "ura": 1559,
      "\u0120easy": 1560,
      "\u0120popular": 1561,
      "orts": 1562,
      "atch": 1563,
      "\u0120Sh": 1564,
      "\u0120conditions": 1565,
      "\u0120lim": 1566,
      "\u0120times": 1567,
      "\u0120certain": 1568,
      "\u0120comes": 1569,
      "\u0120available": 1570,
      "\u0120mag": 1571,
      "\u0120access": 1572,
      "ances": 1573,
      "\u0120sal": 1574,
      "icle": 1575,
      "\u0120line": 1576,
      "outh": 1577,
      "\u0120range": 1578,
      "\u0120maintain": 1579,
      "\u0120feature": 1580,
      "az": 1581,
      "ruction": 1582,
      "\u0120cells": 1583,
      "ended": 1584,
      "\u0120nut": 1585,
      "We": 1586,
      "\u0120hig": 1587,
      "round": 1588,
      "\u0120win": 1589,
      "St": 1590,
      "\u0120following": 1591,
      "hor": 1592,
      "ified": 1593,
      "\u0120engine": 1594,
      "ories": 1595,
      "ization": 1596,
      "\u0120toget": 1597,
      "\u0120together": 1598,
      "\u0120special": 1599,
      "ott": 1600,
      "\u0120away": 1601,
      "\u0120opp": 1602,
      "ours": 1603,
      "\u0120Which": 1604,
      "ences": 1605,
      "\u0120comb": 1606,
      "\u0120Se": 1607,
      "omp": 1608,
      "\u0120sym": 1609,
      "\u0120climate": 1610,
      "As": 1611,
      "iding": 1612,
      "\u0120Is": 1613,
      "-p": 1614,
      "\u0120frequ": 1615,
      "\u0120particular": 1616,
      "\u0120webs": 1617,
      "\u0120pie": 1618,
      "ateg": 1619,
      "\u0120DNA": 1620,
      "\u0120repl": 1621,
      "amp": 1622,
      "\u0120mov": 1623,
      "\u0120growth": 1624,
      "\u0120state": 1625,
      "ashion": 1626,
      "\u0120flow": 1627,
      "\u0120With": 1628,
      "\u0120quick": 1629,
      "oot": 1630,
      "ption": 1631,
      "\u0120cal": 1632,
      "land": 1633,
      "ring": 1634,
      "alk": 1635,
      "\u0120determ": 1636,
      "\u0120function": 1637,
      "\u0120development": 1638,
      "aut": 1639,
      "-d": 1640,
      "\u0120business": 1641,
      "orn": 1642,
      "ocus": 1643,
      "\u0120dig": 1644,
      "\u0120Americ": 1645,
      "oose": 1646,
      "\u0120tree": 1647,
      "\u0120results": 1648,
      "\u00e2\u0122\u0136": 1649,
      "hip": 1650,
      "\u0120since": 1651,
      "gen": 1652,
      "\u0120enc": 1653,
      "\u0120mill": 1654,
      "\u0120effective": 1655,
      "fect": 1656,
      "ane": 1657,
      "\u0120near": 1658,
      "\u0120kind": 1659,
      "\u0120press": 1660,
      "\u0120cult": 1661,
      "\u0120chem": 1662,
      "\u0120ey": 1663,
      "\u0120avoid": 1664,
      "\u0120him": 1665,
      "\u0120prote": 1666,
      "cent": 1667,
      "\u0120mar": 1668,
      "\u0120mult": 1669,
      "\u0120By": 1670,
      "\u0120post": 1671,
      "\u0120building": 1672,
      "ately": 1673,
      "\u0120anal": 1674,
      "\u0120turn": 1675,
      "ustom": 1676,
      "\u0120necess": 1677,
      "ication": 1678,
      "\u0120present": 1679,
      "urther": 1680,
      "There": 1681,
      "\u0120ec": 1682,
      "fety": 1683,
      "\u0120Cl": 1684,
      "inal": 1685,
      "pecially": 1686,
      "\u0120comput": 1687,
      "\u0120side": 1688,
      "\u0120leaves": 1689,
      "aster": 1690,
      "\u0120dry": 1691,
      "ored": 1692,
      "\u0120next": 1693,
      "\u0120unique": 1694,
      "\u0120house": 1695,
      "\u0120bro": 1696,
      "\u0120strong": 1697,
      "\u0120ter": 1698,
      "\u0120diff": 1699,
      "\u0120sing": 1700,
      "\u0120others": 1701,
      "\u0120success": 1702,
      "uture": 1703,
      "let": 1704,
      "\u0120until": 1705,
      "\u0120complete": 1706,
      "soci": 1707,
      "\u0120tools": 1708,
      "\u0120dem": 1709,
      "You": 1710,
      "\u0120z": 1711,
      "50": 1712,
      "\u0120role": 1713,
      "ufact": 1714,
      "\u0120problem": 1715,
      "ffic": 1716,
      "ires": 1717,
      "\u0120products": 1718,
      "raft": 1719,
      "\u0120prim": 1720,
      "port": 1721,
      "\u0120improve": 1722,
      "\u0120short": 1723,
      "\u0120rece": 1724,
      "\u0120prom": 1725,
      "ables": 1726,
      "\u0120order": 1727,
      "asing": 1728,
      "gle": 1729,
      "\u0120tur": 1730,
      "\u0120month": 1731,
      "\u0120occur": 1732,
      "ients": 1733,
      "irt": 1734,
      "\u0120concrete": 1735,
      "\u0120dress": 1736,
      "\u0120amount": 1737,
      "\u0120days": 1738,
      "iod": 1739,
      "\u0120character": 1740,
      "\u0120stra": 1741,
      "\u0120similar": 1742,
      "omen": 1743,
      "ipp": 1744,
      "\u0120object": 1745,
      "ones": 1746,
      "\u0120simple": 1747,
      "\u0120That": 1748,
      "\u0120ret": 1749,
      "\u0120Re": 1750,
      "\u0120actually": 1751,
      "cks": 1752,
      "\u0120resist": 1753,
      "\u0120er": 1754,
      "\u0120focus": 1755,
      "\u0120based": 1756,
      "ries": 1757,
      "\u0120chall": 1758,
      "\u0120University": 1759,
      "\u0120safe": 1760,
      "\u0120early": 1761,
      "ding": 1762,
      "\u0120desc": 1763,
      "\u0120along": 1764,
      "\u0120mot": 1765,
      "\u0120wide": 1766,
      "icult": 1767,
      "\u0120likely": 1768,
      "30": 1769,
      "\u0120electr": 1770,
      "\u0120recomm": 1771,
      "ann": 1772,
      "ert": 1773,
      "'ve": 1774,
      "\u0120looking": 1775,
      "\u0120appear": 1776,
      "\u0120search": 1777,
      "12": 1778,
      "\u0120working": 1779,
      "\u0120feed": 1780,
      "\u0120Be": 1781,
      "\u0120designed": 1782,
      "ox": 1783,
      "\u0120content": 1784,
      "work": 1785,
      "bers": 1786,
      "ennis": 1787,
      "ote": 1788,
      "\u0120cru": 1789,
      "imes": 1790,
      "\u0120imm": 1791,
      "\u0120Ar": 1792,
      "\u0120done": 1793,
      "\u0120invest": 1794,
      "ither": 1795,
      "\u0120live": 1796,
      "jor": 1797,
      "\u0120local": 1798,
      "\u0120sens": 1799,
      "\u0120sugg": 1800,
      "\u0120researc": 1801,
      "\u0120trees": 1802,
      "\u0120non": 1803,
      "\u0120ways": 1804,
      "\u0120changes": 1805,
      "\u0120variety": 1806,
      "\u0120bag": 1807,
      "\u0120fri": 1808,
      "\u0120green": 1809,
      "\u0120bra": 1810,
      "\u0120Ear": 1811,
      "\u0120mind": 1812,
      "\u0120style": 1813,
      "\u0120risk": 1814,
      "\u0120having": 1815,
      "18": 1816,
      "igns": 1817,
      "iting": 1818,
      "\u0120works": 1819,
      "\u0120Res": 1820,
      "\u0120fore": 1821,
      "\u0120especially": 1822,
      "\u0120problems": 1823,
      "\u00e2\u0122\u013f": 1824,
      "\u0120detail": 1825,
      "000": 1826,
      "\u0120past": 1827,
      "ustry": 1828,
      "-l": 1829,
      "\u0120says": 1830,
      "ope": 1831,
      "ints": 1832,
      "\u0120fashion": 1833,
      "\u0120suit": 1834,
      "\u0120orig": 1835,
      "\u0120future": 1836,
      "lus": 1837,
      "\u0120mic": 1838,
      "\u0120land": 1839,
      "\u0120tradition": 1840,
      "\u0120vers": 1841,
      "\u0120against": 1842,
      "lu": 1843,
      "lish": 1844,
      "\u0120metal": 1845,
      "\u0120case": 1846,
      "\u0120Can": 1847,
      "chan": 1848,
      "\u0120De": 1849,
      "\u0120manufact": 1850,
      "\u0120regular": 1851,
      "\u0120higher": 1852,
      "\u0120rele": 1853,
      "\u0120paper": 1854,
      "\u0120never": 1855,
      "\u0120thing": 1856,
      "\u0120mil": 1857,
      "aging": 1858,
      "\u0120tru": 1859,
      "ray": 1860,
      "\u0120begin": 1861,
      "ode": 1862,
      "ators": 1863,
      "\u0120personal": 1864,
      "\u0120sum": 1865,
      "oring": 1866,
      "\u0120jo": 1867,
      "\u0120suggest": 1868,
      "ised": 1869,
      "cer": 1870,
      "ken": 1871,
      "\u0120custom": 1872,
      "ration": 1873,
      "\u0120second": 1874,
      "duct": 1875,
      "\u0120behav": 1876,
      "ples": 1877,
      "\u0120Some": 1878,
      "\u0120birds": 1879,
      "\u0120check": 1880,
      "\u0120wall": 1881,
      "\u0120consum": 1882,
      "\u0120name": 1883,
      "ensive": 1884,
      "\u0120full": 1885,
      "ains": 1886,
      "\u0120learning": 1887,
      "\u0120growing": 1888,
      "craft": 1889,
      "\u0120reason": 1890,
      "othing": 1891,
      "izing": 1892,
      "\u0120reduce": 1893,
      "ured": 1894,
      "\u0120bit": 1895,
      "atter": 1896,
      "\u0120sn": 1897,
      "\u0120vide": 1898,
      "\u0120increase": 1899,
      "tic": 1900,
      "\u0120major": 1901,
      "\u0120list": 1902,
      "\u0120least": 1903,
      "\u0120doesn't": 1904,
      "\u0120At": 1905,
      "\u0120stress": 1906,
      "\u0120far": 1907,
      "\u0120difficult": 1908,
      "\u0120comfort": 1909,
      "\u0120eat": 1910,
      "ax": 1911,
      "ered": 1912,
      "\u0120factors": 1913,
      "\u0120teeth": 1914,
      "\u0120website": 1915,
      "\u0120family": 1916,
      "rect": 1917,
      "-m": 1918,
      "\u0120Ex": 1919,
      "ury": 1920,
      "omet": 1921,
      "\u0120field": 1922,
      "\u00e2\u0122\u00a6": 1923,
      "\u0120Sp": 1924,
      "\u0120safety": 1925,
      "raph": 1926,
      "\u0120plastic": 1927,
      "\u0120today": 1928,
      "ump": 1929,
      "\u0120helps": 1930,
      "ah": 1931,
      "utes": 1932,
      "agn": 1933,
      "vious": 1934,
      "\u0120close": 1935,
      "self": 1936,
      "\u0120Ind": 1937,
      "\u0120parts": 1938,
      "\u0120compon": 1939,
      "\u0120phot": 1940,
      "por": 1941,
      "\u0120clear": 1942,
      "\u0120prob": 1943,
      "idence": 1944,
      "ibility": 1945,
      "\u0120New": 1946,
      "\u0120industry": 1947,
      "osing": 1948,
      "\u0120ach": 1949,
      "\u0120levels": 1950,
      "\u0120across": 1951,
      "\u0120lab": 1952,
      "ware": 1953,
      "\u0120produce": 1954,
      "\u0120issues": 1955,
      "\u0120Con": 1956,
      "und": 1957,
      "\u0120obs": 1958,
      "!\u010a\u010a": 1959,
      "\u0120genes": 1960,
      "\u0120\u00e2\u0122\u0136": 1961,
      "apt": 1962,
      "\u0120period": 1963,
      "\u0120understanding": 1964,
      "\u0120fall": 1965,
      "yl": 1966,
      "\u0120course": 1967,
      "\u0120fac": 1968,
      "avor": 1969,
      "\u0120Inst": 1970,
      "ological": 1971,
      "\u0120parent": 1972,
      "\u0120ans": 1973,
      "though": 1974,
      "lying": 1975,
      "tenance": 1976,
      "\u0120offer": 1977,
      "vert": 1978,
      "\u0120Sci": 1979,
      "\u0120veget": 1980,
      "ided": 1981,
      "\u0120leg": 1982,
      "\u0120thin": 1983,
      "\u0120allows": 1984,
      "\u0120mix": 1985,
      "\u0120market": 1986,
      "ED": 1987,
      "\u0120oil": 1988,
      "\u0120once": 1989,
      "\u0120red": 1990,
      "\u0120four": 1991,
      "\u0120perfect": 1992,
      "\u0120mem": 1993,
      "\u0120event": 1994,
      "\u0120norm": 1995,
      "\u0120I'm": 1996,
      "\u0120production": 1997,
      "\u0120typically": 1998,
      "\u0120Ph": 1999,
      "\u0120single": 2000,
      "15": 2001,
      "\u0120prec": 2002,
      "view": 2003,
      "\u0120cann": 2004,
      "\u0120Earth": 2005,
      "reng": 2006,
      "\u0120cover": 2007,
      "\u0120researchers": 2008,
      "\u0120lif": 2009,
      "\u0120professional": 2010,
      "\u0120ce": 2011,
      "istic": 2012,
      "\u0120healthy": 2013,
      "\u0120purp": 2014,
      "\u0120necessary": 2015,
      "\u0120benefits": 2016,
      "\u0120white": 2017,
      "ression": 2018,
      "\u0120Your": 2019,
      "ton": 2020,
      "bon": 2021,
      "\u0120social": 2022,
      "\u0120gre": 2023,
      "\u0120according": 2024,
      "\u0120construction": 2025,
      "!\u010a": 2026,
      "side": 2027,
      "uck": 2028,
      "\u0120mechan": 2029,
      "ites": 2030,
      "\u0120activ": 2031,
      "oney": 2032,
      "To": 2033,
      "ried": 2034,
      "\u0120ability": 2035,
      "ole": 2036,
      "ules": 2037,
      "\u0120complex": 2038,
      "ler": 2039,
      "ipment": 2040,
      "mit": 2041,
      "ret": 2042,
      "\u0120report": 2043,
      "\u0120above": 2044,
      "\u0120black": 2045,
      "uten": 2046,
      "\u0120author": 2047,
      "\u0120group": 2048,
      "osp": 2049,
      "\u0120crucial": 2050,
      "aving": 2051,
      "\u0120chemical": 2052,
      "ges": 2053,
      "\u0120Te": 2054,
      "resh": 2055,
      "\u0120gene": 2056,
      "most": 2057,
      "\u0120En": 2058,
      "\u0120abs": 2059,
      "\u0120left": 2060,
      "\u0120associ": 2061,
      "EO": 2062,
      "ral": 2063,
      "ising": 2064,
      "\u0120deep": 2065,
      "\u0120et": 2066,
      "ready": 2067,
      "sel": 2068,
      "\u0120weather": 2069,
      "\u0120shape": 2070,
      "\u0120seen": 2071,
      "\u0120expect": 2072,
      "rown": 2073,
      "\u0120sea": 2074,
      "ogn": 2075,
      "cy": 2076,
      "\u0120easily": 2077,
      "\u0120whether": 2078,
      "iple": 2079,
      "\u0120term": 2080,
      "\u0120history": 2081,
      "\u0120cutting": 2082,
      "\u0120break": 2083,
      "\u0120choose": 2084,
      "\u0120choice": 2085,
      "\u0120either": 2086,
      "wards": 2087,
      "bit": 2088,
      "For": 2089,
      "to": 2090,
      "joy": 2091,
      "\u0120pred": 2092,
      "\u0120love": 2093,
      "\u0120tell": 2094,
      "\u0120longer": 2095,
      "\u0120game": 2096,
      "une": 2097,
      "\u0120happen": 2098,
      "\u0120structure": 2099,
      "ission": 2100,
      "\u0120panels": 2101,
      "anced": 2102,
      "man": 2103,
      "\u0120diet": 2104,
      "\u0120ever": 2105,
      "\u0120fru": 2106,
      "\u0120season": 2107,
      "oh": 2108,
      "\u0120remov": 2109,
      "iation": 2110,
      "\u0120genetic": 2111,
      "\u0120sound": 2112,
      "\u0120pack": 2113,
      "\u0120getting": 2114,
      "\u0120already": 2115,
      "\u0120company": 2116,
      "nam": 2117,
      "atic": 2118,
      "\u0120streng": 2119,
      "\u0120speed": 2120,
      "str": 2121,
      "ilities": 2122,
      "alf": 2123,
      "\u0120ball": 2124,
      "\u0120cool": 2125,
      "\u0120further": 2126,
      "\u0120moist": 2127,
      "\u0120needed": 2128,
      "\u0120intern": 2129,
      "\u0120warm": 2130,
      "lished": 2131,
      "\u0120hol": 2132,
      "\u0120enh": 2133,
      "uals": 2134,
      "\u0120whole": 2135,
      "cean": 2136,
      ".\"\u010a\u010a": 2137,
      "\u0120science": 2138,
      "100": 2139,
      "\u0120aircraft": 2140,
      "\u0120article": 2141,
      "\u0120week": 2142,
      "lection": 2143,
      "uff": 2144,
      "\u0120Eng": 2145,
      "\u0120One": 2146,
      "ived": 2147,
      "\u0120model": 2148,
      "\u0120scientists": 2149,
      "\u0120lower": 2150,
      "\u0120exist": 2151,
      "\u0120hours": 2152,
      "\u0120equipment": 2153,
      "ength": 2154,
      "\u0120buy": 2155,
      "\u0120exc": 2156,
      "\u0120traditional": 2157,
      "\u0120contrib": 2158,
      "ledge": 2159,
      "ilt": 2160,
      "\u0120source": 2161,
      "estions": 2162,
      "ream": 2163,
      "hing": 2164,
      "\u0120ask": 2165,
      "\u0120animals": 2166,
      "ee": 2167,
      "for": 2168,
      "\u0120program": 2169,
      "\u0120among": 2170,
      "\u0120idea": 2171,
      "\u0120provides": 2172,
      "ird": 2173,
      "\u0120question": 2174,
      "\u0120difference": 2175,
      "\u0120heav": 2176,
      "\u0120drawing": 2177,
      "selves": 2178,
      "\u0120tennis": 2179,
      "\u0120discuss": 2180,
      "\u0120advant": 2181,
      "ortun": 2182,
      "\u0120magn": 2183,
      "ties": 2184,
      "\u0120required": 2185,
      "ores": 2186,
      "\u0120fit": 2187,
      "\u0120soft": 2188,
      "\u0120shar": 2189,
      "\u0120someone": 2190,
      "\u0120steel": 2191,
      "\u0120bar": 2192,
      "\u0120\u00e2\u0122\u013e": 2193,
      "\u0120clothing": 2194,
      "\u0120net": 2195,
      "\u0120deg": 2196,
      "\u0120performance": 2197,
      "\u0120applications": 2198,
      "\u0120inside": 2199,
      "\u0120Wor": 2200,
      "\u0120sand": 2201,
      "\u0120ut": 2202,
      "\u0120stop": 2203,
      "\u0120wr": 2204,
      "\u0120site": 2205,
      "\u0120online": 2206,
      "\u0120given": 2207,
      "\u0120Bl": 2208,
      "iques": 2209,
      "\u0120squ": 2210,
      "aps": 2211,
      "rap": 2212,
      "aling": 2213,
      "\u0120resour": 2214,
      "fully": 2215,
      "\u0120tar": 2216,
      "\u0120weight": 2217,
      "\u0120electrical": 2218,
      "\u0120individual": 2219,
      "\u0120enjoy": 2220,
      "ows": 2221,
      "\u0120optim": 2222,
      "\u0120&": 2223,
      "ply": 2224,
      "\u0120that's": 2225,
      "\u0120doing": 2226,
      "\u0120effects": 2227,
      "\u0120minim": 2228,
      "\u0120measure": 2229,
      "reme": 2230,
      "\u0120react": 2231,
      "\u0120emb": 2232,
      "by": 2233,
      "inc": 2234,
      "\u0120correct": 2235,
      "\u0120hot": 2236,
      "\u0120war": 2237,
      "onom": 2238,
      "\u0120bal": 2239,
      "\u0120seeds": 2240,
      "\u0120quickly": 2241,
      "\u0120bul": 2242,
      "\u0120compet": 2243,
      "202": 2244,
      "idd": 2245,
      "\u0120view": 2246,
      "\u0120creating": 2247,
      "\u0120fill": 2248,
      "\u0120evolution": 2249,
      "\u0120bird": 2250,
      "\u0120maintenance": 2251,
      "\u0120age": 2252,
      "\u0120Z": 2253,
      "\u0120While": 2254,
      "ograph": 2255,
      "\u0120rot": 2256,
      "\u0120features": 2257,
      "ames": 2258,
      "\u0120pressure": 2259,
      "\u0120fer": 2260,
      "\u0120entire": 2261,
      "\u0120skills": 2262,
      "\u0120can't": 2263,
      "\u0120coll": 2264,
      "\u0120self": 2265,
      "\u0120repres": 2266,
      "\u0120below": 2267,
      "\u0120experim": 2268,
      "\u0120educ": 2269,
      "iency": 2270,
      "\u0120Or": 2271,
      "\u0120gar": 2272,
      "\u0120waste": 2273,
      "\u0120describ": 2274,
      "\u0120prop": 2275,
      "ching": 2276,
      "\u0120glob": 2277,
      "\u0120extra": 2278,
      "icate": 2279,
      "ropri": 2280,
      "idered": 2281,
      "\u0120manage": 2282,
      "ploy": 2283,
      "ging": 2284,
      "olar": 2285,
      "aced": 2286,
      "\u0120mal": 2287,
      "\u0120smo": 2288,
      "\u0120ill": 2289,
      "\u0120money": 2290,
      "So": 2291,
      "\u0120public": 2292,
      "\u0120strateg": 2293,
      "\u0120base": 2294,
      "\u0120dura": 2295,
      "\u0120challeng": 2296,
      "\u0120uses": 2297,
      "\u0120writ": 2298,
      "ery": 2299,
      "\u0120gluten": 2300,
      "\u0120US": 2301,
      "\u0120you'll": 2302,
      "\u0120respons": 2303,
      "\u0120Col": 2304,
      "rences": 2305,
      "Ch": 2306,
      "ugh": 2307,
      "\u0120No": 2308,
      "af": 2309,
      "\u0120beaut": 2310,
      "\u0120seed": 2311,
      "\u0120crit": 2312,
      "ference": 2313,
      "\u0120overall": 2314,
      "\u0120young": 2315,
      "\u0120tank": 2316,
      "uit": 2317,
      "\u0120mention": 2318,
      "\u0120detect": 2319,
      "\u0120jour": 2320,
      "\u0120tas": 2321,
      "\u0120physical": 2322,
      "\u0120pay": 2323,
      "fish": 2324,
      "atory": 2325,
      "amm": 2326,
      "\u0120repair": 2327,
      "\u0120All": 2328,
      "\u0120grass": 2329,
      "cell": 2330,
      "uro": 2331,
      "oming": 2332,
      "\u0120considered": 2333,
      "\u0120sense": 2334,
      "\u0120Sc": 2335,
      "earch": 2336,
      "ades": 2337,
      "ze": 2338,
      ")\u010a": 2339,
      "\u0120hold": 2340,
      "\u0120sil": 2341,
      "\u0120approach": 2342,
      "lec": 2343,
      "\u0120egg": 2344,
      "\u0120elements": 2345,
      "\u0120techniques": 2346,
      "\u0120situ": 2347,
      "Al": 2348,
      "\u0120Im": 2349,
      ".\"\u010a": 2350,
      "ina": 2351,
      "\u0120super": 2352,
      "\u0120got": 2353,
      "\u0120path": 2354,
      "\u0120thought": 2355,
      "aged": 2356,
      "oura": 2357,
      "\u0120winter": 2358,
      "utions": 2359,
      "\u0120opportun": 2360,
      "\u0120attention": 2361,
      "\u0120lines": 2362,
      "\u0120nature": 2363,
      "\u0120influ": 2364,
      "\u0120larger": 2365,
      "\u0120treatment": 2366,
      "\u0120matter": 2367,
      "\u0120isn't": 2368,
      "\u0120interact": 2369,
      "\u0120rather": 2370,
      "\u0120identify": 2371,
      "\u0120computer": 2372,
      "\u0120knowledge": 2373,
      "\u0120extreme": 2374,
      "\u0120book": 2375,
      "\u0120bring": 2376,
      "\u0120video": 2377,
      "\u0120meet": 2378,
      "On": 2379,
      "\u0120aqu": 2380,
      "ney": 2381,
      "just": 2382,
      "\u0120efficient": 2383,
      "\u0120consist": 2384,
      "\u0120methods": 2385,
      "ification": 2386,
      "TE": 2387,
      "\u0120adapt": 2388,
      "\u0120init": 2389,
      "\u0120strength": 2390,
      "ik": 2391,
      "\u0120saw": 2392,
      "ils": 2393,
      "\u0120appl": 2394,
      "ls": 2395,
      "ley": 2396,
      "\u0120modern": 2397,
      "\u0120general": 2398,
      "ience": 2399,
      "\u0120feet": 2400,
      "\u0120however": 2401,
      "\u0120harm": 2402,
      "\u0120men": 2403,
      "na": 2404,
      "\u0120collect": 2405,
      "ese": 2406,
      "\u0120cop": 2407,
      "\u0120individuals": 2408,
      "ctor": 2409,
      "\u0120flu": 2410,
      "\u0120fresh": 2411,
      "put": 2412,
      "asons": 2413,
      "pro": 2414,
      "\u0120protein": 2415,
      "\u0120yourself": 2416,
      "water": 2417,
      "\u0120throughout": 2418,
      "\u0120remove": 2419,
      "\u0120Qu": 2420,
      "\u0120reach": 2421,
      "ym": 2422,
      "\u0120months": 2423,
      "rip": 2424,
      "\u0120humans": 2425,
      "\u0120infect": 2426,
      "\u0120conduct": 2427,
      "ged": 2428,
      "\u0120regul": 2429,
      "bo": 2430,
      "ront": 2431,
      "\u0120won": 2432,
      "vest": 2433,
      "\u0120percent": 2434,
      "\u0120bott": 2435,
      "\u0120target": 2436,
      "ta": 2437,
      "\u0120stay": 2438,
      "\u0120probably": 2439,
      "\u0120SEO": 2440,
      "\u0120simply": 2441,
      "\u0120ox": 2442,
      "\u0120Dr": 2443,
      "\u0120carbon": 2444,
      "\u0120bad": 2445,
      "orth": 2446,
      "\u0120hyd": 2447,
      "\u0120shap": 2448,
      "\u0120value": 2449,
      "\u0120solution": 2450,
      "\u0120bacter": 2451,
      "\u0120select": 2452,
      "\u0120contact": 2453,
      "\u0120answer": 2454,
      "\u0120fast": 2455,
      "\u0120electricity": 2456,
      "\u0120questions": 2457,
      "\u0120travel": 2458,
      "\u0120later": 2459,
      "\u0120Here": 2460,
      "\u0120micro": 2461,
      "ming": 2462,
      "\u0120etc": 2463,
      "\u0120taking": 2464,
      "\u0120night": 2465,
      "\u0120subst": 2466,
      "\u0120living": 2467,
      "edi": 2468,
      "\u0120slow": 2469,
      "\u0120projects": 2470,
      "\u0120tooth": 2471,
      "\u0120activities": 2472,
      "\u0120options": 2473,
      "\u0120She": 2474,
      "\u0120block": 2475,
      "\u0120neg": 2476,
      "\u0120kids": 2477,
      "One": 2478,
      "\u0120they're": 2479,
      "\u0120community": 2480,
      "\u0120root": 2481,
      "\u0120mus": 2482,
      "ditionally": 2483,
      "\u0120million": 2484,
      "\u0120load": 2485,
      "\u0120almost": 2486,
      "\u0120length": 2487,
      "\u0120story": 2488,
      "\u0120loss": 2489,
      "rum": 2490,
      "Th": 2491,
      "\u0120Do": 2492,
      "\u0120properties": 2493,
      "oph": 2494,
      "\u0120takes": 2495,
      "\u0120gas": 2496,
      "\u0120created": 2497,
      "\u0120introdu": 2498,
      "\u0120quite": 2499,
      "\u0120ant": 2500,
      "erous": 2501,
      "\u0120wa": 2502,
      "ustain": 2503,
      "isc": 2504,
      "\u0120har": 2505,
      "ae": 2506,
      "\u0120seem": 2507,
      "\u0120activity": 2508,
      "\u0120somet": 2509,
      "\u0120fra": 2510,
      "\u0120anything": 2511,
      "\u0120outside": 2512,
      "\u0120Har": 2513,
      "\u0120primary": 2514,
      "\u0120room": 2515,
      "\u0120American": 2516,
      "\u0120separ": 2517,
      "\u0120environmental": 2518,
      "\u0120floor": 2519,
      "\u0120instead": 2520,
      "\u0120property": 2521,
      "\u0120recyc": 2522,
      "\u0120generally": 2523,
      "\u0120appropri": 2524,
      "lusion": 2525,
      "\u0120explain": 2526,
      "\u0120tou": 2527,
      "eter": 2528,
      "\u0120ge": 2529,
      "\u0120summer": 2530,
      "\u0120colors": 2531,
      "\u0120components": 2532,
      "\u0120ones": 2533,
      "\u0120everything": 2534,
      "\u0120swe": 2535,
      "\u0120cases": 2536,
      "\u0120recogn": 2537,
      "vant": 2538,
      "\u0120exact": 2539,
      "rew": 2540,
      "\u0120cold": 2541,
      "eral": 2542,
      "\u0120themselves": 2543,
      "\u0120position": 2544,
      "\u0120behavior": 2545,
      "\u0120condition": 2546,
      "ystem": 2547,
      "\u0120women": 2548,
      "ellow": 2549,
      "\u0120moisture": 2550,
      "ooking": 2551,
      "\u0120observ": 2552,
      "\u0120link": 2553,
      "\u0120port": 2554,
      "\u0120yet": 2555,
      "\u0120half": 2556,
      "lex": 2557,
      "\u0120remain": 2558,
      "app": 2559,
      "40": 2560,
      "\u0120radio": 2561,
      "-g": 2562,
      "\u0120blood": 2563,
      "ude": 2564,
      "\u0120cook": 2565,
      "\u0120cannot": 2566,
      "\u0120machine": 2567,
      "inks": 2568,
      "\u0120providing": 2569,
      "\u0120glass": 2570,
      "\u0120ing": 2571,
      "oogle": 2572,
      "\u0120i": 2573,
      "\u0120molec": 2574,
      "\u0120associated": 2575,
      "akes": 2576,
      "\u0120Cent": 2577,
      "\u0120sometimes": 2578,
      "\u0120face": 2579,
      "\u0120suitable": 2580,
      "\u0120Fl": 2581,
      "\u0120developed": 2582,
      "izes": 2583,
      "\u0120industr": 2584,
      "\u0120address": 2585,
      "\u0120nutri": 2586,
      "\u0120prep": 2587,
      "Un": 2588,
      "\u0120law": 2589,
      "\u0120flight": 2590,
      "\u0120unc": 2591,
      "\u0120requires": 2592,
      "ule": 2593,
      "\u0120batter": 2594,
      "\u0120carry": 2595,
      "iring": 2596,
      "\u0120concept": 2597,
      "\u0120resistance": 2598,
      "itch": 2599,
      "\u0120rain": 2600,
      "\u0120items": 2601,
      "ched": 2602,
      "\u0120practice": 2603,
      "\u0120determine": 2604,
      "\u0120rate": 2605,
      "\u0120[": 2606,
      "\u0120issue": 2607,
      "\u0120added": 2608,
      "ef": 2609,
      "16": 2610,
      "\u0120LED": 2611,
      "\u0120ideal": 2612,
      "\u0120heart": 2613,
      "\u0120dark": 2614,
      "verse": 2615,
      "\u0120sat": 2616,
      "\u0120basic": 2617,
      "\u0120fib": 2618,
      "Why": 2619,
      "can": 2620,
      "\u0120started": 2621,
      "overed": 2622,
      "atively": 2623,
      "isms": 2624,
      "\u0120option": 2625,
      "ival": 2626,
      "\u0120quant": 2627,
      "\u0120words": 2628,
      "\u0120easier": 2629,
      "\u0120mass": 2630,
      "nov": 2631,
      "\u0120mess": 2632,
      "\u0120foods": 2633,
      "ams": 2634,
      "\u0120purpose": 2635,
      "\u0120multiple": 2636,
      "\u0120integ": 2637,
      "\u0120sequ": 2638,
      "\u0120positive": 2639,
      "\u0120lighting": 2640,
      "\u0120terms": 2641,
      "oon": 2642,
      "\u0120compan": 2643,
      "ecause": 2644,
      "\u0120tips": 2645,
      "\u0120dou": 2646,
      "\u0120smaller": 2647,
      "urity": 2648,
      "\u0120parents": 2649,
      "ctions": 2650,
      "\u0120ann": 2651,
      "11": 2652,
      "Ad": 2653,
      "\u0120fram": 2654,
      "\u0120altern": 2655,
      ",\u010a": 2656,
      "\u0120minutes": 2657,
      "\u0120properly": 2658,
      "\u0120tren": 2659,
      "\u0120surv": 2660,
      "reg": 2661,
      "ners": 2662,
      "ume": 2663,
      "lement": 2664,
      "aches": 2665,
      "\u0120increasing": 2666,
      "rim": 2667,
      "aria": 2668,
      "aily": 2669,
      "\u0120five": 2670,
      "\u0120Ne": 2671,
      "mb": 2672,
      "\u0120achieve": 2673,
      "\u0120services": 2674,
      "\u0120thick": 2675,
      "\u0120related": 2676,
      "25": 2677,
      "\u0120fig": 2678,
      "othes": 2679,
      "\u0120pict": 2680,
      "\u0120foot": 2681,
      "erve": 2682,
      "\u0120Car": 2683,
      "\u0120fire": 2684,
      "steroid": 2685,
      "\u0120itself": 2686,
      "elling": 2687,
      "umin": 2688,
      "\u0120compared": 2689,
      ")\u010a\u010a": 2690,
      "\u0120user": 2691,
      "\u0120Le": 2692,
      "\u0120caused": 2693,
      "bol": 2694,
      "verage": 2695,
      "AS": 2696,
      "\u0120box": 2697,
      "upp": 2698,
      "\u0120job": 2699,
      "\u0120commonly": 2700,
      "\u0120represent": 2701,
      "\u0120spring": 2702,
      "\u0120mut": 2703,
      "rel": 2704,
      "\u0120behind": 2705,
      "\u0120trying": 2706,
      "\u0120highly": 2707,
      "iles": 2708,
      "\u0120spread": 2709,
      "\u0120watch": 2710,
      "\u0120aspect": 2711,
      "\u0120layer": 2712,
      "eding": 2713,
      "\u0120syn": 2714,
      "\u0120shows": 2715,
      "\u0120pieces": 2716,
      "\u0120tot": 2717,
      "\u0120Us": 2718,
      "\u0120estab": 2719,
      "\u0120service": 2720,
      "\u0120After": 2721,
      "\u0120word": 2722,
      "\u0120ago": 2723,
      "\u0120kit": 2724,
      "\u0120capt": 2725,
      "\u0120relations": 2726,
      "\u0120image": 2727,
      "xim": 2728,
      "imately": 2729,
      "\u0120events": 2730,
      "\u0120includes": 2731,
      "umb": 2732,
      "angu": 2733,
      "Con": 2734,
      "uge": 2735,
      "\u0120taken": 2736,
      "gs": 2737,
      "\u0120eye": 2738,
      "\u0120belie": 2739,
      "uce": 2740,
      "Sh": 2741,
      "\u0120points": 2742,
      "\u0120sle": 2743,
      "\u0120global": 2744,
      "\u0120gover": 2745,
      "eor": 2746,
      "\u0120ocean": 2747,
      "\u0120lawn": 2748,
      "\u0120lights": 2749,
      "\u0120believe": 2750,
      "\u0120Gr": 2751,
      "\u0120efficiency": 2752,
      "\u0120signal": 2753,
      "raw": 2754,
      "\u0120explore": 2755,
      "\u0120additional": 2756,
      "oad": 2757,
      "But": 2758,
      "\u0120wire": 2759,
      "\u0120steps": 2760,
      "oses": 2761,
      "rig": 2762,
      "\u0120autom": 2763,
      "\u0120mentioned": 2764,
      "\u0120diseases": 2765,
      "-based": 2766,
      "\u0120tal": 2767,
      ").\u010a": 2768,
      "\u0120causes": 2769,
      "--": 2770,
      "\u0120particularly": 2771,
      "\u0120employ": 2772,
      "\u0120Science": 2773,
      "It's": 2774,
      "\u0120roots": 2775,
      "\u0120involved": 2776,
      "ops": 2777,
      "\u0120pick": 2778,
      "\u0120offers": 2779,
      "abor": 2780,
      "alt": 2781,
      "\u0120attract": 2782,
      "\u0120wild": 2783,
      "where": 2784,
      "like": 2785,
      "\u0120resources": 2786,
      "gest": 2787,
      "\u0120adjust": 2788,
      "\u0120temperatures": 2789,
      "\u0120piece": 2790,
      "\u0120fail": 2791,
      "\u0120electron": 2792,
      "\u0120guide": 2793,
      "arium": 2794,
      "-h": 2795,
      "\u0120Yes": 2796,
      "ening": 2797,
      "ysis": 2798,
      "yp": 2799,
      "\u0120poly": 2800,
      "\u0120pri": 2801,
      "ai": 2802,
      "\u0120Gen": 2803,
      "\u0120purch": 2804,
      "esp": 2805,
      "\u0120normal": 2806,
      "\u0120gain": 2807,
      "\u0120cats": 2808,
      "\u0120true": 2809,
      "itute": 2810,
      "\u0120lands": 2811,
      "\u0120cancer": 2812,
      "\u0120previous": 2813,
      "\u0120X": 2814,
      "head": 2815,
      "\u0120continu": 2816,
      "\u0120commer": 2817,
      "\u0120fem": 2818,
      "\u0120skin": 2819,
      "\u0120reflect": 2820,
      "\u0120prefer": 2821,
      "\u0120country": 2822,
      "\u0120devices": 2823,
      "\u0120increased": 2824,
      "icial": 2825,
      "\u0120standard": 2826,
      "\u0120share": 2827,
      "-w": 2828,
      "ibr": 2829,
      "\u0120earth": 2830,
      "\u0120dental": 2831,
      "\u0120displ": 2832,
      "arily": 2833,
      "\u0120subject": 2834,
      "rist": 2835,
      "\u0120hair": 2836,
      "\u0120Google": 2837,
      "\u0120mom": 2838,
      "rict": 2839,
      "ift": 2840,
      "\u0120National": 2841,
      "\u0120Ke": 2842,
      "ucle": 2843,
      "\u0120store": 2844,
      "\u0120Med": 2845,
      "irit": 2846,
      "\u0120sustain": 2847,
      "\u0120leading": 2848,
      "\u0120capac": 2849,
      "\u0120replace": 2850,
      "\u0120encoura": 2851,
      "\u0120coun": 2852,
      "rick": 2853,
      "\u0120allowing": 2854,
      "\u0120acid": 2855,
      "go": 2856,
      "back": 2857,
      "\u0120depending": 2858,
      "\u0120rock": 2859,
      "\u0120gut": 2860,
      "14": 2861,
      "itor": 2862,
      "uel": 2863,
      "\u0120appropriate": 2864,
      "\u0120there's": 2865,
      "enced": 2866,
      "ptoms": 2867,
      "\u0120defin": 2868,
      "anks": 2869,
      "\u0120govern": 2870,
      "\u0120pret": 2871,
      "\u0120completely": 2872,
      "\u0120heavy": 2873,
      "\u0120continue": 2874,
      "ounds": 2875,
      "val": 2876,
      "\u0120excell": 2877,
      "aring": 2878,
      "ians": 2879,
      "\u0120fertil": 2880,
      "\u0120Am": 2881,
      "\u0120protection": 2882,
      "\u0120page": 2883,
      "\u0120patter": 2884,
      "\u0120recommended": 2885,
      "inate": 2886,
      "sect": 2887,
      "\u0120rice": 2888,
      "\u0120alg": 2889,
      "\u0120produced": 2890,
      "\u0120asteroid": 2891,
      "\u0120requirements": 2892,
      "\u0120fly": 2893,
      "\u0120training": 2894,
      "\u0120fruit": 2895,
      "ER": 2896,
      "\u0120appearance": 2897,
      "\u0120Cal": 2898,
      "\u0120Are": 2899,
      "\u0120digital": 2900,
      "cul": 2901,
      "\u0120brain": 2902,
      "\u0120sus": 2903,
      "istics": 2904,
      "\u0120United": 2905,
      "\u0120ple": 2906,
      "\u0120manufacture": 2907,
      "cient": 2908,
      "\u0120pil": 2909,
      "\u0120active": 2910,
      "\u0120Af": 2911,
      "ccording": 2912,
      "17": 2913,
      "ightly": 2914,
      "\u0120everyone": 2915,
      "abric": 2916,
      "\u00e2\u0122\u0135": 2917,
      "\u0120bacteria": 2918,
      "ests": 2919,
      "\u0120patterns": 2920,
      "\u0120card": 2921,
      "\u0120series": 2922,
      "\u0120action": 2923,
      "aim": 2924,
      "\u0120express": 2925,
      "\u0120bur": 2926,
      "\u0120studies": 2927,
      "\u0120accur": 2928,
      "gar": 2929,
      "\u0120weeks": 2930,
      "room": 2931,
      "\u0120dom": 2932,
      "\u0120frequency": 2933,
      "iable": 2934,
      "\u0120Comp": 2935,
      "\u0120thr": 2936,
      "\u0120pow": 2937,
      "\u0120costs": 2938,
      "\u0120comfortable": 2939,
      "\u0120--": 2940,
      "iful": 2941,
      "\u0120cyc": 2942,
      "\u0120teach": 2943,
      "\u0120.": 2944,
      "\u0120ready": 2945,
      "While": 2946,
      "\u0120directly": 2947,
      "ises": 2948,
      "\u0120didn't": 2949,
      "\u0120regard": 2950,
      "aks": 2951,
      "\u0120Che": 2952,
      "\u0120front": 2953,
      "60": 2954,
      "redit": 2955,
      "tage": 2956,
      "\u0120miss": 2957,
      "\u0120location": 2958,
      "\u0120reasons": 2959,
      "\u0120bottom": 2960,
      "\u0120communication": 2961,
      "\u0120towards": 2962,
      "erc": 2963,
      "rid": 2964,
      "\u0120built": 2965,
      "\u0120ang": 2966,
      "\u0120won't": 2967,
      "\u0120talk": 2968,
      "ooks": 2969,
      "\u0120outd": 2970,
      "\u0120sam": 2971,
      "\u0120wat": 2972,
      "rad": 2973,
      "\u0120God": 2974,
      "\u0120else": 2975,
      "\u0120eyes": 2976,
      "\u0120Of": 2977,
      "\u0120players": 2978,
      "sequ": 2979,
      "\u0120Comm": 2980,
      "onds": 2981,
      "\u0120aud": 2982,
      "\u0120May": 2983,
      "\u0120medical": 2984,
      "oors": 2985,
      "\u0120wearing": 2986,
      "\u0120cou": 2987,
      "\u0120recent": 2988,
      "\u0120ir": 2989,
      "-e": 2990,
      "\u0120veh": 2991,
      "\u0120animal": 2992,
      "\u0120useful": 2993,
      "13": 2994,
      "\u0120outf": 2995,
      "\u0120lives": 2996,
      "\u0120econom": 2997,
      "\u0120meaning": 2998,
      "\u0120Cons": 2999,
      "-in": 3000,
      "\u0120countries": 3001,
      "\u0120salt": 3002,
      "wh": 3003,
      "\u0120goes": 3004,
      "oint": 3005,
      "\u0120AI": 3006,
      "\u0120vegetables": 3007,
      "\u0120road": 3008,
      "\u0120ensuring": 3009,
      "urope": 3010,
      "\u0120Cont": 3011,
      ".,": 3012,
      "\u0120bran": 3013,
      "\u0120langu": 3014,
      "\u0120visit": 3015,
      "\u0120ep": 3016,
      "\u0120forest": 3017,
      "ung": 3018,
      "ili": 3019,
      "\u0120refer": 3020,
      "\u0120tend": 3021,
      "\u0120forms": 3022,
      "\u0120chick": 3023,
      "ixt": 3024,
      ".S": 3025,
      "inary": 3026,
      "\u0120ful": 3027,
      "\u0120absor": 3028,
      "\u0120teac": 3029,
      "\u0120straight": 3030,
      "inct": 3031,
      "\u0120Not": 3032,
      "\u0120adding": 3033,
      "\u0120fix": 3034,
      "\u0120versat": 3035,
      "cape": 3036,
      "\u0120Most": 3037,
      "\u0120emerg": 3038,
      "\u0120dest": 3039,
      "\u0120sunlight": 3040,
      "ached": 3041,
      "\u0120ingred": 3042,
      "\u0120Afric": 3043,
      "\u0120chrom": 3044,
      "\u0120ult": 3045,
      "AR": 3046,
      "ights": 3047,
      "\u0120spot": 3048,
      "\u0120prin": 3049,
      "\u0120moving": 3050,
      "\u0120dang": 3051,
      "\u0120remember": 3052,
      "\u0120proced": 3053,
      "\u0120maxim": 3054,
      "\u0120From": 3055,
      "rs": 3056,
      "ground": 3057,
      "\u0120util": 3058,
      "\u0120Why": 3059,
      "\u0120lack": 3060,
      "\u0120cam": 3061,
      "IN": 3062,
      "\u0120commercial": 3063,
      "\u0120controll": 3064,
      "ounts": 3065,
      "orpor": 3066,
      "Is": 3067,
      "\u0120tomat": 3068,
      "\u0120bud": 3069,
      "\u0120symbol": 3070,
      "\u0120average": 3071,
      "iddle": 3072,
      "\u0120record": 3073,
      "\u0120provided": 3074,
      "\u0120code": 3075,
      "\u0120blue": 3076,
      "\u0120Tr": 3077,
      "\u0120device": 3078,
      "now": 3079,
      "eli": 3080,
      "\u0120poll": 3081,
      "\u0120Additionally": 3082,
      "\u0120mouth": 3083,
      "\u0120wel": 3084,
      "\u0120force": 3085,
      "\u0120track": 3086,
      "hether": 3087,
      "\u0120came": 3088,
      "iny": 3089,
      "\u0120paint": 3090,
      "Can": 3091,
      "\u0120images": 3092,
      "These": 3093,
      "\u0120log": 3094,
      "osure": 3095,
      "\u0120Fe": 3096,
      "hib": 3097,
      "\u0120companies": 3098,
      "\u0120objects": 3099,
      "inally": 3100,
      "\u0120final": 3101,
      "...\u010a\u010a": 3102,
      "\u0120fine": 3103,
      "\u0120symptoms": 3104,
      "Pro": 3105,
      "\u0120dent": 3106,
      "\u0120tail": 3107,
      "199": 3108,
      "ustral": 3109,
      "ails": 3110,
      "\u0120excellent": 3111,
      "\u0120critical": 3112,
      "\u0120transform": 3113,
      "\u0120benefit": 3114,
      "\u0120account": 3115,
      "\u0120happens": 3116,
      "\u0120habit": 3117,
      "\u0120management": 3118,
      "\u0120drive": 3119,
      "oll": 3120,
      "\u0120Many": 3121,
      "\u0120Research": 3122,
      "Be": 3123,
      "ping": 3124,
      "ino": 3125,
      "\u0120save": 3126,
      "-free": 3127,
      "\u0120respect": 3128,
      "\u0120hands": 3129,
      "\u0120particip": 3130,
      "itude": 3131,
      "\u0120published": 3132,
      "\u0120gets": 3133,
      "\u0120evol": 3134,
      "\u0120movement": 3135,
      "\u0120arr": 3136,
      "yd": 3137,
      "\u0120ur": 3138,
      "\u0120friends": 3139,
      "\u0120diagn": 3140,
      "\u0120involves": 3141,
      "\u0120adult": 3142,
      "\u0120theory": 3143,
      "\u0120late": 3144,
      "-st": 3145,
      "irm": 3146,
      "\u0120Co": 3147,
      "\u0120Europe": 3148,
      "oud": 3149,
      "\u0120favor": 3150,
      "\u0120discovered": 3151,
      "\u0120application": 3152,
      "bility": 3153,
      "With": 3154,
      "They": 3155,
      "\u0120looks": 3156,
      "\u0120dy": 3157,
      "\u0120roll": 3158,
      "\u0120vary": 3159,
      "\u0120Man": 3160,
      "\u0120fabric": 3161,
      "asc": 3162,
      "\u0120region": 3163,
      "mon": 3164,
      "\u0120aff": 3165,
      "\u0120soon": 3166,
      "\u0120patients": 3167,
      "artment": 3168,
      "imens": 3169,
      "\u0120School": 3170,
      "ison": 3171,
      "\u0120processes": 3172,
      "oe": 3173,
      "\u0120direction": 3174,
      "\u0120indic": 3175,
      "\u0120greater": 3176,
      "urs": 3177,
      "\u0120bread": 3178,
      "\u0120inches": 3179,
      "\u0120importance": 3180,
      "\u0120sources": 3181,
      "wood": 3182,
      "\u0120Gu": 3183,
      "\u0120I've": 3184,
      "24": 3185,
      "\u0120leave": 3186,
      "acing": 3187,
      "\u0120recommend": 3188,
      "\u0120friend": 3189,
      "\u0120circuit": 3190,
      "\u0120table": 3191,
      "\u0120details": 3192,
      "iform": 3193,
      "\u0120six": 3194,
      "\u0120pretty": 3195,
      "\u0120news": 3196,
      "rought": 3197,
      "istry": 3198,
      "yond": 3199,
      "rast": 3200,
      "\u0120enhance": 3201,
      "OT": 3202,
      "illing": 3203,
      "\u0120analysis": 3204,
      "li": 3205,
      "hern": 3206,
      "By": 3207,
      "\u0120film": 3208,
      "\u0120nutrients": 3209,
      "\u0120scientific": 3210,
      "\u0120surround": 3211,
      "osis": 3212,
      "\u0120signs": 3213,
      "\u0120media": 3214,
      "\u0120threat": 3215,
      "\u0120hit": 3216,
      "\u0120shown": 3217,
      "\u0120excess": 3218,
      "\u0120tri": 3219,
      "\u0120serious": 3220,
      "illed": 3221,
      "\u0120constant": 3222,
      "\u0120Then": 3223,
      "\u0120blade": 3224,
      "aries": 3225,
      "\u0120door": 3226,
      "\u0120beautiful": 3227,
      "\u0120impl": 3228,
      "\u0120aw": 3229,
      "\u0120demon": 3230,
      "\u0120flat": 3231,
      "inated": 3232,
      "\u0120daily": 3233,
      "\u0120visual": 3234,
      "\u0120wonder": 3235,
      "ygen": 3236,
      "onse": 3237,
      "-to": 3238,
      "\u0120solid": 3239,
      "\u0120gives": 3240,
      "\u0120evidence": 3241,
      "unch": 3242,
      "ball": 3243,
      "fficient": 3244,
      "com": 3245,
      "vey": 3246,
      "\u0120serve": 3247,
      "\u0120handle": 3248,
      "icles": 3249,
      "off": 3250,
      "\u0120immedi": 3251,
      "\u0120emot": 3252,
      "overy": 3253,
      "\u0120My": 3254,
      "\u0120traffic": 3255,
      "\u0120walls": 3256,
      "\u0120States": 3257,
      "\u0120nucle": 3258,
      "\u0120Pe": 3259,
      "et's": 3260,
      "\u0120cross": 3261,
      "\u0120Austral": 3262,
      "\u0120occas": 3263,
      "\u0120groups": 3264,
      "\u0120Once": 3265,
      "\u0120initial": 3266,
      "orage": 3267,
      "\u0120mor": 3268,
      "sh": 3269,
      "\u0120seems": 3270,
      "\u0120More": 3271,
      "\u0120smooth": 3272,
      "\u0120prior": 3273,
      "\u0120reve": 3274,
      "\u0120potat": 3275,
      "pping": 3276,
      "\u0120eggs": 3277,
      "acy": 3278,
      "\u0120becomes": 3279,
      "\u0120div": 3280,
      "\u0120supply": 3281,
      "ext": 3282,
      "ications": 3283,
      "\u0120touch": 3284,
      "\u0120expensive": 3285,
      "\u0120hope": 3286,
      "\u0120breat": 3287,
      "\u0120Their": 3288,
      "\u0120match": 3289,
      "\u0120Use": 3290,
      "\u0120ice": 3291,
      "\u0120challenges": 3292,
      "\u0120led": 3293,
      "\u0120Me": 3294,
      "\u0120worth": 3295,
      "\u0120knife": 3296,
      "\u0120mold": 3297,
      "\u0120rout": 3298,
      "\u0120soci": 3299,
      "\u0120aim": 3300,
      "\u0120pair": 3301,
      "\u0120proteins": 3302,
      "rogen": 3303,
      "\u0120except": 3304,
      "\u0120reducing": 3305,
      "arent": 3306,
      "\u0120fro": 3307,
      "aff": 3308,
      "\u0120ideas": 3309,
      "ales": 3310,
      "\u0120harvest": 3311,
      "\u0120assess": 3312,
      "\u0120technique": 3313,
      "ields": 3314,
      "\u0120experiment": 3315,
      "\u00e2\u0122\u013bt": 3316,
      "elt": 3317,
      "\u0120insect": 3318,
      "\u0120valu": 3319,
      "\u0120Rem": 3320,
      "\u0120lat": 3321,
      "\u0120users": 3322,
      "standing": 3323,
      "bor": 3324,
      "Ex": 3325,
      "come": 3326,
      "\u0120structures": 3327,
      "ube": 3328,
      "\u0120aquarium": 3329,
      "\u0120population": 3330,
      "esthe": 3331,
      "\u0120integr": 3332,
      "ishing": 3333,
      "\u0120coast": 3334,
      "\u0120broad": 3335,
      "ma": 3336,
      "wise": 3337,
      "\u0120goal": 3338,
      "-qu": 3339,
      "ellig": 3340,
      "che": 3341,
      "\u0120Gl": 3342,
      "\u0120nav": 3343,
      "\u0120anten": 3344,
      "\u0120organic": 3345,
      "\u0120distrib": 3346,
      "\u0120board": 3347,
      "\u0120keeping": 3348,
      "He": 3349,
      "\u0120panel": 3350,
      "\u0120total": 3351,
      "\u0120members": 3352,
      "\u0120installation": 3353,
      "\u0120applied": 3354,
      "\u0120innov": 3355,
      "\u0120tre": 3356,
      "\u0120accept": 3357,
      "\u0120language": 3358,
      "\u0120agg": 3359,
      "\u0120Now": 3360,
      "\u0120century": 3361,
      "osition": 3362,
      "encies": 3363,
      "onic": 3364,
      "\u0120original": 3365,
      "\u0120exactly": 3366,
      "aker": 3367,
      "\u0120models": 3368,
      "\u0120Dep": 3369,
      "\u0120North": 3370,
      "\u0120stone": 3371,
      "ibly": 3372,
      "nal": 3373,
      "\u0120fat": 3374,
      "\u0120effort": 3375,
      "\u0120expert": 3376,
      "\u0120imag": 3377,
      "\u0120bright": 3378,
      "ription": 3379,
      "\u0120poor": 3380,
      "\u0120advantage": 3381,
      "\u0120analy": 3382,
      "\u0120assist": 3383,
      "ressive": 3384,
      "\u0120limited": 3385,
      "\u0120attack": 3386,
      "more": 3387,
      "\u0120clothes": 3388,
      "eties": 3389,
      "zy": 3390,
      ").\u010a\u010a": 3391,
      "\u0120guid": 3392,
      "\u0120swim": 3393,
      "\u0120App": 3394,
      "ON": 3395,
      "\u0120powerful": 3396,
      "\u0120response": 3397,
      "rams": 3398,
      "\u0120ver": 3399,
      "mber": 3400,
      "\u0120tit": 3401,
      "fl": 3402,
      "asting": 3403,
      "ument": 3404,
      "\u0120review": 3405,
      "\u0120Also": 3406,
      "\u0120hor": 3407,
      "pped": 3408,
      "\u0120shapes": 3409,
      "\u0120transport": 3410,
      "\u0120rap": 3411,
      "\u0120eating": 3412,
      "\u0120dish": 3413,
      "\u0120places": 3414,
      "\u0120frame": 3415,
      "vere": 3416,
      "\u0120became": 3417,
      "\u0120took": 3418,
      "\u0120stri": 3419,
      "\u0120developing": 3420,
      "yn": 3421,
      "\u0120nothing": 3422,
      "\u0120Solar": 3423,
      "\u0120South": 3424,
      "\u0120solutions": 3425,
      "\u0120voltage": 3426,
      "\u0120planting": 3427,
      "\u0120interesting": 3428,
      "\u0120causing": 3429,
      "\u0120insulation": 3430,
      "cket": 3431,
      "\u0120investig": 3432,
      "\u0120Tra": 3433,
      "ously": 3434,
      "\u0120contains": 3435,
      "80": 3436,
      "\u0120spirit": 3437,
      "vity": 3438,
      "nown": 3439,
      "\u0120pul": 3440,
      "\u0120iron": 3441,
      "\u0120death": 3442,
      "\u0120depth": 3443,
      "\u0120malaria": 3444,
      "And": 3445,
      "\u0120resid": 3446,
      "esc": 3447,
      "\u0120insp": 3448,
      "\u0120Who": 3449,
      "\u0120you've": 3450,
      "\u0120liqu": 3451,
      "\u0120Pre": 3452,
      "\u0120successful": 3453,
      "\u0120reading": 3454,
      "\u0120aer": 3455,
      "\u00c2\u00b0": 3456,
      "Do": 3457,
      "words": 3458,
      "iling": 3459,
      "\u0120cas": 3460,
      "enge": 3461,
      "\u0120oxygen": 3462,
      "\u0120significantly": 3463,
      "-sh": 3464,
      "\u0120placed": 3465,
      "inating": 3466,
      "ork": 3467,
      "\u0120rise": 3468,
      "\u0120Christ": 3469,
      "\u0120rare": 3470,
      "\u0120anyone": 3471,
      "mosp": 3472,
      "empt": 3473,
      "\u0120wet": 3474,
      "odes": 3475,
      "\u0120taste": 3476,
      "\u0120yellow": 3477,
      "\u0120bill": 3478,
      "alu": 3479,
      "\u0120World": 3480,
      "\u0120distance": 3481,
      "\u0120starting": 3482,
      "\u0120upon": 3483,
      "\u0120Because": 3484,
      "Cl": 3485,
      "\u0120screen": 3486,
      "\u0120foundation": 3487,
      "\u0120bags": 3488,
      "den": 3489,
      "\u0120student": 3490,
      "\u0120culture": 3491,
      "\u0120balance": 3492,
      "\u0120testing": 3493,
      "ught": 3494,
      "\u0120tiss": 3495,
      "At": 3496,
      "\u0120surfaces": 3497,
      "\u0120doc": 3498,
      "\u0120plat": 3499,
      "\u0120coming": 3500,
      "\u0120extremely": 3501,
      "\u0120security": 3502,
      "\u0120stage": 3503,
      "\u0120Reg": 3504,
      "ES": 3505,
      "\u0120wrong": 3506,
      "ologies": 3507,
      "\u0120limit": 3508,
      "\u0120clock": 3509,
      "\u0120factor": 3510,
      "\u0120relatively": 3511,
      "\u0120Our": 3512,
      "\u0120cooking": 3513,
      "\u0120receive": 3514,
      "\u0120situation": 3515,
      "-quality": 3516,
      "\u0120homes": 3517,
      "\u0120thinking": 3518,
      "\u0120fuel": 3519,
      "\u0120colle": 3520,
      "\u0120chance": 3521,
      "\u0120cleaning": 3522,
      "rops": 3523,
      "\u0120negative": 3524,
      "Pl": 3525,
      "\u0120sites": 3526,
      "uted": 3527,
      "\u0120clos": 3528,
      "\u0120Institute": 3529,
      "\u0120dead": 3530,
      "\u0120gold": 3531,
      "sy": 3532,
      "\u0120instruct": 3533,
      "rm": 3534,
      "-up": 3535,
      "apan": 3536,
      "\u0120pen": 3537,
      "\u0120bow": 3538,
      "\u0120aren't": 3539,
      "\u0120pet": 3540,
      "\u0120rapid": 3541,
      "\u0120apply": 3542,
      "\u0120claim": 3543,
      "ensity": 3544,
      "oration": 3545,
      "\u0120fully": 3546,
      "\u0120depends": 3547,
      "Now": 3548,
      "\u0120demonstr": 3549,
      "\u0120angle": 3550,
      "\u0120fund": 3551,
      "\u0120sleep": 3552,
      "\u0120Pr": 3553,
      "\u0120return": 3554,
      "\u0120finan": 3555,
      "\u0120durability": 3556,
      "\u0120huge": 3557,
      "\u0120opportunity": 3558,
      "\u0120Water": 3559,
      "iot": 3560,
      "unk": 3561,
      "\u0120Mar": 3562,
      "ulate": 3563,
      "volution": 3564,
      "ened": 3565,
      "\u0120camp": 3566,
      "\u0120arch": 3567,
      "\u0120secure": 3568,
      "\u0120ship": 3569,
      "\u0120genome": 3570,
      "\u0120inj": 3571,
      "\u0120convers": 3572,
      "\u0120incorpor": 3573,
      "Some": 3574,
      "\u0120bed": 3575,
      "\u0120running": 3576,
      "\u0120storage": 3577,
      "working": 3578,
      "\u0120Stud": 3579,
      "odies": 3580,
      "\u0120contract": 3581,
      "\u0120Harry": 3582,
      "inding": 3583,
      "\u0120education": 3584,
      "\u0120brown": 3585,
      "lor": 3586,
      "ras": 3587,
      "atives": 3588,
      "\u0120animation": 3589,
      "\u0120rob": 3590,
      "\u0120flavor": 3591,
      "\u0120bab": 3592,
      "\u0120deal": 3593,
      "inder": 3594,
      "\u0120uniform": 3595,
      "\u0120advantages": 3596,
      "\u0120thous": 3597,
      "\u0120government": 3598,
      "__": 3599,
      "\u0120meat": 3600,
      "board": 3601,
      "\u0120suff": 3602,
      "\u0120particles": 3603,
      "\u0120beyond": 3604,
      "\u0120stuff": 3605,
      "ervation": 3606,
      "\u0120height": 3607,
      "\u0120disp": 3608,
      "\u0120seal": 3609,
      "encing": 3610,
      "\u0120battery": 3611,
      "\u0120concent": 3612,
      "\",": 3613,
      "\u0120task": 3614,
      "hips": 3615,
      "\u0120notice": 3616,
      "ulations": 3617,
      "\u0120marine": 3618,
      "AT": 3619,
      "\u0120faster": 3620,
      "\u0120planet": 3621,
      "\u0120gum": 3622,
      "\u0120wheat": 3623,
      "\u0120center": 3624,
      "\u0120motor": 3625,
      "\u0120Per": 3626,
      "fess": 3627,
      "\u0120capacity": 3628,
      "\u0120giving": 3629,
      "\u0120display": 3630,
      "However": 3631,
      "\u0120America": 3632,
      "ok": 3633,
      "\u0120moment": 3634,
      "\u0120blog": 3635,
      "\u0120practical": 3636,
      "dy": 3637,
      "anging": 3638,
      "\u0120combination": 3639,
      "\u0120rich": 3640,
      "\u0120designs": 3641,
      "\u0120sche": 3642,
      "\u0120slightly": 3643,
      "\u0120flex": 3644,
      "\u0120ten": 3645,
      "\u0120vir": 3646,
      "lier": 3647,
      "\u0120volcan": 3648,
      "\u0120decision": 3649,
      "\u0120choosing": 3650,
      "amed": 3651,
      "\u0120effectively": 3652,
      "\u0120spect": 3653,
      "\u0120precise": 3654,
      "enty": 3655,
      "\u0120implement": 3656,
      "term": 3657,
      "\u0120lost": 3658,
      "\u0120cement": 3659,
      "aper": 3660,
      "\u0120round": 3661,
      "\u0120responsible": 3662,
      "\u0120priv": 3663,
      "rench": 3664,
      "arr": 3665,
      "\u0120stat": 3666,
      "\u0120surpr": 3667,
      "\u0120obtain": 3668,
      "haps": 3669,
      "mission": 3670,
      "Step": 3671,
      "irts": 3672,
      "\u0120spr": 3673,
      "isions": 3674,
      "\u0120Make": 3675,
      "\u0120atmosp": 3676,
      "\".": 3677,
      "\u0120edge": 3678,
      "\u0120connected": 3679,
      "hood": 3680,
      "ulated": 3681,
      "\u0120Techn": 3682,
      "\u0120therefore": 3683,
      "izer": 3684,
      "\u0120regularly": 3685,
      "\u0120commit": 3686,
      "\u0120ran": 3687,
      "lebr": 3688,
      "\u0120demand": 3689,
      "\u0120presence": 3690,
      "\u0120transmit": 3691,
      "\u0120Sm": 3692,
      "\u0120op": 3693,
      "\u0120degrees": 3694,
      "\u0120Ab": 3695,
      "\u0120Just": 3696,
      "\u0120onto": 3697,
      "\u0120therm": 3698,
      "\u0120recently": 3699,
      "\u0120elim": 3700,
      "\u0120radiation": 3701,
      "\u0120valuable": 3702,
      "\u0120note": 3703,
      "\u0120Com": 3704,
      "\u0120finding": 3705,
      "osite": 3706,
      "\u0120dru": 3707,
      "\u0120changing": 3708,
      "'d": 3709,
      "\u0120ingredients": 3710,
      "\u0120Even": 3711,
      "\u0120Over": 3712,
      "\u0120Ag": 3713,
      "\u0120profession": 3714,
      "\u0120concern": 3715,
      "\u0120customers": 3716,
      "tings": 3717,
      "\u0120differences": 3718,
      "\u0120characteristics": 3719,
      "\u0120expected": 3720,
      "yle": 3721,
      "\u0120aesthe": 3722,
      "\u0120discover": 3723,
      "\u0120window": 3724,
      "\u0120maintaining": 3725,
      "\u0120That's": 3726,
      "\u0120tour": 3727,
      "\u0120sent": 3728,
      "\u0120began": 3729,
      "rier": 3730,
      "ificial": 3731,
      "\u0120fair": 3732,
      "\u0120city": 3733,
      "\u0120Its": 3734,
      "\u0120numbers": 3735,
      "\u0120brand": 3736,
      "\u0120Whether": 3737,
      "\u0120flour": 3738,
      "\u0120flowers": 3739,
      "co": 3740,
      "\u0120accurate": 3741,
      "\u0120rules": 3742,
      "\u0120histor": 3743,
      "\u0120currently": 3744,
      "\u0120farm": 3745,
      "\u0120web": 3746,
      "\u0120screw": 3747,
      "\u0120player": 3748,
      "\u0120English": 3749,
      "\u0120windows": 3750,
      "\u0120decre": 3751,
      "\u0120mist": 3752,
      "obile": 3753,
      "90": 3754,
      "\u0120rub": 3755,
      "\u0120forward": 3756,
      "dom": 3757,
      "\u0120element": 3758,
      "IS": 3759,
      "\u0120chromos": 3760,
      "\u0120star": 3761,
      "\u0120software": 3762,
      "\u0120gir": 3763,
      "\u0120Other": 3764,
      "ushing": 3765,
      "\u0120radi": 3766,
      "idity": 3767,
      "uild": 3768,
      "\u0120host": 3769,
      "zz": 3770,
      "\u0120transfer": 3771,
      "\u0120manufacturing": 3772,
      "\u0120intellig": 3773,
      "\u0120planning": 3774,
      "\u0120fa": 3775,
      "\u0120existing": 3776,
      "\u0120Japan": 3777,
      "\u0120influence": 3778,
      "ively": 3779,
      "\u0120setting": 3780,
      "icy": 3781,
      "\u0120section": 3782,
      "\u0120attempt": 3783,
      "\u0120dust": 3784,
      "\u0120price": 3785,
      "ana": 3786,
      "\u0120rat": 3787,
      "\u0120platform": 3788,
      "ober": 3789,
      "issions": 3790,
      "\u0120thus": 3791,
      "era": 3792,
      "\u0120installed": 3793,
      "\u0120drain": 3794,
      "ferences": 3795,
      "\u0120becoming": 3796,
      "\u0120female": 3797,
      "\u0120mort": 3798,
      "\u0120date": 3799,
      "ension": 3800,
      "\u0120leaf": 3801,
      "\u0120engineering": 3802,
      "\u0120depend": 3803,
      "\u0120cry": 3804,
      "\u0120Brit": 3805,
      "\u0120advanced": 3806,
      "\u0120gradu": 3807,
      "aser": 3808,
      "hens": 3809,
      "undred": 3810,
      "\u0120figure": 3811,
      "\u0120styles": 3812,
      "\u0120alternative": 3813,
      "\u0120affected": 3814,
      "izations": 3815,
      "\u0120charge": 3816,
      "\u0120grown": 3817,
      "\u0120durable": 3818,
      "\u0120calcul": 3819,
      "\u0120walk": 3820,
      "\u0120located": 3821,
      "\u0120spl": 3822,
      "198": 3823,
      "\u0120tasks": 3824,
      "\u0120picture": 3825,
      "lets": 3826,
      "\u0120pattern": 3827,
      "sych": 3828,
      "\u0120Joh": 3829,
      "aren": 3830,
      "\u0120although": 3831,
      "21": 3832,
      "oup": 3833,
      "\u0120states": 3834,
      "rition": 3835,
      "\u0120examples": 3836,
      "\u0120signals": 3837,
      "\u0120remains": 3838,
      "\u0120stick": 3839,
      "\u0120flying": 3840,
      "\u0120flower": 3841,
      "\u0120,": 3842,
      "TEM": 3843,
      "\u0120trust": 3844,
      "erson": 3845,
      "\u0120journey": 3846,
      "Im": 3847,
      "\u0120RNA": 3848,
      "\u0120Health": 3849,
      "\u0120worn": 3850,
      "\u0120distinct": 3851,
      "\u0120allowed": 3852,
      "\u0120practices": 3853,
      "\u0120Sw": 3854,
      "acc": 3855,
      "Conc": 3856,
      "OR": 3857,
      "vered": 3858,
      "\u0120credit": 3859,
      "\u0120prepar": 3860,
      "house": 3861,
      "load": 3862,
      "?\"": 3863,
      "\u0120machines": 3864,
      "Re": 3865,
      "aly": 3866,
      "Another": 3867,
      "urt": 3868,
      "\u0120arg": 3869,
      "\u0120Air": 3870,
      "\u0120achie": 3871,
      "Here": 3872,
      "\u0120contribute": 3873,
      "set": 3874,
      "iforn": 3875,
      "\u0120Ste": 3876,
      "\u0120pool": 3877,
      "epend": 3878,
      "\u0120severe": 3879,
      "\u0120playing": 3880,
      "\u0120Spe": 3881,
      "att": 3882,
      "\u0120third": 3883,
      "\u0120patient": 3884,
      "sc": 3885,
      "\u0120we're": 3886,
      "\u0120sort": 3887,
      "\u0120selection": 3888,
      "70": 3889,
      "\u0120weak": 3890,
      "\u0120magnetic": 3891,
      "\u0120output": 3892,
      "\u0120went": 3893,
      "ishes": 3894,
      "\u0120casual": 3895,
      "\u0120identified": 3896,
      "amb": 3897,
      "\u0120Aut": 3898,
      "\u0120industrial": 3899,
      "\u0120behavi": 3900,
      "\u0120chann": 3901,
      "\u0120regions": 3902,
      "\u0120removed": 3903,
      "urally": 3904,
      "\u0120Intern": 3905,
      "\u0120estim": 3906,
      "ography": 3907,
      "min": 3908,
      "ipped": 3909,
      "\u0120frequently": 3910,
      "isp": 3911,
      "\u0120plane": 3912,
      "\u0120\u00e2\u0122\u00a6": 3913,
      "\u0120West": 3914,
      "\u0120wal": 3915,
      "adem": 3916,
      "\u0120absorb": 3917,
      "inking": 3918,
      "\u0120varieties": 3919,
      "AN": 3920,
      "ipes": 3921,
      "\u0120widely": 3922,
      "\u0120sex": 3923,
      "\u0120Pot": 3924,
      "\u0120engines": 3925,
      "\u0120formed": 3926,
      "\u0120clim": 3927,
      "\u0120challenge": 3928,
      "\u0120counter": 3929,
      "\u0120sauce": 3930,
      "\u0120network": 3931,
      "ixture": 3932,
      "lands": 3933,
      "\u0120phen": 3934,
      "cious": 3935,
      "ny": 3936,
      "\u0120aspects": 3937,
      "\u0120container": 3938,
      "\u0120vital": 3939,
      "icine": 3940,
      "ifornia": 3941,
      "\u0120Sim": 3942,
      "riend": 3943,
      "asts": 3944,
      "\u0120relationship": 3945,
      "\u0120choices": 3946,
      "\u0120tiny": 3947,
      "\u0120outdoor": 3948,
      "\u0120NOT": 3949,
      "azing": 3950,
      "\u0120evalu": 3951,
      "ony": 3952,
      "icious": 3953,
      "\u0120stre": 3954,
      "\u0120plays": 3955,
      "\u0120print": 3956,
      "eration": 3957,
      "\u0120fraud": 3958,
      "\u0120couple": 3959,
      "ran": 3960,
      "\u0120Each": 3961,
      "uminum": 3962,
      "\u0120court": 3963,
      "\u0120flood": 3964,
      "\u0120covered": 3965,
      "\u0120repe": 3966,
      "\u0120Sun": 3967,
      "\u0120Center": 3968,
      "wear": 3969,
      "\u0120buildings": 3970,
      "\u0120occurs": 3971,
      "\u0120...": 3972,
      "esign": 3973,
      "\u0120hundred": 3974,
      "\u0120First": 3975,
      "\u0120Red": 3976,
      "\u0120expression": 3977,
      "\u0120$": 3978,
      "\u0120reliable": 3979,
      "\u0120specifically": 3980,
      "\u0120instance": 3981,
      "bris": 3982,
      "\u0120liquid": 3983,
      "\u0120celebr": 3984,
      "ancy": 3985,
      "\u0120sweet": 3986,
      "\u0120roofing": 3987,
      "\u0120separate": 3988,
      "ID": 3989,
      "\u0120milk": 3990,
      "\u0120predict": 3991,
      "\u0120financial": 3992,
      "rehens": 3993,
      "\u0120CO": 3994,
      "\u0120exposure": 3995,
      "\u0120middle": 3996,
      "\u0120Rec": 3997,
      "\u0120outfit": 3998,
      "\u0120asked": 3999,
      "22": 4000,
      "\u0120motion": 4001,
      "\u0120generate": 4002,
      "\u0120reduced": 4003,
      "\u0120fishing": 4004,
      "\u0120connection": 4005,
      "xi": 4006,
      "\u0120communities": 4007,
      "\u0120resulting": 4008,
      "-term": 4009,
      "itation": 4010,
      "\u0120und": 4011,
      "\u0120hour": 4012,
      "\u0120expand": 4013,
      "\u0120Although": 4014,
      "ror": 4015,
      "\u0120maximum": 4016,
      "\u0120Av": 4017,
      "\u0120feeling": 4018,
      "ned": 4019,
      "tered": 4020,
      "\u0120medium": 4021,
      "\u0120male": 4022,
      "\u0120sugar": 4023,
      "rate": 4024,
      "\u0120mid": 4025,
      "derstanding": 4026,
      "\u0120labor": 4027,
      "\u0120reality": 4028,
      "icks": 4029,
      "\u0120exposed": 4030,
      "\u0120meteor": 4031,
      "ript": 4032,
      "\u0120impacts": 4033,
      "roll": 4034,
      "\u0120shell": 4035,
      "\u0120double": 4036,
      "\u0120favorite": 4037,
      "\u0120mit": 4038,
      "\u0120measures": 4039,
      "\u0120antenna": 4040,
      "\u0120autism": 4041,
      "\u0120cycle": 4042,
      "ashing": 4043,
      "word": 4044,
      "\u0120businesses": 4045,
      "\u0120pal": 4046,
      "\u0120High": 4047,
      "\u0120links": 4048,
      "\u0120phone": 4049,
      "\u0120sav": 4050,
      "\u0120Bi": 4051,
      "iet": 4052,
      "\u0120don": 4053,
      "\u0120operation": 4054,
      "\u0120included": 4055,
      "\u0120strategies": 4056,
      "\u0120collabor": 4057,
      "\u0120beginning": 4058,
      "\u0120square": 4059,
      "irds": 4060,
      "\u0120largest": 4061,
      "\u0120pages": 4062,
      "\u0120pepp": 4063,
      "\u0120graph": 4064,
      "\u0120pump": 4065,
      "\u0120technologies": 4066,
      "uses": 4067,
      "\u0120scale": 4068,
      "used": 4069,
      "reci": 4070,
      "\u0120switch": 4071,
      "\u0120sides": 4072,
      "\u0120hous": 4073,
      "That": 4074,
      "\u0120concer": 4075,
      "\u0120formal": 4076,
      "itary": 4077,
      "eliac": 4078,
      "\u0120California": 4079,
      "\u0120According": 4080,
      "\u0120suggests": 4081,
      "\u0120waves": 4082,
      "\u0120construct": 4083,
      "\u0120promot": 4084,
      "\u0120Since": 4085,
      "\u0120band": 4086,
      "\u0120damaged": 4087,
      "\u0120generation": 4088,
      "met": 4089,
      "\u0120immediately": 4090,
      "ux": 4091,
      "ancing": 4092,
      "\u0120holes": 4093,
      "-y": 4094,
      "\u0120versatile": 4095,
      "\u0120diam": 4096,
      "\u0120career": 4097,
      "\u0120tox": 4098,
      "\u0120miles": 4099,
      "\u0120finish": 4100,
      "\u0120environments": 4101,
      "\u0120numerous": 4102,
      "\u0120watering": 4103,
      "\u0120cars": 4104,
      "\u0120debris": 4105,
      "\u0120experiences": 4106,
      "\u0120identity": 4107,
      "\u0120organisms": 4108,
      "ban": 4109,
      "After": 4110,
      "new": 4111,
      "\u0120standards": 4112,
      "oice": 4113,
      "oman": 4114,
      "icated": 4115,
      "\u0120virt": 4116,
      "oday": 4117,
      "ricult": 4118,
      "\u0120desired": 4119,
      "ying": 4120,
      "\u0120exerc": 4121,
      "\u0120component": 4122,
      "\u0120wave": 4123,
      "\u0120ren": 4124,
      "\u0120bond": 4125,
      "orial": 4126,
      "\u0120risks": 4127,
      "\u0120reaction": 4128,
      "\u0120sizes": 4129,
      "semb": 4130,
      "\u0120mental": 4131,
      "rain": 4132,
      "EN": 4133,
      "\u0120relevant": 4134,
      "\u0120attire": 4135,
      "\u0120sharp": 4136,
      "\u0120bodies": 4137,
      "AC": 4138,
      "\u0120paras": 4139,
      "\u0120fung": 4140,
      "\u0120opportunities": 4141,
      "\u0120TH": 4142,
      "ped": 4143,
      "\u0120coat": 4144,
      "order": 4145,
      "illi": 4146,
      "\u0120topic": 4147,
      "\u0120shop": 4148,
      "\u0120writing": 4149,
      "\u0120nit": 4150,
      "zing": 4151,
      "\u0120trig": 4152,
      "\u0120alone": 4153,
      "\u0120cultural": 4154,
      "\u0120die": 4155,
      "ees": 4156,
      "\u0120nearly": 4157,
      "\u0120interested": 4158,
      "\u0120navig": 4159,
      "Res": 4160,
      "hel": 4161,
      "\u0120let's": 4162,
      "ighter": 4163,
      "197": 4164,
      "\u0120Em": 4165,
      "\u0120pilot": 4166,
      "inger": 4167,
      "\u0120Tw": 4168,
      "ky": 4169,
      "\u0120Therefore": 4170,
      "\u0120musc": 4171,
      "\u0120Ac": 4172,
      "\u0120via": 4173,
      "ister": 4174,
      "right": 4175,
      "acters": 4176,
      "Ph": 4177,
      "elines": 4178,
      "\u0120smart": 4179,
      "\u0120games": 4180,
      "chen": 4181,
      "\u0120jack": 4182,
      "\u0120Par": 4183,
      "\u0120recycling": 4184,
      "ero": 4185,
      "\u0120wanted": 4186,
      "-like": 4187,
      "\u0120apart": 4188,
      "\u0120hole": 4189,
      "\u0120schools": 4190,
      "\u0120vent": 4191,
      "\u0120eventually": 4192,
      "\u0120potentially": 4193,
      "\u0120efforts": 4194,
      "\u0120experienced": 4195,
      "\u0120haz": 4196,
      "\u0120highlight": 4197,
      "\u0120texture": 4198,
      "\u0120actual": 4199,
      "\u0120books": 4200,
      "\u0120fields": 4201,
      "\u0120landscape": 4202,
      "All": 4203,
      "\u0120ast": 4204,
      "\u0120kept": 4205,
      "\u0120categ": 4206,
      "\u0120feeding": 4207,
      "\u0120His": 4208,
      "\u0120chicken": 4209,
      "\u0120carefully": 4210,
      "\u0120structural": 4211,
      "\u0120sustainable": 4212,
      "\u0120scen": 4213,
      "\u0120helping": 4214,
      "\u0120digest": 4215,
      "ternal": 4216,
      "orith": 4217,
      "time": 4218,
      "\u0120ded": 4219,
      "rest": 4220,
      "icking": 4221,
      "bles": 4222,
      "osystem": 4223,
      "\u0120mis": 4224,
      "\u0120crack": 4225,
      "wers": 4226,
      "\u0120grains": 4227,
      "\u0120consequ": 4228,
      "ilies": 4229,
      "\u0120strategy": 4230,
      "\u0120atmosphere": 4231,
      "\u0120mother": 4232,
      "Our": 4233,
      "ountain": 4234,
      "\u0120aware": 4235,
      "\u0120Su": 4236,
      "\u0120typical": 4237,
      "rupt": 4238,
      "\u0120Using": 4239,
      "known": 4240,
      "\u0120UK": 4241,
      "\u0120vit": 4242,
      "\u0120qual": 4243,
      "\u0120statement": 4244,
      "\u0120happy": 4245,
      "lev": 4246,
      "\u0120upd": 4247,
      "pril": 4248,
      "atever": 4249,
      "\u0120described": 4250,
      "\u0120hun": 4251,
      "Once": 4252,
      "\u0120arm": 4253,
      "\u0120confidence": 4254,
      "gr": 4255,
      "usion": 4256,
      "\u0120increases": 4257,
      "ipe": 4258,
      "rosion": 4259,
      "\u0120Draw": 4260,
      "Ke": 4261,
      "uries": 4262,
      "\u0120STEM": 4263,
      "ek": 4264,
      "\u0120Elect": 4265,
      "\u0120x": 4266,
      "\u0120thor": 4267,
      "\u0120establish": 4268,
      "\u0120older": 4269,
      "ille": 4270,
      "\u0120therap": 4271,
      "\u0120Keep": 4272,
      "\u0120version": 4273,
      "\u0120dri": 4274,
      "que": 4275,
      "\u0120crop": 4276,
      "\u0120lots": 4277,
      "\u0120Day": 4278,
      "\u0120tall": 4279,
      "\u0120unit": 4280,
      "\u0120simpl": 4281,
      "oly": 4282,
      "\u0120tests": 4283,
      "ipping": 4284,
      "\u0120/": 4285,
      "\u0120fiber": 4286,
      "\u0120functions": 4287,
      "\u0120findings": 4288,
      "\u0120ensures": 4289,
      "\u0120vert": 4290,
      "\u0120Germ": 4291,
      "\u0120appreci": 4292,
      "\u0120homeown": 4293,
      "rowing": 4294,
      "omb": 4295,
      "\u0120industries": 4296,
      "\u0120changed": 4297,
      "\u0120gear": 4298,
      "rol": 4299,
      "\u0120stream": 4300,
      "\u0120pig": 4301,
      "\u0120owners": 4302,
      "500": 4303,
      "\u0120sport": 4304,
      "cl": 4305,
      "\u0120approx": 4306,
      "mar": 4307,
      "ded": 4308,
      "allow": 4309,
      "oughly": 4310,
      "\u0120characters": 4311,
      "\u0120relax": 4312,
      "\u0120Sec": 4313,
      "onge": 4314,
      "etics": 4315,
      "\u0120talking": 4316,
      "\u0120mostly": 4317,
      "23": 4318,
      "\u0120release": 4319,
      "\u0120fight": 4320,
      "amin": 4321,
      "\u0120Every": 4322,
      "itect": 4323,
      "\u0120encourage": 4324,
      "hest": 4325,
      "\u0120Min": 4326,
      "\u0120Inc": 4327,
      "\u0120progress": 4328,
      "\u0120uns": 4329,
      "\u0120stru": 4330,
      "\u0120shad": 4331,
      "\u0120illustr": 4332,
      "\u0120stain": 4333,
      "uning": 4334,
      "\u0120System": 4335,
      "\u0120State": 4336,
      "\u0120worked": 4337,
      "\u0120experts": 4338,
      "iverse": 4339,
      "\u0120divers": 4340,
      "\u0120snow": 4341,
      "\u0120context": 4342,
      "Us": 4343,
      "\u0120dangerous": 4344,
      "\u0120spray": 4345,
      "ogen": 4346,
      "lings": 4347,
      "\u0120told": 4348,
      "Are": 4349,
      "ira": 4350,
      "\u0120maybe": 4351,
      "iff": 4352,
      "oves": 4353,
      "\u0120purposes": 4354,
      "\u0120international": 4355,
      "iced": 4356,
      "Se": 4357,
      "ada": 4358,
      "\u0120latest": 4359,
      "bits": 4360,
      "\u0120purchase": 4361,
      "\u0120mos": 4362,
      "\u0120stem": 4363,
      "\u0120held": 4364,
      "ST": 4365,
      "\u0120precision": 4366,
      "\u0120Sa": 4367,
      "\u0120neigh": 4368,
      "iliar": 4369,
      "\u0120ancient": 4370,
      "erally": 4371,
      "\u0120reported": 4372,
      "\u0120artificial": 4373,
      "\u0120oral": 4374,
      "\u0120sem": 4375,
      "\u0120grain": 4376,
      "\u0120inspect": 4377,
      ".com": 4378,
      "alle": 4379,
      "iveness": 4380,
      "\u0120hon": 4381,
      "\u0120turned": 4382,
      "\u0120mel": 4383,
      "\u0120rates": 4384,
      "\u0120branches": 4385,
      "\u0120monit": 4386,
      ".\u00e2\u0122\u013f": 4387,
      "\u0120layers": 4388,
      "\u0120prepared": 4389,
      "\u0120values": 4390,
      "\u0120algorith": 4391,
      "\u0120programs": 4392,
      "\u0120vehicle": 4393,
      "\u0120operations": 4394,
      "\u0120thousands": 4395,
      "\u0120sell": 4396,
      "\u0120procedure": 4397,
      "\u0120basis": 4398,
      "\u0120Rep": 4399,
      "\u0120professionals": 4400,
      "\u0120mechanism": 4401,
      "\u0120incred": 4402,
      "\u0120quantum": 4403,
      "cap": 4404,
      "rows": 4405,
      "\u0120saying": 4406,
      "\u0120psych": 4407,
      "\u0120learned": 4408,
      "\u0120harmful": 4409,
      "\u0120teachers": 4410,
      "\u0120consumption": 4411,
      "rehensive": 4412,
      "\u0120Lear": 4413,
      "\u0120creative": 4414,
      "\u00e2\u0122\u00a2": 4415,
      "quit": 4416,
      "\u0120chemicals": 4417,
      "ource": 4418,
      "\u0120infection": 4419,
      "\u0120collection": 4420,
      "\u0120Profess": 4421,
      "\u0120prepare": 4422,
      "\u0120potatoes": 4423,
      "\u0120advice": 4424,
      "\u0120War": 4425,
      "cipe": 4426,
      "\u0120noise": 4427,
      "er's": 4428,
      "\u0120Bet": 4429,
      "\u0120spend": 4430,
      "chers": 4431,
      "No": 4432,
      "\u0120keywords": 4433,
      "ivil": 4434,
      "uracy": 4435,
      "roduction": 4436,
      "\u0120respond": 4437,
      "\u0120heard": 4438,
      "\u0120advance": 4439,
      "arts": 4440,
      "\u0120detailed": 4441,
      "\u0120kinds": 4442,
      "\u0120helpful": 4443,
      "\u0120Mon": 4444,
      "book": 4445,
      "\u0120exhib": 4446,
      "\u0120vibr": 4447,
      "\u0120du": 4448,
      "\u0120engage": 4449,
      "\u0120music": 4450,
      "phalt": 4451,
      "\u0120hear": 4452,
      "mary": 4453,
      "\u0120conclusion": 4454,
      "\u0120eru": 4455,
      "ask": 4456,
      "\u0120ecosystem": 4457,
      "itely": 4458,
      "Conclusion": 4459,
      "\u0120kil": 4460,
      "\u0120processing": 4461,
      "\u0120Does": 4462,
      "\u0120lose": 4463,
      "\u0120Sl": 4464,
      "\u0120complic": 4465,
      "infor": 4466,
      "\u0120sports": 4467,
      "\u0120amounts": 4468,
      "\u0120mixture": 4469,
      "hold": 4470,
      "\u0120trends": 4471,
      "\u0120survive": 4472,
      "\u0120beneficial": 4473,
      "\u0120obvious": 4474,
      "reed": 4475,
      "\u0120nice": 4476,
      ",\u00e2\u0122\u013f": 4477,
      "place": 4478,
      "\u0120Well": 4479,
      "\u0120describe": 4480,
      "ifying": 4481,
      "\u0120Q": 4482,
      "lt": 4483,
      "\u0120played": 4484,
      "\u0120internal": 4485,
      "arge": 4486,
      "\u0120During": 4487,
      "rot": 4488,
      "\u0120plenty": 4489,
      "uary": 4490,
      "ha": 4491,
      "\u0120nutrition": 4492,
      "\u0120retain": 4493,
      "\u0120Africa": 4494,
      "\u0120instructions": 4495,
      "pective": 4496,
      "\u0120sensitive": 4497,
      "\u0120afford": 4498,
      "-r": 4499,
      "PS": 4500,
      "\u0120office": 4501,
      "\u0120sets": 4502,
      "eper": 4503,
      "equ": 4504,
      "\u0120India": 4505,
      "\u0120advert": 4506,
      "\u0120worry": 4507,
      "\u0120Ins": 4508,
      "\u0120vict": 4509,
      "\u0120quar": 4510,
      "\u0120visible": 4511,
      "\u0120bound": 4512,
      "\u0120established": 4513,
      "\u0120diverse": 4514,
      "\u0120deb": 4515,
      "RI": 4516,
      "En": 4517,
      "\u0120native": 4518,
      "\u0120bulbs": 4519,
      "\u0120powder": 4520,
      "abilities": 4521,
      "\u0120sounds": 4522,
      "ief": 4523,
      "\u0120kill": 4524,
      "ugg": 4525,
      "\u0120boost": 4526,
      "\u0120naturally": 4527,
      "\u0120investment": 4528,
      "\u0120French": 4529,
      "\u0120crops": 4530,
      "\u0120agree": 4531,
      "\u0120fruits": 4532,
      "\u0120shirt": 4533,
      "\u0120emissions": 4534,
      "\u0120reveal": 4535,
      "\u0120background": 4536,
      "Yes": 4537,
      "eline": 4538,
      "\u0120Don't": 4539,
      "\u0120situations": 4540,
      "ags": 4541,
      "\u0120document": 4542,
      "iment": 4543,
      "\u0120earlier": 4544,
      "\u0120primarily": 4545,
      "\u0120shel": 4546,
      "\u0120consistent": 4547,
      "\u0120Wood": 4548,
      "ament": 4549,
      "\u0120decor": 4550,
      "\u0120beauty": 4551,
      "\u0120pull": 4552,
      "\u0120society": 4553,
      "espan": 4554,
      "\u0120tomatoes": 4555,
      "196": 4556,
      "\u0120gun": 4557,
      "Over": 4558,
      "hemat": 4559,
      "uth": 4560,
      "\u0120equal": 4561,
      "amps": 4562,
      "plant": 4563,
      "aur": 4564,
      "\u0120optimal": 4565,
      "\u0120organization": 4566,
      "weight": 4567,
      "\u0120improved": 4568,
      "\u0120coating": 4569,
      "xiety": 4570,
      "\u0120phenomen": 4571,
      "ula": 4572,
      "\u0120Australia": 4573,
      "lean": 4574,
      "\u0120please": 4575,
      "ought": 4576,
      "\u0120da": 4577,
      "...\u010a": 4578,
      "\u0120cab": 4579,
      "Most": 4580,
      "\u0120elev": 4581,
      "vironment": 4582,
      "icon": 4583,
      "ios": 4584,
      "\u0120cart": 4585,
      "ypes": 4586,
      "\u0120conver": 4587,
      "\u0120accessories": 4588,
      "\u0120compar": 4589,
      "\u0120tight": 4590,
      "\u0120received": 4591,
      "\u0120Plant": 4592,
      "\u0120videos": 4593,
      "ica": 4594,
      "\u0120observed": 4595,
      "aked": 4596,
      "\u0120raw": 4597,
      "\u0120rule": 4598,
      "\u0120insects": 4599,
      "life": 4600,
      "\u0120appears": 4601,
      "\u0120tissue": 4602,
      "\u0120challenging": 4603,
      "ceed": 4604,
      "\u0120national": 4605,
      "\u0120leads": 4606,
      "\u0120write": 4607,
      "\u0120ranking": 4608,
      "\u0120dimens": 4609,
      "\u0120Act": 4610,
      "\u0120creates": 4611,
      "\u0120continues": 4612,
      "\u0120consult": 4613,
      "\u0120spaces": 4614,
      "\u0120dro": 4615,
      "\u0120hyp": 4616,
      "ropical": 4617,
      "ricks": 4618,
      "\u0120humidity": 4619,
      "\u0120scan": 4620,
      "\u0120drill": 4621,
      "wide": 4622,
      "\u0120degree": 4623,
      "eters": 4624,
      "\u0120independ": 4625,
      "\u0120brought": 4626,
      "\u0120interp": 4627,
      "\u0120aluminum": 4628,
      "\u0120enter": 4629,
      "\u0120filter": 4630,
      "\u0120phase": 4631,
      "\u0120blo": 4632,
      "uration": 4633,
      "\u0120beans": 4634,
      "lease": 4635,
      "\u0120toler": 4636,
      "\u0120promote": 4637,
      "\u0120considering": 4638,
      "areness": 4639,
      "\u0120resistant": 4640,
      "\u0120cheese": 4641,
      "\u0120sequence": 4642,
      "\u0120journal": 4643,
      "\u0120dynam": 4644,
      "proof": 4645,
      "duc": 4646,
      "\u0120accuracy": 4647,
      "\u0120kitchen": 4648,
      "\u0120surrounding": 4649,
      "irect": 4650,
      "\u0120ward": 4651,
      "riendly": 4652,
      "\u0120plans": 4653,
      "con": 4654,
      "win": 4655,
      "\u0120planted": 4656,
      "\u0120baby": 4657,
      "\u0120starts": 4658,
      "\u0120morning": 4659,
      "\u0120lock": 4660,
      "\u0120adop": 4661,
      "\u0120infl": 4662,
      "ometimes": 4663,
      "\u0120core": 4664,
      "\u0120gro": 4665,
      "uly": 4666,
      "\u0120metals": 4667,
      "\u0120burn": 4668,
      "\u0120Time": 4669,
      "alse": 4670,
      "ferent": 4671,
      "\u0120conven": 4672,
      "\u0120Art": 4673,
      "\u0120clay": 4674,
      "ulf": 4675,
      "\u0120wait": 4676,
      "\u0120Oct": 4677,
      "\u0120butter": 4678,
      "\u0120Hist": 4679,
      "\u0120embra": 4680,
      "\u0120drop": 4681,
      "urance": 4682,
      "\u0120regarding": 4683,
      "**": 4684,
      "\u0120molecules": 4685,
      "\u0120vul": 4686,
      "\u0120catch": 4687,
      "28": 4688,
      "'m": 4689,
      "\u0120photos": 4690,
      "\u0120showed": 4691,
      "RE": 4692,
      "AL": 4693,
      "\u0120copper": 4694,
      "\u0120birth": 4695,
      "\u0120customer": 4696,
      "\u0120filled": 4697,
      "unction": 4698,
      "\u0120correctly": 4699,
      "anes": 4700,
      "olute": 4701,
      "\u0120stock": 4702,
      "bl": 4703,
      "\u0120dentist": 4704,
      "\u0120written": 4705,
      "\u0120member": 4706,
      "eing": 4707,
      "med": 4708,
      "related": 4709,
      "RNA": 4710,
      "\u0120pants": 4711,
      "osen": 4712,
      "\u0120loose": 4713,
      "\u0120recipe": 4714,
      "ares": 4715,
      "\u0120spin": 4716,
      "\u0120teaching": 4717,
      "\u0120corrosion": 4718,
      "\u0120decades": 4719,
      "idge": 4720,
      "\u00e2\u0122\u013e": 4721,
      "\u0120input": 4722,
      "\u0120Ed": 4723,
      "\u0120cup": 4724,
      "\u0120stability": 4725,
      "\u0120named": 4726,
      "\u0120creatures": 4727,
      "\u0120heating": 4728,
      "Many": 4729,
      "works": 4730,
      "\u0120evolutionary": 4731,
      "oof": 4732,
      "igen": 4733,
      "\u0120mobile": 4734,
      "\u0120producing": 4735,
      "Fe": 4736,
      "\u0120John": 4737,
      "bing": 4738,
      "my": 4739,
      "\u0120refers": 4740,
      "\u0120mechanical": 4741,
      "body": 4742,
      "\u0120competition": 4743,
      "\u0120leaving": 4744,
      "ocal": 4745,
      "ender": 4746,
      "\u0120Jan": 4747,
      "ented": 4748,
      "\u0120electrons": 4749,
      "\u0120introduced": 4750,
      "\u0120ign": 4751,
      "\u0120dishes": 4752,
      "\u0120budget": 4753,
      "\u0120Open": 4754,
      "\u0120tel": 4755,
      "hus": 4756,
      "NC": 4757,
      "ventional": 4758,
      "\u0120comet": 4759,
      "\u0120electronic": 4760,
      "\u0120fear": 4761,
      "robe": 4762,
      "erals": 4763,
      "\u0120capable": 4764,
      "\u0120fasc": 4765,
      "\u0120contrast": 4766,
      "\u0120mainly": 4767,
      "\u0120email": 4768,
      "-se": 4769,
      "\u0120March": 4770,
      "\u0120Department": 4771,
      "\u0120organizations": 4772,
      "ologists": 4773,
      "\u0120message": 4774,
      "\u0120previously": 4775,
      "\u0120sod": 4776,
      "ollow": 4777,
      "\u0120perhaps": 4778,
      "ads": 4779,
      "\u0120cooked": 4780,
      "\u0120penc": 4781,
      "\u0120instrum": 4782,
      "zen": 4783,
      "\u0120corn": 4784,
      "lass": 4785,
      "\u0120furn": 4786,
      "\u0120mosquit": 4787,
      "\u0120April": 4788,
      "uits": 4789,
      "\u0120vegetable": 4790,
      "IT": 4791,
      "\u0120fo": 4792,
      "sp": 4793,
      "\u0120British": 4794,
      "\u0120lic": 4795,
      "\u0120thrive": 4796,
      "ester": 4797,
      "akers": 4798,
      "\u0120Met": 4799,
      "\u0120molecular": 4800,
      "\u0120germ": 4801,
      "\u0120architect": 4802,
      "ida": 4803,
      "ctors": 4804,
      "ception": 4805,
      "\u0120Bar": 4806,
      "\u0120Black": 4807,
      "omic": 4808,
      "\u0120cuts": 4809,
      "\u0120comprehensive": 4810,
      "ologist": 4811,
      "\u0120alt": 4812,
      "\u0120Char": 4813,
      "not": 4814,
      "\u0120garlic": 4815,
      "omfort": 4816,
      "\u0120Her": 4817,
      "\u0120fertilizer": 4818,
      "\u0120Engine": 4819,
      "umn": 4820,
      "\u0120amazing": 4821,
      "\u0120lifespan": 4822,
      "35": 4823,
      "\u0120broken": 4824,
      "\u0120York": 4825,
      "\u0120mamm": 4826,
      "\u0120renew": 4827,
      "key": 4828,
      "\u0120certainly": 4829,
      "\u0120preventing": 4830,
      "My": 4831,
      "\u0120habitat": 4832,
      "\u0120mixed": 4833,
      "\u0120staff": 4834,
      "phas": 4835,
      "\u0120we'll": 4836,
      "\u0120crus": 4837,
      "kin": 4838,
      "atural": 4839,
      "\u0120storm": 4840,
      "\u0120sky": 4841,
      "\u0120colour": 4842,
      "\u0120rocks": 4843,
      "pring": 4844,
      "eless": 4845,
      "\u0120shade": 4846,
      "\u0120official": 4847,
      "\u0120align": 4848,
      "\u0120looked": 4849,
      "ifferent": 4850,
      "\u0120families": 4851,
      "\u0120formation": 4852,
      "\u0120normally": 4853,
      "\u0120biological": 4854,
      "ET": 4855,
      "\u0120pin": 4856,
      "\u0120satis": 4857,
      "pack": 4858,
      "\u0120meal": 4859,
      "\u0120princ": 4860,
      "\u0120Read": 4861,
      "\u0120transl": 4862,
      "ager": 4863,
      "\u0120extensive": 4864,
      "cop": 4865,
      "\u0120thermal": 4866,
      "45": 4867,
      "\u0120trou": 4868,
      "och": 4869,
      "\u0120hood": 4870,
      "\u0120carried": 4871,
      "\u0120Indian": 4872,
      "\u0120send": 4873,
      "\u0120Rad": 4874,
      "\u0120transmission": 4875,
      "\u0120station": 4876,
      "\u0120PC": 4877,
      "\u0120grid": 4878,
      "\u0120vess": 4879,
      "\u0120offering": 4880,
      "\u0120showing": 4881,
      "\u0120audience": 4882,
      "ptember": 4883,
      "\u0120consists": 4884,
      "ech": 4885,
      "\u0120encoun": 4886,
      "\u0120decisions": 4887,
      "\u0120stories": 4888,
      "\u0120intelligence": 4889,
      "\u0120adults": 4890,
      "\u0120stable": 4891,
      "\u0120ahead": 4892,
      "\u0120transc": 4893,
      "\u0120discovery": 4894,
      "\u0120camera": 4895,
      "\u0120happened": 4896,
      "-year": 4897,
      "\u0120closer": 4898,
      "\u0120triang": 4899,
      "\u0120approximately": 4900,
      "\u0120#": 4901,
      "\u0120Out": 4902,
      "IC": 4903,
      "27": 4904,
      "\u0120multi": 4905,
      "\u0120wasn't": 4906,
      "gery": 4907,
      "\u0120deliver": 4908,
      "ype": 4909,
      "\u0120technical": 4910,
      "\u0120nest": 4911,
      "\u0120computers": 4912,
      "\u0120Aug": 4913,
      "\u0120biology": 4914,
      "lies": 4915,
      "\u0120withstand": 4916,
      "300": 4917,
      "\u0120diss": 4918,
      "\u0120immune": 4919,
      "itting": 4920,
      "\u0120truly": 4921,
      "\u0120destro": 4922,
      "Ab": 4923,
      "\u0120driving": 4924,
      "\u0120volume": 4925,
      "\u0120master": 4926,
      "Your": 4927,
      "gu": 4928,
      "\u0120Any": 4929,
      "\u0120horiz": 4930,
      "\u0120vulner": 4931,
      "\u0120Br": 4932,
      "\u0120removing": 4933,
      "\u0120mig": 4934,
      "\u0120Mod": 4935,
      "\u0120professor": 4936,
      "\u0120careful": 4937,
      "\u0120initi": 4938,
      "\u0120classic": 4939,
      "rade": 4940,
      "26": 4941,
      "\u0120concerns": 4942,
      "\u0120slowly": 4943,
      "\u0120seeing": 4944,
      "inese": 4945,
      "\u0120born": 4946,
      "\u0120laser": 4947,
      "\u0120anxiety": 4948,
      "\u0120Consider": 4949,
      "arsh": 4950,
      "\u0120reinfor": 4951,
      "fts": 4952,
      "\u0120Green": 4953,
      "AM": 4954,
      "\u0120flav": 4955,
      "apter": 4956,
      "\u0120emp": 4957,
      "andom": 4958,
      "\u0120cultiv": 4959,
      "\u0120turning": 4960,
      "rones": 4961,
      "\u0120peace": 4962,
      "outs": 4963,
      "\u0120drainage": 4964,
      "\u0120electro": 4965,
      "\u0120attached": 4966,
      "ildren": 4967,
      "\u0120evolved": 4968,
      "\u0120assemb": 4969,
      "ASA": 4970,
      "\u0120referred": 4971,
      "\u0120fed": 4972,
      "\u0120operate": 4973,
      "\u0120sket": 4974,
      "\u0120occasion": 4975,
      "\u0120Like": 4976,
      "\u0120ye": 4977,
      "\u0120Main": 4978,
      "\u0120u": 4979,
      "\u0120chain": 4980,
      "orous": 4981,
      "uilding": 4982,
      "\u0120strugg": 4983,
      "orders": 4984,
      "\u0120Hum": 4985,
      "\u0120plate": 4986,
      "\u0120generated": 4987,
      "\u0120external": 4988,
      "vents": 4989,
      "imp": 4990,
      "\u0120spots": 4991,
      "outhern": 4992,
      "\u0120forces": 4993,
      "\u0120zone": 4994,
      "\u0120Serv": 4995,
      "\u0120scr": 4996,
      "\u0120waters": 4997,
      "\u0120military": 4998,
      "iers": 4999,
      "umps": 5000,
      "\u0120released": 5001,
      "\u0120served": 5002,
      "rief": 5003,
      "\u0120bath": 5004,
      "\u0120Sur": 5005,
      "ses": 5006,
      "\u0120neut": 5007,
      "\u0120spectrum": 5008,
      "\u0120Mc": 5009,
      "\u0120familiar": 5010,
      "\u0120physics": 5011,
      "ructure": 5012,
      "nes": 5013,
      "\u0120followed": 5014,
      "\u0120univers": 5015,
      "\u0120skill": 5016,
      "umes": 5017,
      "\u0120China": 5018,
      "\u0120TV": 5019,
      "\u0120pollution": 5020,
      "\u0120June": 5021,
      "\u0120toward": 5022,
      "\u0120remote": 5023,
      "\u0120doors": 5024,
      "\u0120highest": 5025,
      "\u0120trim": 5026,
      "\u0120produces": 5027,
      "owing": 5028,
      "\u0120closely": 5029,
      "\u0120whatever": 5030,
      "\u0120decided": 5031,
      "\u0120decide": 5032,
      "\u0120homeowners": 5033,
      "\u0120ham": 5034,
      "\u0120mutations": 5035,
      "husi": 5036,
      "\u0120indicate": 5037,
      "\u0120Take": 5038,
      "\u0120affects": 5039,
      "\u0120goals": 5040,
      "iled": 5041,
      "\u0120intest": 5042,
      "\u0120Energy": 5043,
      "ued": 5044,
      "\u0120involve": 5045,
      "\u0120angles": 5046,
      "oved": 5047,
      "\u0120stored": 5048,
      "\u0120Instead": 5049,
      "earchers": 5050,
      "\u00c3\u00a9": 5051,
      "arant": 5052,
      "rome": 5053,
      "\u0120clin": 5054,
      "antic": 5055,
      "\u0120blades": 5056,
      "\u0120enthusi": 5057,
      "\u0120wing": 5058,
      "\u0120hop": 5059,
      "\u0120flooring": 5060,
      "\u0120od": 5061,
      "\u0120operating": 5062,
      "\u0120bank": 5063,
      "\u0120resource": 5064,
      "\u0120:": 5065,
      "Bl": 5066,
      "\u0120yard": 5067,
      "Answer": 5068,
      "Sp": 5069,
      "\u0120doctor": 5070,
      "\u0120adds": 5071,
      "\u0120controlled": 5072,
      "tics": 5073,
      "\u0120spiritual": 5074,
      "\u0120populations": 5075,
      "iol": 5076,
      "\u0120bigger": 5077,
      "\u0120wants": 5078,
      "\u0120acqu": 5079,
      "\u0120param": 5080,
      "\u0120subs": 5081,
      "\u0120shot": 5082,
      "\u0120voice": 5083,
      "\u0120sold": 5084,
      "\u0120Dav": 5085,
      "\u0120indoor": 5086,
      "\u0120vision": 5087,
      "\u0120pric": 5088,
      "\u0120Trans": 5089,
      "\u0120Part": 5090,
      "\u0120combined": 5091,
      "\u0120turns": 5092,
      "\u0120central": 5093,
      "\u0120putting": 5094,
      "\u0120samples": 5095,
      "\u0120Light": 5096,
      "\u0120der": 5097,
      "fortun": 5098,
      "\u0120cy": 5099,
      "\u0120world's": 5100,
      "\u0120legal": 5101,
      "\u0120compact": 5102,
      "vol": 5103,
      "uis": 5104,
      "\u0120vs": 5105,
      ".g": 5106,
      "\u0120websites": 5107,
      "icing": 5108,
      "astics": 5109,
      "umber": 5110,
      "\u0120Power": 5111,
      "\u0120distribution": 5112,
      "\u0120billion": 5113,
      "esh": 5114,
      "porary": 5115,
      "\u0120tub": 5116,
      "\u0120economic": 5117,
      "\u0120rig": 5118,
      "\u0120drone": 5119,
      "erate": 5120,
      "which": 5121,
      "\u0120mild": 5122,
      "estic": 5123,
      "\u0120eight": 5124,
      "\u0120Remember": 5125,
      "iant": 5126,
      "espite": 5127,
      "cium": 5128,
      "aching": 5129,
      "\u0120agricult": 5130,
      "\u0120famous": 5131,
      "Pre": 5132,
      "agnetic": 5133,
      "\u0120Both": 5134,
      "rimp": 5135,
      "\u0120shared": 5136,
      "\u0120hom": 5137,
      "\u0120manufacturers": 5138,
      "\u0120PV": 5139,
      "orter": 5140,
      "\u0120mul": 5141,
      "\u0120je": 5142,
      "\u0120reference": 5143,
      "\u0120myster": 5144,
      "\u0120whose": 5145,
      "ckets": 5146,
      "\u0120functional": 5147,
      "urrent": 5148,
      "\u0120anti": 5149,
      "\u0120reduces": 5150,
      "\u0120NASA": 5151,
      "\u0120improving": 5152,
      "useum": 5153,
      "ongevity": 5154,
      "\u0120Found": 5155,
      "\u0120woodworking": 5156,
      "\u0120containers": 5157,
      "\u0120breath": 5158,
      ".)": 5159,
      "\u0120eth": 5160,
      "ffective": 5161,
      "\u0120insights": 5162,
      "\u0120emphas": 5163,
      "gram": 5164,
      "what": 5165,
      "\u0120algae": 5166,
      "-res": 5167,
      "\u0120guidelines": 5168,
      "\u0120edges": 5169,
      "\u0120swit": 5170,
      "\u0120blocks": 5171,
      "\u0120ends": 5172,
      "-friendly": 5173,
      "\"The": 5174,
      "dule": 5175,
      "\u0120regulations": 5176,
      "bre": 5177,
      "au": 5178,
      "\u0120brush": 5179,
      "ss": 5180,
      "iction": 5181,
      "\u0120meters": 5182,
      "\u0120tried": 5183,
      "\u0120Where": 5184,
      "\u0120sess": 5185,
      "\u0120Ocean": 5186,
      "\u0120routine": 5187,
      "\u0120determined": 5188,
      "\u0120minimum": 5189,
      "urthermore": 5190,
      "\u0120fixed": 5191,
      "atin": 5192,
      "arian": 5193,
      "\u0120knives": 5194,
      "\u0120focused": 5195,
      "\u0120deeper": 5196,
      "\u0120belong": 5197,
      "orthern": 5198,
      "\u0120Fr": 5199,
      "\u0120vac": 5200,
      "\u0120cert": 5201,
      "\u0120vehicles": 5202,
      "ingu": 5203,
      "\u0120majority": 5204,
      "-le": 5205,
      "bru": 5206,
      "\u0120wardrobe": 5207,
      "\u0120People": 5208,
      "\u0120teams": 5209,
      "\u0120definitely": 5210,
      "\u0120ease": 5211,
      "thes": 5212,
      "\u0120universe": 5213,
      "uting": 5214,
      "\u0120locations": 5215,
      "\u0120experiments": 5216,
      "\u0120asphalt": 5217,
      "\u0120performed": 5218,
      "\u0120raised": 5219,
      "\u0120repairs": 5220,
      "rooms": 5221,
      "\u0120sufficient": 5222,
      "\u0120passed": 5223,
      "\u0120ax": 5224,
      "\u0120settings": 5225,
      "\u0120wouldn't": 5226,
      "\u0120Let's": 5227,
      "\u0120Bo": 5228,
      "ulating": 5229,
      "\u0120shoes": 5230,
      "\u0120forget": 5231,
      "\u0120meant": 5232,
      "\u0120El": 5233,
      "gy": 5234,
      "First": 5235,
      "\u0120leather": 5236,
      "\u0120origin": 5237,
      "\u0120minerals": 5238,
      "\u0120tomato": 5239,
      "ye": 5240,
      "\u0120inver": 5241,
      "I'm": 5242,
      "\u0120street": 5243,
      "\u0120weeds": 5244,
      "ossible": 5245,
      "\u0120otherwise": 5246,
      "\u0120toxic": 5247,
      "\u0120greenhouse": 5248,
      "oxide": 5249,
      "\u0120bat": 5250,
      "\u0120serves": 5251,
      "\u0120airpl": 5252,
      "upper": 5253,
      "\u0120actions": 5254,
      "\u0120coord": 5255,
      "\u0120pictures": 5256,
      "\u0120teacher": 5257,
      "\u0120firm": 5258,
      "ceans": 5259,
      "\u0120breeding": 5260,
      "\u0120buying": 5261,
      "\u0120marketing": 5262,
      "\u0120\u00c2": 5263,
      "\u0120Mal": 5264,
      "oles": 5265,
      "\u0120missing": 5266,
      "\u0120Nav": 5267,
      "\u0120bot": 5268,
      "\u0120twice": 5269,
      "\u0120satell": 5270,
      "\u0120sight": 5271,
      "bruary": 5272,
      "195": 5273,
      "\u0120helped": 5274,
      "\u0120rid": 5275,
      "\u0120aesthetic": 5276,
      "\u0120linked": 5277,
      "-th": 5278,
      "\u0120tun": 5279,
      "\u0120partners": 5280,
      "More": 5281,
      "\u0120opin": 5282,
      "ompl": 5283,
      "inter": 5284,
      "osion": 5285,
      "\u0120crow": 5286,
      "tect": 5287,
      "\u0120compost": 5288,
      "ocol": 5289,
      "\u0120everyday": 5290,
      "Although": 5291,
      "\u0120Plan": 5292,
      "\u0120intric": 5293,
      "\u0120dog": 5294,
      "\u0120perman": 5295,
      "\u0120kid": 5296,
      "rots": 5297,
      "\u0120vertical": 5298,
      "\u0120sheet": 5299,
      "ING": 5300,
      "Rem": 5301,
      "\u0120African": 5302,
      "\u0120manufacturer": 5303,
      "\u0120craft": 5304,
      "\u0120rust": 5305,
      "ibilities": 5306,
      "\u0120replacement": 5307,
      "\u0120monitor": 5308,
      "hem": 5309,
      "\u0120deck": 5310,
      "\u0120click": 5311,
      "\u0120unless": 5312,
      "ormal": 5313,
      "\u0120mathemat": 5314,
      "\u0120lesson": 5315,
      "idth": 5316,
      "\u0120exciting": 5317,
      "\u0120begins": 5318,
      "allel": 5319,
      "\u0120Up": 5320,
      "\u0120I'll": 5321,
      "\u0120batteries": 5322,
      "ciples": 5323,
      "\u0120Pat": 5324,
      "\u0120finished": 5325,
      "\u0120explains": 5326,
      "\u0120Get": 5327,
      "ovember": 5328,
      "gment": 5329,
      "\u0120flo": 5330,
      "\u0120awareness": 5331,
      "\u0120confident": 5332,
      "\u0120colleag": 5333,
      "-re": 5334,
      "bage": 5335,
      "\u0120AC": 5336,
      "\u0120appeal": 5337,
      "\u0120treated": 5338,
      "\u0120composition": 5339,
      "\u0120tip": 5340,
      "ials": 5341,
      "\u0120accum": 5342,
      "\u0120welding": 5343,
      "\u0120cracks": 5344,
      "\u0120rapidly": 5345,
      "\u0120European": 5346,
      "a's": 5347,
      "iter": 5348,
      "\u0120cryst": 5349,
      "PC": 5350,
      "\u0120communicate": 5351,
      "rical": 5352,
      "\u0120polit": 5353,
      "\u0120estimated": 5354,
      "acific": 5355,
      "lers": 5356,
      "\u0120About": 5357,
      "\u0120what's": 5358,
      "amental": 5359,
      "\u0120internet": 5360,
      "\u0120increasingly": 5361,
      "\u0120desp": 5362,
      "\u0120monitoring": 5363,
      "-time": 5364,
      "gi": 5365,
      "exic": 5366,
      "\u0120La": 5367,
      "\u0120bone": 5368,
      "\u0120perspective": 5369,
      "\u0120relationships": 5370,
      "vantages": 5371,
      "\u0120Another": 5372,
      "opl": 5373,
      "\u0120conducted": 5374,
      "\u0120guess": 5375,
      "\u0120south": 5376,
      "ressed": 5377,
      "\u0120intended": 5378,
      "\u0120emergency": 5379,
      "\u0120Count": 5380,
      "idden": 5381,
      "\u0120opposite": 5382,
      "itivity": 5383,
      "istant": 5384,
      "\u0120geomet": 5385,
      "\u0120pron": 5386,
      "\u0120protective": 5387,
      "ether": 5388,
      "\u0120Climate": 5389,
      "\u0120possess": 5390,
      "\u0120child's": 5391,
      "\u0120compounds": 5392,
      "cast": 5393,
      "izz": 5394,
      "\u0120felt": 5395,
      "/or": 5396,
      "\u0120showc": 5397,
      "\u0120explan": 5398,
      "\u0120ju": 5399,
      "\u0120Look": 5400,
      "\u0120minimal": 5401,
      "\u0120cream": 5402,
      "\u0120biggest": 5403,
      "\u0120exercise": 5404,
      "\u0120proport": 5405,
      "\u0120eleg": 5406,
      "\u0120belief": 5407,
      "\u0120Chinese": 5408,
      "\u0120constantly": 5409,
      "pection": 5410,
      "-on": 5411,
      "\u0120wings": 5412,
      "Not": 5413,
      "\u0120conservation": 5414,
      "\u0120Phil": 5415,
      "\u0120cere": 5416,
      "ava": 5417,
      "\u0120absolute": 5418,
      "\u0120scenari": 5419,
      "\u0120we've": 5420,
      "active": 5421,
      "\u0120San": 5422,
      "\u0120creation": 5423,
      "\u0120July": 5424,
      "aws": 5425,
      "\u0120reput": 5426,
      "\u0120defined": 5427,
      "omy": 5428,
      "\u0120longevity": 5429,
      "dden": 5430,
      "\u0120din": 5431,
      "\u0120density": 5432,
      "lines": 5433,
      "\u0120explained": 5434,
      "rans": 5435,
      "\u0120label": 5436,
      "itate": 5437,
      "rated": 5438,
      "\u0120units": 5439,
      "\u0120procedures": 5440,
      "\u0120overl": 5441,
      "\u0120gather": 5442,
      "\u0120coastal": 5443,
      "\u0120stim": 5444,
      "\u0120upper": 5445,
      "\u0120doub": 5446,
      "bi": 5447,
      "\u0120unlike": 5448,
      "\u0120circle": 5449,
      "\u0120trip": 5450,
      "Share": 5451,
      "Use": 5452,
      "\u0120sudden": 5453,
      "abil": 5454,
      "\u0120reports": 5455,
      "\u0120civil": 5456,
      "\u0120selecting": 5457,
      "mm": 5458,
      "resp": 5459,
      "\u0120seconds": 5460,
      "AD": 5461,
      "According": 5462,
      "\u0120diversity": 5463,
      "forest": 5464,
      "\u0120diameter": 5465,
      "\u0120bulb": 5466,
      "\u0120push": 5467,
      "exp": 5468,
      "\u0120completed": 5469,
      "otic": 5470,
      "\u0120Project": 5471,
      "\u0120manner": 5472,
      "alian": 5473,
      "\u0120believed": 5474,
      "\u0120extract": 5475,
      "\u0120cos": 5476,
      "\u0120Scient": 5477,
      "\u0120decay": 5478,
      "\u0120October": 5479,
      "\u0120dream": 5480,
      "\u0120clearly": 5481,
      "75": 5482,
      "\u0120shock": 5483,
      "\u0120concepts": 5484,
      "athe": 5485,
      "ontal": 5486,
      "rote": 5487,
      "\u0120periods": 5488,
      "celer": 5489,
      "\u0120feather": 5490,
      "\u0120soph": 5491,
      "urb": 5492,
      "vention": 5493,
      "\u0120transition": 5494,
      "\u0120tube": 5495,
      "\u0120Cor": 5496,
      "\u0120tax": 5497,
      "\u0120hundreds": 5498,
      "\u0120delicious": 5499,
      "\u0120failure": 5500,
      "\u0120pure": 5501,
      "matic": 5502,
      "\u0120consequences": 5503,
      "De": 5504,
      "\u0120Technology": 5505,
      "\u0120safely": 5506,
      "abol": 5507,
      "roph": 5508,
      "formation": 5509,
      "\u0120September": 5510,
      "\u0120ban": 5511,
      "\u0120legs": 5512,
      "\u0120pests": 5513,
      "\u0120Japanese": 5514,
      "vis": 5515,
      "\u0120Exper": 5516,
      "\u0120resil": 5517,
      "\u0120studying": 5518,
      "ods": 5519,
      "\u0120herb": 5520,
      "eed": 5521,
      "\u0120vast": 5522,
      "anges": 5523,
      "iest": 5524,
      "\u0120shoot": 5525,
      "\u0120closed": 5526,
      "\u0120...\u010a\u010a": 5527,
      "\u0120knows": 5528,
      "\u0120stret": 5529,
      "\u0120rubber": 5530,
      "\u0120thread": 5531,
      "\u0120Cut": 5532,
      "\u0120frost": 5533,
      "\u0120Mexic": 5534,
      "\u0120opening": 5535,
      "fortunately": 5536,
      "\u0120surgery": 5537,
      "\u0120adhes": 5538,
      "\u0120Ge": 5539,
      "\u0120answers": 5540,
      "\u0120tie": 5541,
      "\u0120adequ": 5542,
      "\u0120Dis": 5543,
      "cember": 5544,
      "agram": 5545,
      "\u0120survival": 5546,
      "\u0120west": 5547,
      "\u0120carp": 5548,
      "\u0120divid": 5549,
      "\u0120sample": 5550,
      "\u0120private": 5551,
      "\u0120Anim": 5552,
      "\u0120calls": 5553,
      "\u0120moved": 5554,
      "\u0120fundamental": 5555,
      "\u0120title": 5556,
      "\u0120Pres": 5557,
      "\u0120|": 5558,
      "iration": 5559,
      "idents": 5560,
      "\u0120preferences": 5561,
      "\u0120reprodu": 5562,
      "\u0120spo": 5563,
      "\u0120channel": 5564,
      "ounced": 5565,
      "\u0120belt": 5566,
      "\u0120Environment": 5567,
      "\u0120ratio": 5568,
      "\u0120specialized": 5569,
      "\u0120tut": 5570,
      "\u0120Int": 5571,
      "\u0120worldwide": 5572,
      "\u0120mechanisms": 5573,
      "ounce": 5574,
      "\u0120August": 5575,
      "\u0120measured": 5576,
      "\u0120treatments": 5577,
      "\u0120meeting": 5578,
      "\u0120movie": 5579,
      "\u0120UV": 5580,
      ".e": 5581,
      "\u0120Haw": 5582,
      "gon": 5583,
      "fall": 5584,
      "iture": 5585,
      "\u0120inner": 5586,
      "\u0120tough": 5587,
      "sters": 5588,
      "Hz": 5589,
      "\u0120gardening": 5590,
      "\u0120International": 5591,
      "\u0120reduction": 5592,
      "\u0120confirm": 5593,
      "mers": 5594,
      "\u0120Design": 5595,
      "change": 5596,
      "itis": 5597,
      "AP": 5598,
      "\u0120seven": 5599,
      "\u0120tropical": 5600,
      "\u0120copy": 5601,
      "\u0120interior": 5602,
      "\u0120random": 5603,
      "\u0120transp": 5604,
      "-being": 5605,
      "\u0120packaging": 5606,
      "\u0120Flor": 5607,
      "\u0120stands": 5608,
      "ially": 5609,
      "\u0120pros": 5610,
      "\u0120Add": 5611,
      "\u0120therapy": 5612,
      "\u0120Check": 5613,
      "\u0120sharpen": 5614,
      "\u0120virtual": 5615,
      "itors": 5616,
      "\u0120names": 5617,
      "\u0120Home": 5618,
      "Cons": 5619,
      "\u0120Park": 5620,
      "\u0120tiles": 5621,
      "esus": 5622,
      "\u0120classroom": 5623,
      "\u0120Associ": 5624,
      "\u0120historical": 5625,
      "\u0120Let": 5626,
      "Before": 5627,
      "\u0120Potter": 5628,
      "\u0120gave": 5629,
      "\u0120breaking": 5630,
      "\u0120mission": 5631,
      "\u0120Conc": 5632,
      "\u0120balanced": 5633,
      "\u0120isol": 5634,
      "\u0120significance": 5635,
      "tes": 5636,
      "uk": 5637,
      "cipl": 5638,
      "\u0120seek": 5639,
      "29": 5640,
      "\u0120tape": 5641,
      "\u0120joint": 5642,
      "\u0120Mic": 5643,
      "\u0120basically": 5644,
      "\u0120Food": 5645,
      "\u0120tested": 5646,
      "ords": 5647,
      "New": 5648,
      "aul": 5649,
      "\u0120conventional": 5650,
      "\u0120Care": 5651,
      "\u0120warming": 5652,
      "inery": 5653,
      "\u0120cannab": 5654,
      "\u0120relig": 5655,
      "\u0120item": 5656,
      "\u0120campa": 5657,
      "\u0120ships": 5658,
      "\u0120victim": 5659,
      "that": 5660,
      "\u0120ord": 5661,
      "dent": 5662,
      "\u0120colon": 5663,
      "\u0120Canada": 5664,
      "anted": 5665,
      "\u0120Val": 5666,
      "terior": 5667,
      "\u0120protected": 5668,
      "\u0120popularity": 5669,
      "\u0120expertise": 5670,
      "\u0120assum": 5671,
      "\u0120cable": 5672,
      "\u0120entirely": 5673,
      "\u0120abund": 5674,
      "EM": 5675,
      "\u0120trend": 5676,
      "\u0120fascinating": 5677,
      "ius": 5678,
      "\u0120spent": 5679,
      "\u0120Today": 5680,
      "EC": 5681,
      "hop": 5682,
      "\u0120Educ": 5683,
      "\u0120cast": 5684,
      "Ar": 5685,
      "\u0120perfectly": 5686,
      "acks": 5687,
      "\u0120creativity": 5688,
      "using": 5689,
      "\u0120jud": 5690,
      "\u0120Sea": 5691,
      "\u0120neck": 5692,
      "\u0120Pan": 5693,
      "OU": 5694,
      "\u0120thoughts": 5695,
      "\u0120den": 5696,
      "\u0120cand": 5697,
      "pected": 5698,
      "\u0120covers": 5699,
      "\u0120pasta": 5700,
      "Rel": 5701,
      "osph": 5702,
      "pec": 5703,
      "\u0120grows": 5704,
      "\u0120annual": 5705,
      "\u0120knowing": 5706,
      "with": 5707,
      "\u0120remark": 5708,
      "\u0120suscept": 5709,
      "going": 5710,
      "\u0120personality": 5711,
      "\u0120schedule": 5712,
      "\u0120Mark": 5713,
      "\u0120fluid": 5714,
      "\u0120informed": 5715,
      "\u0120laws": 5716,
      "oys": 5717,
      "\u0120fan": 5718,
      "\u0120defect": 5719,
      "\u0120button": 5720,
      "\u0120north": 5721,
      "\u0120status": 5722,
      "-related": 5723,
      "\u0120haven": 5724,
      "\u0120unus": 5725,
      "\u0120finally": 5726,
      "\u0120attach": 5727,
      "\u0120woman": 5728,
      "\u0120keeps": 5729,
      "\u0120successfully": 5730,
      "\u0120pond": 5731,
      "Cont": 5732,
      "\u0120gall": 5733,
      "\u0120hat": 5734,
      "\u0120dat": 5735,
      "\u0120foss": 5736,
      "ait": 5737,
      "Dr": 5738,
      "\u0120ow": 5739,
      "\u0120stages": 5740,
      "minist": 5741,
      "-S": 5742,
      "\u0120possibly": 5743,
      "oving": 5744,
      "\u0120definition": 5745,
      "\u0120recycled": 5746,
      "gers": 5747,
      "\u0120parallel": 5748,
      "\u0120drug": 5749,
      "azon": 5750,
      "cers": 5751,
      "!\"": 5752,
      "\u0120greatly": 5753,
      "lege": 5754,
      "fered": 5755,
      "\u0120friendly": 5756,
      "cel": 5757,
      "\u0120mol": 5758,
      "\u0120colleagues": 5759,
      "\u0120comment": 5760,
      "\u0120January": 5761,
      "\u0120shru": 5762,
      "\u0120DI": 5763,
      "\u0120forests": 5764,
      "From": 5765,
      "ronic": 5766,
      "hy": 5767,
      "\u0120City": 5768,
      "\u0120nar": 5769,
      "\u0120destroy": 5770,
      "\u0120replaced": 5771,
      "\u0120Dar": 5772,
      "\u0120cav": 5773,
      "\u0120trick": 5774,
      "\u0120stronger": 5775,
      "-F": 5776,
      "\u0120holds": 5777,
      "\u0120despite": 5778,
      "rab": 5779,
      "\u0120drones": 5780,
      "\u0120oceans": 5781,
      "uments": 5782,
      "\u0120achieved": 5783,
      "\u0120ultimately": 5784,
      "\u0120suggested": 5785,
      "\u0120chlor": 5786,
      "\u0120lift": 5787,
      "\u0120prem": 5788,
      "\u0120crew": 5789,
      "\u0120usage": 5790,
      "\u0120Hel": 5791,
      "\u0120roofs": 5792,
      "face": 5793,
      "\u0120pruning": 5794,
      "\u0120bol": 5795,
      "\u0120weed": 5796,
      "\u0120wires": 5797,
      "\u0120stores": 5798,
      "\u00e2\u0122\u013bre": 5799,
      "\u0120II": 5800,
      "\u0120celiac": 5801,
      "\u0120girls": 5802,
      "\u0120ampl": 5803,
      "\u0120fle": 5804,
      "\u0120presented": 5805,
      "vin": 5806,
      "\u0120emotional": 5807,
      "\u0120digestive": 5808,
      "\u0120Bas": 5809,
      "\u0120mature": 5810,
      "\u0120survey": 5811,
      "\u0120smell": 5812,
      "\u0120shrimp": 5813,
      "\u0120brick": 5814,
      "\u0120outer": 5815,
      "gin": 5816,
      "rays": 5817,
      "\u0120attractive": 5818,
      "\u0120urban": 5819,
      "-the": 5820,
      "\u0120relative": 5821,
      "\u0120zero": 5822,
      "\u0120removal": 5823,
      "\u0120millions": 5824,
      "\u0120King": 5825,
      "\u0120phr": 5826,
      "\u0120unw": 5827,
      "\u0120Nature": 5828,
      "\u0120circum": 5829,
      "\u0120Great": 5830,
      "Water": 5831,
      "\u0120collected": 5832,
      "\u0120imagine": 5833,
      "\u0120solve": 5834,
      "\u0120deter": 5835,
      "\u0120applying": 5836,
      "\u0120leaders": 5837,
      "\u0120Mich": 5838,
      "\u0120Russ": 5839,
      "urch": 5840,
      "\u0120cities": 5841,
      "\u0120speak": 5842,
      "Gen": 5843,
      "atching": 5844,
      "earing": 5845,
      "\u0120Pacific": 5846,
      "\u0120preparation": 5847,
      "\u0120recognize": 5848,
      "heat": 5849,
      "\u0120thickness": 5850,
      "\u0120Commun": 5851,
      "\u0120exploring": 5852,
      "iders": 5853,
      "\u0120Opt": 5854,
      "\u0120White": 5855,
      "\u0120defense": 5856,
      "\u0120frequent": 5857,
      "\u0120connections": 5858,
      "rors": 5859,
      "\u0120alter": 5860,
      "\u0120accompl": 5861,
      "\u0120versatility": 5862,
      "\u0120Bra": 5863,
      "\u0120prompt": 5864,
      "elly": 5865,
      "\u0120efficiently": 5866,
      "\u0120renewable": 5867,
      "how": 5868,
      "\u0120innovative": 5869,
      "lin": 5870,
      "\u0120Class": 5871,
      "\u0120brief": 5872,
      "\u0120tor": 5873,
      "\u0120letter": 5874,
      "\u0120jump": 5875,
      "\u0120topics": 5876,
      "\u0120studied": 5877,
      "\u0120knew": 5878,
      "\u0120enable": 5879,
      "\u0120ath": 5880,
      "asy": 5881,
      "\u0120straw": 5882,
      "\u0120employees": 5883,
      "\u0120Sk": 5884,
      "ridge": 5885,
      "\u0120calcium": 5886,
      "\u0120guarant": 5887,
      "\u0120shing": 5888,
      "\u0120stylish": 5889,
      "\u0120dirt": 5890,
      "\u0120strip": 5891,
      "lock": 5892,
      "\u0120impossible": 5893,
      "antly": 5894,
      "\u0120nitrogen": 5895,
      "hors": 5896,
      "\u0120fr": 5897,
      "Comp": 5898,
      "alled": 5899,
      "then": 5900,
      "\u0120Florida": 5901,
      "\u0120Sol": 5902,
      "\u0120vacc": 5903,
      "\u0120ble": 5904,
      "\u0120Sch": 5905,
      "\u0120landing": 5906,
      "\u0120swimming": 5907,
      "ublic": 5908,
      "\u0120scene": 5909,
      "\u0120cit": 5910,
      "\u0120susp": 5911,
      "\u0120measurements": 5912,
      "\u0120massive": 5913,
      "\u0120continued": 5914,
      "mark": 5915,
      "\u0120minimize": 5916,
      "gn": 5917,
      "\u0120policy": 5918,
      "eram": 5919,
      "\u0120watching": 5920,
      "\u0120shift": 5921,
      "thetic": 5922,
      "down": 5923,
      "oto": 5924,
      "\u0120Del": 5925,
      "\u0120lessons": 5926,
      "\u0120Develop": 5927,
      "\u0120division": 5928,
      "mic": 5929,
      "\u0120tournam": 5930,
      "\u0120comprom": 5931,
      "\"We": 5932,
      "\u0120sharing": 5933,
      "cest": 5934,
      ".\u00e2\u0122\u013f\u010a": 5935,
      "\u0120sou": 5936,
      "ara": 5937,
      "ilation": 5938,
      "ste": 5939,
      "Solar": 5940,
      "ifications": 5941,
      "\u0120Through": 5942,
      "\u0120capture": 5943,
      "\u0120offered": 5944,
      "\u0120entertain": 5945,
      "\u0120Before": 5946,
      "\u0120excessive": 5947,
      "\u0120grade": 5948,
      "\u0120Off": 5949,
      "\u0120codes": 5950,
      "ini": 5951,
      "abet": 5952,
      "aters": 5953,
      "\u0120chances": 5954,
      "enses": 5955,
      "\u0120extend": 5956,
      "\u0120medicine": 5957,
      "well": 5958,
      "lim": 5959,
      "\u0120ment": 5960,
      "\u0120variations": 5961,
      "nel": 5962,
      "\u0120Fish": 5963,
      "flow": 5964,
      "-of": 5965,
      "\u0120integrity": 5966,
      "\u0120Good": 5967,
      "\u0120pilots": 5968,
      "oding": 5969,
      "\u0120rely": 5970,
      "\u0120file": 5971,
      "\u0120photo": 5972,
      "\u0120movements": 5973,
      "RO": 5974,
      "\u0120Jesus": 5975,
      "\u0120portion": 5976,
      "\u0120functionality": 5977,
      "organ": 5978,
      "400": 5979,
      "\u0120Bro": 5980,
      "\u0120Have": 5981,
      "estyle": 5982,
      "\u0120hydrogen": 5983,
      "\u0120College": 5984,
      "mp": 5985,
      "\u0120reli": 5986,
      "\u0120illness": 5987,
      "\u0120mice": 5988,
      "\u0120residential": 5989,
      "\u0120Step": 5990,
      "oxy": 5991,
      "\u0120gone": 5992,
      "\u0120Start": 5993,
      "\u0120reb": 5994,
      "\u0120jeans": 5995,
      "\u0120Foundation": 5996,
      "\u00c2\u0143": 5997,
      "owns": 5998,
      "\u0120February": 5999,
      "\u0120indu": 6000,
      "\u0120stom": 6001,
      "\u0120saving": 6002,
      "rastructure": 6003,
      "\u0120guidance": 6004,
      "\u0120rect": 6005,
      "\u0120dried": 6006,
      "\u0120capabilities": 6007,
      "\u0120sed": 6008,
      "uing": 6009,
      "iber": 6010,
      "\u0120indoors": 6011,
      "\u0120Go": 6012,
      "\u0120neutral": 6013,
      "\u0120ton": 6014,
      "\u0120yield": 6015,
      "\u0120map": 6016,
      "unt": 6017,
      "\u0120intricate": 6018,
      "\u0120keyword": 6019,
      "\u0120vibrant": 6020,
      "\u0120chosen": 6021,
      "\u0120mountain": 6022,
      "\u0120shut": 6023,
      "\u0120lightweight": 6024,
      "aming": 6025,
      "care": 6026,
      "\u0120string": 6027,
      "\u0120prey": 6028,
      "\u0120pencil": 6029,
      "AA": 6030,
      "een": 6031,
      "\u0120accident": 6032,
      "Since": 6033,
      "\u0120November": 6034,
      "\u0120backpack": 6035,
      "estone": 6036,
      "\u0120emotions": 6037,
      "\u0120measurement": 6038,
      "\u0120chromosomes": 6039,
      "\u0120asking": 6040,
      "\u0120represents": 6041,
      "\u0120thanks": 6042,
      "\u0120preserv": 6043,
      "\u0120anywhere": 6044,
      "\u0120principles": 6045,
      "\u0120measuring": 6046,
      "\u0120drugs": 6047,
      "\u0120Expl": 6048,
      "\u0120acceler": 6049,
      "\u0120substances": 6050,
      "....": 6051,
      "\u0120prol": 6052,
      "\u0120luck": 6053,
      "\u0120disorders": 6054,
      "\u0120artists": 6055,
      "\u0120harder": 6056,
      "\u0120wed": 6057,
      "Rec": 6058,
      "mas": 6059,
      "asure": 6060,
      "\u0120interpret": 6061,
      "\u0120he's": 6062,
      "-sc": 6063,
      "\u0120imaging": 6064,
      "Reg": 6065,
      "\u0120vulnerable": 6066,
      "____": 6067,
      "\u0120drink": 6068,
      "\u0120trigger": 6069,
      "iotics": 6070,
      "\u0120CT": 6071,
      "\u0120educational": 6072,
      "ughter": 6073,
      "\u0120classes": 6074,
      "\u0120advent": 6075,
      "\u0120shorter": 6076,
      "\u0120acids": 6077,
      "mble": 6078,
      "rying": 6079,
      "-C": 6080,
      "\u0120happening": 6081,
      "but": 6082,
      "\u0120seam": 6083,
      "\u0120tow": 6084,
      "\u0120estate": 6085,
      "\u0120flexible": 6086,
      "uls": 6087,
      "\u0120possibility": 6088,
      "\u0120supplies": 6089,
      "\u0120outfits": 6090,
      "\u0120Professor": 6091,
      "\u0120novel": 6092,
      "\u0120pou": 6093,
      "\u0120tum": 6094,
      "\u0120suits": 6095,
      "\u0120Bel": 6096,
      "\u0120substance": 6097,
      "\u0120wheel": 6098,
      "\u0120containing": 6099,
      "\u0120consumers": 6100,
      "\u0120extended": 6101,
      "\u0120wish": 6102,
      "levision": 6103,
      "inting": 6104,
      "\u0120speaker": 6105,
      "\u0120injury": 6106,
      "\u0120instit": 6107,
      "\u0120purs": 6108,
      "\u0120AT": 6109,
      "During": 6110,
      "\u0120feelings": 6111,
      "\u0120revolution": 6112,
      "\u0120aggreg": 6113,
      "isher": 6114,
      "LL": 6115,
      "\u0120installing": 6116,
      "150": 6117,
      "\u0120glue": 6118,
      "iece": 6119,
      "\u0120I'd": 6120,
      "\u0120hydro": 6121,
      "eping": 6122,
      "\u0120caught": 6123,
      "\u0120herbs": 6124,
      "igure": 6125,
      "\u0120diagnosis": 6126,
      "\u0120tast": 6127,
      "Using": 6128,
      "\u0120dive": 6129,
      "\u0120virus": 6130,
      "\u0120Program": 6131,
      "brid": 6132,
      "SA": 6133,
      "\u0120atoms": 6134,
      "\u0120Tennis": 6135,
      "\u0120carrying": 6136,
      "\u0120truth": 6137,
      "\u0120disorder": 6138,
      "ospital": 6139,
      "Pe": 6140,
      "194": 6141,
      "men": 6142,
      "ditional": 6143,
      "\u0120couldn't": 6144,
      "\u0120Soci": 6145,
      "aped": 6146,
      "\u0120asteroids": 6147,
      "\u0120tutorial": 6148,
      "isation": 6149,
      "\u0120penet": 6150,
      "\u0120train": 6151,
      "inds": 6152,
      "drome": 6153,
      "\u0120landscap": 6154,
      "\u0120DC": 6155,
      "bal": 6156,
      "inations": 6157,
      "\u0120convey": 6158,
      "\u0120reactions": 6159,
      "\u0120exec": 6160,
      "\u0120History": 6161,
      "apor": 6162,
      "\u0120discussed": 6163,
      "\u0120sick": 6164,
      "\u0120rising": 6165,
      "\u0120barrier": 6166,
      "bur": 6167,
      "Te": 6168,
      "\u0120former": 6169,
      "\u0120cultures": 6170,
      "\u0120interactions": 6171,
      "\u0120tack": 6172,
      "uum": 6173,
      "rus": 6174,
      "\u0120magnet": 6175,
      "\u0120facil": 6176,
      "\u0120assign": 6177,
      "\u0120Life": 6178,
      "\u0120filling": 6179,
      "\u0120song": 6180,
      "\u0120Know": 6181,
      "van": 6182,
      "\u0120nutrient": 6183,
      "ocial": 6184,
      "see": 6185,
      "\u0120recipes": 6186,
      "\u0120electrom": 6187,
      "\u0120Roof": 6188,
      "\u0120row": 6189,
      "\u0120continuous": 6190,
      "\u0120wooden": 6191,
      "\u0120boards": 6192,
      "\u0120drought": 6193,
      "\u0120cheap": 6194,
      "\u0120nation": 6195,
      "ographic": 6196,
      "\u0120interaction": 6197,
      "\u0120restaur": 6198,
      "\u0120propag": 6199,
      "\u0120complicated": 6200,
      "appe": 6201,
      "\u0120drawn": 6202,
      "\u0120furniture": 6203,
      "\u0120Gra": 6204,
      "anned": 6205,
      "\u0120\u00e2\u0122\u013a": 6206,
      "\u0120academ": 6207,
      "\u0120Thus": 6208,
      "\u0120fans": 6209,
      "\u0120selected": 6210,
      "\u0120aggressive": 6211,
      "\u0120Avoid": 6212,
      "\u0120mush": 6213,
      "\u0120artist": 6214,
      "\u0120carb": 6215,
      "\u0120Pol": 6216,
      "\u0120decrease": 6217,
      "\u0120Vol": 6218,
      "\u0120compound": 6219,
      "uzz": 6220,
      "ulent": 6221,
      "\u0120li": 6222,
      "\u0120himself": 6223,
      "\u0120restrict": 6224,
      "\u0120noticed": 6225,
      "ris": 6226,
      "\u0120drawings": 6227,
      "\u0120raise": 6228,
      "esides": 6229,
      "\u0120generations": 6230,
      "\u0120inch": 6231,
      "\u0120approaches": 6232,
      "\u0120party": 6233,
      "SD": 6234,
      "ondon": 6235,
      "ulum": 6236,
      "\u0120heads": 6237,
      "\u0120father": 6238,
      "-M": 6239,
      "\u0120frequencies": 6240,
      "\u0120Port": 6241,
      "\u0120holding": 6242,
      "owered": 6243,
      "\u0120moves": 6244,
      "onal": 6245,
      "reens": 6246,
      "\u0120Atl": 6247,
      "\u0120mineral": 6248,
      "ander": 6249,
      "\u0120dedicated": 6250,
      "\u0120speaking": 6251,
      "\u0120dressing": 6252,
      "\u0120Garden": 6253,
      "rue": 6254,
      "\u0120December": 6255,
      "\u0120East": 6256,
      "\u0120Ang": 6257,
      "play": 6258,
      "\u0120fav": 6259,
      "\u0120inspection": 6260,
      "\u0120aid": 6261,
      "yself": 6262,
      "\u0120wit": 6263,
      "\u0120networks": 6264,
      "\u0120Geor": 6265,
      "\u0120cm": 6266,
      "\u0120jobs": 6267,
      "\u0120laun": 6268,
      "\u0120handling": 6269,
      "\u0120compare": 6270,
      "\u0120Willi": 6271,
      "\u0120Di": 6272,
      "\u0120remaining": 6273,
      "\u0120haven't": 6274,
      "\u0120discussion": 6275,
      "\u0120river": 6276,
      "\u0120houses": 6277,
      "usiness": 6278,
      "\u0120Amazon": 6279,
      "\u0120protecting": 6280,
      "inity": 6281,
      "ovol": 6282,
      "\u0120dioxide": 6283,
      "ama": 6284,
      "\u0120Asia": 6285,
      "\u0120Long": 6286,
      "\u0120worse": 6287,
      "\u0120consume": 6288,
      "asp": 6289,
      "\u0120underst": 6290,
      "itter": 6291,
      "\u0120principle": 6292,
      "gments": 6293,
      "\u0120brings": 6294,
      "\u0120sen": 6295,
      "oler": 6296,
      "ette": 6297,
      "\u0120corresp": 6298,
      "Or": 6299,
      "\u0120guy": 6300,
      "ka": 6301,
      "\u0120potato": 6302,
      "\u0120proposed": 6303,
      "\u0120posts": 6304,
      "ford": 6305,
      "\u0120girl": 6306,
      "\u0120Two": 6307,
      "\u0120request": 6308,
      "\u0120cloud": 6309,
      "\u0120soup": 6310,
      "\u0120stems": 6311,
      "airs": 6312,
      "\u0120Fed": 6313,
      "\u0120wrote": 6314,
      "\u0120Disc": 6315,
      "gage": 6316,
      "\u0120viol": 6317,
      "\u0120covering": 6318,
      "\u0120infrastructure": 6319,
      "TI": 6320,
      "\u0120fairly": 6321,
      "cement": 6322,
      "\u0120physic": 6323,
      "\u0120substr": 6324,
      "\u0120flexibility": 6325,
      "\u0120seedlings": 6326,
      "\u0120Sometimes": 6327,
      "lessly": 6328,
      "riers": 6329,
      "aint": 6330,
      "\u0120mining": 6331,
      "\u0120secret": 6332,
      "\u0120astron": 6333,
      "ham": 6334,
      "\u0120mas": 6335,
      "\u0120gutters": 6336,
      "ibrary": 6337,
      "\u0120Australian": 6338,
      "atically": 6339,
      "\u0120weigh": 6340,
      "zer": 6341,
      "kay": 6342,
      "\u0120Gold": 6343,
      "\u0120baking": 6344,
      "\u0120obst": 6345,
      "\u0120behaviors": 6346,
      "\u0120laboratory": 6347,
      "thesis": 6348,
      "\u0120affordable": 6349,
      "vit": 6350,
      "\u0120accounts": 6351,
      "\u0120magic": 6352,
      "\u0120motiv": 6353,
      "\u0120mulch": 6354,
      "\u0120vine": 6355,
      "\u0120nose": 6356,
      "\u0120wildlife": 6357,
      "\u0120enab": 6358,
      "\u0120chemistry": 6359,
      "\u0120island": 6360,
      "Understanding": 6361,
      "inals": 6362,
      "\u0120supposed": 6363,
      "\u0120passion": 6364,
      "\u0120moon": 6365,
      "asm": 6366,
      "\u0120memory": 6367,
      "\u0120permanent": 6368,
      "\u0120England": 6369,
      "\u0120gran": 6370,
      "\u0120feels": 6371,
      "\u0120attrib": 6372,
      "\u0120preferred": 6373,
      "\u0120articles": 6374,
      "\u0120brands": 6375,
      "\u0120hazard": 6376,
      "\u0120pun": 6377,
      "\u0120minute": 6378,
      "\u0120observe": 6379,
      "\u0120cards": 6380,
      "\u0120They're": 6381,
      "\u0120pup": 6382,
      "\u0120director": 6383,
      "\u0120occup": 6384,
      "-B": 6385,
      "rant": 6386,
      "\u0120inh": 6387,
      "\u0120Year": 6388,
      "\u0120workers": 6389,
      "\u0120grip": 6390,
      "\u0120Regular": 6391,
      "\u0120embry": 6392,
      "\u0120Space": 6393,
      "\u0120Earth's": 6394,
      "\u0120engaging": 6395,
      "\u0120ancest": 6396,
      "\u0120hidden": 6397,
      "\u0120Proper": 6398,
      "\u0120aviation": 6399,
      "\u0120myself": 6400,
      "ommon": 6401,
      "\u0120traits": 6402,
      "-n": 6403,
      "\u0120seeking": 6404,
      "\u0120son": 6405,
      "\u0120guys": 6406,
      "\u0120one's": 6407,
      "\u0120infections": 6408,
      "\u0120eaten": 6409,
      "\u0120cuis": 6410,
      "\u0120Society": 6411,
      "\u0120Cat": 6412,
      "\u0120shed": 6413,
      "\u0120shirts": 6414,
      "\u0120printing": 6415,
      "\u0120accurately": 6416,
      "\u0120household": 6417,
      "\u0120phenomenon": 6418,
      "----": 6419,
      "\u0120habits": 6420,
      "\u0120River": 6421,
      "oids": 6422,
      "Every": 6423,
      "uts": 6424,
      "\u0120Det": 6425,
      "\u0120jacket": 6426,
      "\u0120variation": 6427,
      "\u0120bits": 6428,
      "Because": 6429,
      "\u0120painting": 6430,
      "\u0120Darwin": 6431,
      "\u0120improvement": 6432,
      "\u0120ion": 6433,
      "\u0120pepper": 6434,
      "\u0120yes": 6435,
      "\u0120grand": 6436,
      "\u0120radar": 6437,
      "\u0120intense": 6438,
      "\u0120pad": 6439,
      "\u0120stomach": 6440,
      "\u0120antib": 6441,
      "ione": 6442,
      "\u0120turb": 6443,
      "\u0120boxes": 6444,
      "from": 6445,
      "ardens": 6446,
      "\u0120aquatic": 6447,
      "\u0120breed": 6448,
      "\u0120facing": 6449,
      "\u0120waterproof": 6450,
      "\u0120Should": 6451,
      "ashington": 6452,
      "\u0120utility": 6453,
      "\u0120tap": 6454,
      "\u0120reached": 6455,
      "hand": 6456,
      "-ch": 6457,
      "\u0120Phys": 6458,
      "\u0120visitors": 6459,
      "\u0120cred": 6460,
      "\u0120plug": 6461,
      "\u0120distingu": 6462,
      "\u0120DIY": 6463,
      "rep": 6464,
      "arn": 6465,
      "\u0120prevents": 6466,
      "cil": 6467,
      "\u0120controls": 6468,
      "\u0120rank": 6469,
      "\u0120commitment": 6470,
      "anish": 6471,
      "Other": 6472,
      "\u0120metabol": 6473,
      "\u0120standing": 6474,
      "!!": 6475,
      "\u0120nearby": 6476,
      "\u0120stones": 6477,
      "\u0120lad": 6478,
      "\u0120ourselves": 6479,
      "\u0120volcano": 6480,
      "OS": 6481,
      "\u0120sensitivity": 6482,
      "\u0120cott": 6483,
      "\u0120cannabis": 6484,
      "',": 6485,
      "ifies": 6486,
      "\u0120throw": 6487,
      "\u0120thoroughly": 6488,
      "\u0120consideration": 6489,
      "\u0120acts": 6490,
      "\u0120frozen": 6491,
      "\u0120blend": 6492,
      "\u0120fold": 6493,
      "\u0120Guide": 6494,
      "\u0120Tex": 6495,
      "Int": 6496,
      "\u0120CNC": 6497,
      "\u0120accessible": 6498,
      "Related": 6499,
      "\u0120fant": 6500,
      "\u0120dim": 6501,
      "\u0120lifestyle": 6502,
      "\u0120nuclear": 6503,
      "RC": 6504,
      "\u0120math": 6505,
      "\u0120bear": 6506,
      "\u0120adequate": 6507,
      "ked": 6508,
      "ools": 6509,
      "apers": 6510,
      "\u0120unusual": 6511,
      "fra": 6512,
      "\u0120fewer": 6513,
      "\u0120ash": 6514,
      "\u0120serving": 6515,
      "\u0120Bay": 6516,
      "\u0120era": 6517,
      "\u0120owner": 6518,
      "\u0120pounds": 6519,
      "ael": 6520,
      "\u0120mir": 6521,
      "\u0120inject": 6522,
      "\u0120unf": 6523,
      "\u0120lies": 6524,
      "etal": 6525,
      "\u0120realize": 6526,
      "aple": 6527,
      "36": 6528,
      "\u0120yeast": 6529,
      "stream": 6530,
      "\u0120chromosome": 6531,
      "\u0120substant": 6532,
      "\u0120television": 6533,
      "\u0120cooling": 6534,
      "\u0120sensors": 6535,
      "\u0120resin": 6536,
      "\u0120roles": 6537,
      "Also": 6538,
      "\u0120manual": 6539,
      "\u0120Mach": 6540,
      "\u0120Tom": 6541,
      "\u0120join": 6542,
      "FO": 6543,
      "\u0120messages": 6544,
      "\u0120predators": 6545,
      "\u0120passing": 6546,
      "\u0120authen": 6547,
      "\u0120rough": 6548,
      "\u0120feedback": 6549,
      "\u0120Ass": 6550,
      "\u0120college": 6551,
      "\u0120Change": 6552,
      "\u0120Work": 6553,
      "\u0120eliminate": 6554,
      "\u0120ali": 6555,
      "sec": 6556,
      "\u0120convenient": 6557,
      "\u0120disad": 6558,
      "\u0120London": 6559,
      "\u0120conversation": 6560,
      "\u0120finger": 6561,
      "-by": 6562,
      "\u0120corner": 6563,
      "stone": 6564,
      "Don't": 6565,
      "obby": 6566,
      "\u0120coop": 6567,
      "\u0120mer": 6568,
      "\u0120advertising": 6569,
      "\u0120drying": 6570,
      "\u0120Academ": 6571,
      "\u0120concerned": 6572,
      "\u0120bub": 6573,
      "ovolta": 6574,
      "\u0120electronics": 6575,
      "App": 6576,
      "\u0120balls": 6577,
      "\u0120today's": 6578,
      "\u0120loads": 6579,
      "\u0120abilities": 6580,
      "\u0120gravity": 6581,
      "\u0120hygi": 6582,
      "\u0120matches": 6583,
      "\u0120minor": 6584,
      "\u0120appreciate": 6585,
      "\u0120array": 6586,
      "\u0120RF": 6587,
      "\u0120particle": 6588,
      "\u0120jaw": 6589,
      "Sum": 6590,
      "\u0120innovation": 6591,
      "\u0120Children": 6592,
      "\u0120leak": 6593,
      "\u0120wiring": 6594,
      "\u0120susceptible": 6595,
      "la": 6596,
      "reate": 6597,
      "\u0120fossil": 6598,
      "ommod": 6599,
      "Me": 6600,
      "\u0120organism": 6601,
      "asted": 6602,
      "\u0120forming": 6603,
      "eries": 6604,
      "\u0120trouble": 6605,
      "\u0120drilling": 6606,
      "tion": 6607,
      "\u0120succ": 6608,
      "\u0120tons": 6609,
      "\u0120occurred": 6610,
      "\u0120CB": 6611,
      "\u0120unex": 6612,
      "\u0120goods": 6613,
      "dering": 6614,
      "\u0120rod": 6615,
      "\u0120facilities": 6616,
      "\u0120machinery": 6617,
      "MS": 6618,
      "izers": 6619,
      "ffee": 6620,
      "overn": 6621,
      "\u0120hen": 6622,
      "\u0120detection": 6623,
      "\u0120mount": 6624,
      "\u0120garage": 6625,
      "\u0120fault": 6626,
      "\u0120interview": 6627,
      "mes": 6628,
      "\u0120disrupt": 6629,
      "des": 6630,
      "\u0120prices": 6631,
      "\u0120Mat": 6632,
      "\u0120Under": 6633,
      "\u0120stainless": 6634,
      "-resistant": 6635,
      "\u0120clients": 6636,
      "Le": 6637,
      "bed": 6638,
      ".D": 6639,
      "\u0120necessarily": 6640,
      "oyal": 6641,
      "Even": 6642,
      "agers": 6643,
      "\u0120slic": 6644,
      "berry": 6645,
      "\u0120mistakes": 6646,
      "\u0120notes": 6647,
      "\u0120listen": 6648,
      "\u0120Imp": 6649,
      "\u0120Finally": 6650,
      "west": 6651,
      "\u0120recognition": 6652,
      "oosing": 6653,
      "\u0120doll": 6654,
      "\u0120stro": 6655,
      "\u0120Organ": 6656,
      "\u0120Ap": 6657,
      "\u0120satellite": 6658,
      "\u0120runs": 6659,
      "\u0120incredibly": 6660,
      "\u0120prone": 6661,
      "\u0120muscle": 6662,
      "\u0120Inter": 6663,
      "Scient": 6664,
      "\u0120mixing": 6665,
      "\u0120mitig": 6666,
      "\u0120airplane": 6667,
      "ora": 6668,
      "-D": 6669,
      "\u0120nuts": 6670,
      "\u0120smile": 6671,
      "ias": 6672,
      "\u0120recorded": 6673,
      "\u0120crust": 6674,
      "\u0120cul": 6675,
      "oons": 6676,
      "\u0120facts": 6677,
      "\u0120dense": 6678,
      "enefits": 6679,
      "\u0120lamp": 6680,
      "\u0120branch": 6681,
      "\u0120trade": 6682,
      "\u0120Grand": 6683,
      "Get": 6684,
      "31": 6685,
      "\u0120phosph": 6686,
      "\u0120contam": 6687,
      "uty": 6688,
      "\u0120underlying": 6689,
      "abs": 6690,
      "\u0120determining": 6691,
      "\u0120passeng": 6692,
      "\u0120reward": 6693,
      "\u0120gravel": 6694,
      "\u0120shopping": 6695,
      "\u0120damp": 6696,
      "iances": 6697,
      "\u0120ages": 6698,
      "\u0120weap": 6699,
      "\u0120opinion": 6700,
      "\u0120territ": 6701,
      "\u0120Choose": 6702,
      "\u0120percentage": 6703,
      "\u0120unknown": 6704,
      "rie": 6705,
      "\u0120pets": 6706,
      "Source": 6707,
      "\u0120fur": 6708,
      "\u0120beam": 6709,
      "\u0120tailored": 6710,
      "\u0120utilized": 6711,
      "\u0120apparent": 6712,
      "\u0120competitive": 6713,
      "ingly": 6714,
      "\u0120gradually": 6715,
      "ohol": 6716,
      "\u0120supported": 6717,
      "\u0120explanation": 6718,
      "\u0120Students": 6719,
      "\u0120town": 6720,
      "raction": 6721,
      "-shaped": 6722,
      "\u0120Education": 6723,
      "\u0120Different": 6724,
      "\u0120lighter": 6725,
      "\u0120dogs": 6726,
      "\u0120speech": 6727,
      "\u0120IS": 6728,
      "kins": 6729,
      "\u0120revealed": 6730,
      "\u0120km": 6731,
      "lear": 6732,
      "ittle": 6733,
      "\u0120depos": 6734,
      "\u0120behaviour": 6735,
      "\u0120partner": 6736,
      "\u0120anch": 6737,
      "\u0120pots": 6738,
      "\u0120AN": 6739,
      "\u0120existence": 6740,
      "orms": 6741,
      "\u0120acting": 6742,
      "\u0120neuro": 6743,
      "\u0120description": 6744,
      "\u0120shingles": 6745,
      "zyme": 6746,
      "\u0120onions": 6747,
      "\u0120Right": 6748,
      "\u0120joints": 6749,
      "\u0120equipped": 6750,
      "cohol": 6751,
      "\u0120hang": 6752,
      "\u0120circumst": 6753,
      "\u0120identifying": 6754,
      "\u0120grinding": 6755,
      "\u0120walking": 6756,
      "\u0120remarkable": 6757,
      "\u0120Medical": 6758,
      "\u0120noted": 6759,
      "\u0120quarter": 6760,
      "cience": 6761,
      "otive": 6762,
      "\u0120visibility": 6763,
      "\u0120narrow": 6764,
      "\u0120receiver": 6765,
      "\u0120County": 6766,
      "unning": 6767,
      "\u0120engineers": 6768,
      "reek": 6769,
      "\u0120Sn": 6770,
      "\u0120There's": 6771,
      "\u0120obtained": 6772,
      "\u0120expans": 6773,
      "\u0120dealing": 6774,
      "\u0120por": 6775,
      "\u0120Sub": 6776,
      "\u0120manip": 6777,
      "\u0120accommod": 6778,
      "\u0120German": 6779,
      "\u0120Sciences": 6780,
      "\u0120conscious": 6781,
      "\u0120wonderful": 6782,
      "\u0120Dec": 6783,
      "\u0120cyl": 6784,
      "\u0120Super": 6785,
      "oli": 6786,
      "\u0120robust": 6787,
      "\u0120neighb": 6788,
      "\u0120independent": 6789,
      "\u0120Sum": 6790,
      "\u0120nerv": 6791,
      "DA": 6792,
      "192": 6793,
      "\u0120Washington": 6794,
      "\u0120bowl": 6795,
      "ipation": 6796,
      "\u0120supporting": 6797,
      "\u0120gases": 6798,
      "\u0120mutation": 6799,
      "\u0120Ext": 6800,
      "\u0120hur": 6801,
      "-E": 6802,
      "\u0120bottle": 6803,
      "\u0120plastics": 6804,
      "asive": 6805,
      "\u0120savings": 6806,
      "\u0120coverage": 6807,
      "\u0120surge": 6808,
      "\u0120liter": 6809,
      "FA": 6810,
      "ooked": 6811,
      "\u0120concentration": 6812,
      "\u0120teen": 6813,
      "osal": 6814,
      "\u0120floors": 6815,
      "\u0120ol": 6816,
      "\u0120erupt": 6817,
      "\u0120pocket": 6818,
      "\u0120cellular": 6819,
      "\u0120complement": 6820,
      "uter": 6821,
      "\u0120config": 6822,
      "\u0120predic": 6823,
      "\u0120circuits": 6824,
      "\u0120secondary": 6825,
      "193": 6826,
      "Just": 6827,
      "agine": 6828,
      "\u0120sections": 6829,
      "you": 6830,
      "\u0120driver": 6831,
      "Where": 6832,
      "\u0120infected": 6833,
      "agement": 6834,
      "\u0120equival": 6835,
      "heck": 6836,
      "\u0120adaptation": 6837,
      "\u00e2\u0122\u00a6\u010a\u010a": 6838,
      "terest": 6839,
      "\u0120centuries": 6840,
      "\u0120error": 6841,
      "\u0120+": 6842,
      "\u0120possibilities": 6843,
      "\u0120shaped": 6844,
      "\u0120lik": 6845,
      "\u0120strain": 6846,
      "\u0120fabrics": 6847,
      "\u0120sales": 6848,
      "PA": 6849,
      "\u0120Post": 6850,
      "\u0120park": 6851,
      "edia": 6852,
      "\u0120occasions": 6853,
      "\u0120genetics": 6854,
      "ogether": 6855,
      "Com": 6856,
      "\u0120sch": 6857,
      "arf": 6858,
      "\u0120outdoors": 6859,
      "\u0120Island": 6860,
      "\u0120allerg": 6861,
      "\u0120effectiveness": 6862,
      "\u0120dynamic": 6863,
      "\u0120chop": 6864,
      "\u0120orbit": 6865,
      "\u0120circular": 6866,
      "\u0120harsh": 6867,
      "\u0120Dise": 6868,
      "OL": 6869,
      "Sc": 6870,
      "\u0120paid": 6871,
      "\u0120authors": 6872,
      "\u0120beds": 6873,
      "\u0120aging": 6874,
      "\u0120conflic": 6875,
      "\u0120dough": 6876,
      "\u0120mode": 6877,
      "\u0120Clean": 6878,
      "emic": 6879,
      "\u0120club": 6880,
      "\u0120overw": 6881,
      "\u0120conserv": 6882,
      "coming": 6883,
      "amins": 6884,
      "\u0120breaks": 6885,
      "-A": 6886,
      "\u0120introduction": 6887,
      "\u0120suffer": 6888,
      "ading": 6889,
      "\u0120incorporate": 6890,
      "\u0120exterior": 6891,
      "\u0120Medicine": 6892,
      "\u0120shif": 6893,
      "\u0120cloth": 6894,
      "\u0120Play": 6895,
      "\u0120insurance": 6896,
      "\u0120participants": 6897,
      "\u0120score": 6898,
      "-effective": 6899,
      "\u0120Understanding": 6900,
      "\u0120whereas": 6901,
      "\u0120analog": 6902,
      "\u0120trained": 6903,
      "\u0120extent": 6904,
      "\u0120greatest": 6905,
      "\u0120indicates": 6906,
      "\u0120enables": 6907,
      "itage": 6908,
      "\u0120pipe": 6909,
      "\u0120taught": 6910,
      "zed": 6911,
      "\u0120listed": 6912,
      "\u0120bold": 6913,
      "\u0120Fin": 6914,
      "\u0120Coun": 6915,
      "ado": 6916,
      "\u0120screws": 6917,
      "\u0120vacuum": 6918,
      "\u0120Supp": 6919,
      "band": 6920,
      "\u0120agent": 6921,
      "\u0120platforms": 6922,
      "\u0120foli": 6923,
      "\u0120plus": 6924,
      "\u0120defic": 6925,
      "taining": 6926,
      "olds": 6927,
      "Read": 6928,
      "\u0120falling": 6929,
      "\u0120ink": 6930,
      "\u0120assessment": 6931,
      "\u0120compat": 6932,
      "\u0120feathers": 6933,
      "olf": 6934,
      "\u00f0\u0141": 6935,
      "yard": 6936,
      "\u0120lamps": 6937,
      "Additionally": 6938,
      "\u0120You'll": 6939,
      "ammation": 6940,
      "obal": 6941,
      "oke": 6942,
      "\u0120scientist": 6943,
      "\u0120responsibility": 6944,
      "\u0120essentially": 6945,
      "\u0120largely": 6946,
      "\u0120biod": 6947,
      "\u0120gained": 6948,
      "iate": 6949,
      "oom": 6950,
      "\u0120Tur": 6951,
      "eria": 6952,
      "eramic": 6953,
      "\u0120stars": 6954,
      "CC": 6955,
      "190": 6956,
      "lined": 6957,
      "\u0120House": 6958,
      "\u0120unp": 6959,
      "\u0120limits": 6960,
      "gans": 6961,
      "\u0120Lake": 6962,
      "cher": 6963,
      "\u0120wash": 6964,
      "reedom": 6965,
      "struction": 6966,
      "\u0120receiving": 6967,
      "Does": 6968,
      "\u0120reserv": 6969,
      "gal": 6970,
      "\u0120waiting": 6971,
      "Stud": 6972,
      "\u0120generator": 6973,
      "\u0120False": 6974,
      "\u0120Sand": 6975,
      "\u0120tells": 6976,
      "\u0120LEDs": 6977,
      "\u0120sequences": 6978,
      "\u0120perce": 6979,
      "stract": 6980,
      "\u0120parameters": 6981,
      "\u0120bricks": 6982,
      "ona": 6983,
      "\u0120Will": 6984,
      "\u0120sac": 6985,
      "\u0120turf": 6986,
      "\u0120surprising": 6987,
      "\u0120appeared": 6988,
      "uous": 6989,
      "\u0120Str": 6990,
      "\u0120orange": 6991,
      "bled": 6992,
      "point": 6993,
      "\u0120delicate": 6994,
      "\u0120kilomet": 6995,
      "irty": 6996,
      "\u0120Common": 6997,
      "\u0120ring": 6998,
      "\u0120Western": 6999,
      "-pro": 7000,
      "\u0120loved": 7001,
      "phone": 7002,
      "ixtures": 7003,
      "\u0120planes": 7004,
      "\u0120Ma": 7005,
      "\u0120economy": 7006,
      "\u0120chains": 7007,
      "\u0120transportation": 7008,
      "\u0120Att": 7009,
      "\u0120Blue": 7010,
      "berg": 7011,
      "\u0120clinical": 7012,
      "\u0120gender": 7013,
      "\u0120fing": 7014,
      "\u0120sector": 7015,
      "\u0120Dra": 7016,
      "\u0120steam": 7017,
      "ipal": 7018,
      "\u0120giant": 7019,
      "itan": 7020,
      "\u0120mere": 7021,
      "\u0120*": 7022,
      "\u0120stations": 7023,
      "\u0120satisf": 7024,
      "\u0120strict": 7025,
      "\u0120divided": 7026,
      "\u0120convert": 7027,
      "BC": 7028,
      "rey": 7029,
      "\u0120irrig": 7030,
      "\u0120algorithms": 7031,
      "\u0120sho": 7032,
      "\u0120proof": 7033,
      "\u0120Hol": 7034,
      "\u0120Best": 7035,
      "-P": 7036,
      "\u0120Engineering": 7037,
      "\u0120records": 7038,
      "\u0120Mexico": 7039,
      "\u0120placing": 7040,
      "\u0120bringing": 7041,
      "\u0120correspond": 7042,
      "\u0120Protect": 7043,
      "night": 7044,
      "\u0120letters": 7045,
      "\u0120bare": 7046,
      "Finally": 7047,
      "\u0120enzyme": 7048,
      "isdom": 7049,
      "hishing": 7050,
      "\u0120algorithm": 7051,
      "-con": 7052,
      "\u0120lin": 7053,
      "\u0120tissues": 7054,
      "\u0120comments": 7055,
      "\u0120dimensions": 7056,
      "\u0120Fore": 7057,
      "\u0120follows": 7058,
      "rates": 7059,
      "\u0120neighbor": 7060,
      "\u0120pel": 7061,
      "\u0120doubt": 7062,
      "\u0120Back": 7063,
      "\u0120ske": 7064,
      "box": 7065,
      "\u0120Sat": 7066,
      "\u0120underwater": 7067,
      "32": 7068,
      "\u0120Learning": 7069,
      "\u0120athlet": 7070,
      "\u0120coffee": 7071,
      "\u0120Plants": 7072,
      "\u0120Test": 7073,
      "heet": 7074,
      "\u0120powered": 7075,
      "\u0120AR": 7076,
      "\u0120supports": 7077,
      "\u0120priorit": 7078,
      "\u0120Cam": 7079,
      "while": 7080,
      "\u0120channels": 7081,
      "\u0120conclud": 7082,
      "Inst": 7083,
      "tles": 7084,
      "\u0120collaboration": 7085,
      "normal": 7086,
      "\u0120realistic": 7087,
      "\u0120Association": 7088,
      "\u0120profile": 7089,
      "\u0120Ant": 7090,
      "\u0120oppon": 7091,
      "tuce": 7092,
      "FL": 7093,
      "links": 7094,
      "\u0120hardware": 7095,
      "BS": 7096,
      "\u0120width": 7097,
      "\u0120Material": 7098,
      "\u0120decade": 7099,
      "\u0120Italian": 7100,
      "entle": 7101,
      "\u0120horm": 7102,
      "\u0120Furthermore": 7103,
      "180": 7104,
      "\u0120horizontal": 7105,
      "\u0120peppers": 7106,
      "\u0120tops": 7107,
      "\u0120flash": 7108,
      "ker": 7109,
      "\u0120Those": 7110,
      "\u0120beach": 7111,
      "Make": 7112,
      "\u0120Net": 7113,
      "\u0120absolutely": 7114,
      "\u0120boat": 7115,
      "\u0120Moreover": 7116,
      "\u0120mac": 7117,
      "\u0120exhibit": 7118,
      "ressing": 7119,
      "iotic": 7120,
      "\u0120managed": 7121,
      "'.": 7122,
      "ovoltaic": 7123,
      "\u0120pairs": 7124,
      "comes": 7125,
      "\u0120Dig": 7126,
      "\u0120veter": 7127,
      "\u0120nail": 7128,
      "\u0120litter": 7129,
      "\u0120arms": 7130,
      "\u0120composed": 7131,
      "\u0120disappe": 7132,
      "\u0120sitting": 7133,
      "\u0120wra": 7134,
      "Well": 7135,
      "\u0120cake": 7136,
      "abit": 7137,
      "\u00c2\u00b0C": 7138,
      "eling": 7139,
      "\u0120comparison": 7140,
      "\u0120costly": 7141,
      "\u0120appliances": 7142,
      "\u0120females": 7143,
      "\u0120tile": 7144,
      "\u0120Academy": 7145,
      "on's": 7146,
      "\u0120Oh": 7147,
      "\u0120ads": 7148,
      ".'": 7149,
      "65": 7150,
      "\u0120Only": 7151,
      "\u0120arrange": 7152,
      "\u0120vel": 7153,
      "\u0120demonstrate": 7154,
      "acts": 7155,
      "isticated": 7156,
      ";\u010a": 7157,
      "\u0120gal": 7158,
      "\u0120race": 7159,
      "\u0120refrig": 7160,
      "\u0120insight": 7161,
      "\u0120willing": 7162,
      "\u0120jet": 7163,
      "\u0120soils": 7164,
      "\u0120fence": 7165,
      "\u0120speeds": 7166,
      "\u0120download": 7167,
      "\u0120directions": 7168,
      "\u0120implications": 7169,
      "\u0120Texas": 7170,
      "\u0120gums": 7171,
      "\u0120mammals": 7172,
      "\u0120dissol": 7173,
      "\u0120injuries": 7174,
      "\u0120David": 7175,
      "Of": 7176,
      "\u0120phil": 7177,
      "\u0120assembly": 7178,
      "\u0120gardens": 7179,
      "print": 7180,
      "adian": 7181,
      "\u0120Try": 7182,
      "\u0120encounter": 7183,
      "\u0120rays": 7184,
      "ifier": 7185,
      "\u0120split": 7186,
      "\u0120tanks": 7187,
      "\u0120initially": 7188,
      "\u0120micros": 7189,
      "wing": 7190,
      "\u0120political": 7191,
      "\u0120of\u0120the": 7192,
      "\u0120in\u0120the": 7193,
      "\u0120to\u0120the": 7194,
      "\u0120on\u0120the": 7195,
      "\u0120is\u0120a": 7196,
      "\u0120is\u0120the": 7197,
      "\u0120can\u0120be": 7198,
      "\u0120and\u0120the": 7199,
      "\u0120to\u0120be": 7200,
      "\u0120in\u0120a": 7201,
      "\u0120for\u0120the": 7202,
      "\u0120of\u0120a": 7203,
      "\u0120from\u0120the": 7204,
      "\u0120such\u0120as": 7205,
      "\u0120with\u0120the": 7206,
      "\u0120it\u0120is": 7207,
      "\u0120with\u0120a": 7208,
      "\u0120at\u0120the": 7209,
      "\u0120as\u0120a": 7210,
      "\u0120you\u0120can": 7211,
      "\u0120that\u0120the": 7212,
      "\u0120for\u0120a": 7213,
      "\u0120to\u0120a": 7214,
      "\u0120by\u0120the": 7215,
      "\u0120have\u0120a": 7216,
      "\u0120will\u0120be": 7217,
      "\u0120they\u0120are": 7218,
      "\u0120What\u0120is\u0120the": 7219,
      "\u0120of\u0120your": 7220,
      "\u0120into\u0120the": 7221,
      "\u0120need\u0120to": 7222,
      "\u0120and\u0120a": 7223,
      "\u0120to\u0120make": 7224,
      "\u0120as\u0120the": 7225,
      "\u0120on\u0120a": 7226,
      "\u0120as\u0120well": 7227,
      "\u0120if\u0120you": 7228,
      "\u0120that\u0120is": 7229,
      "\u0120It\u0120is": 7230,
      "\u0120should\u0120be": 7231,
      "\u0120has\u0120been": 7232,
      "\u0120used\u0120to": 7233,
      "\u0120type\u0120of": 7234,
      "\u0120there\u0120are": 7235,
      "\u0120that\u0120are": 7236,
      "\u0120have\u0120been": 7237,
      "\u0120may\u0120be": 7238,
      "\u0120is\u0120not": 7239,
      "\u0120in\u0120your": 7240,
      "\u0120want\u0120to": 7241,
      "\u0120are\u0120the": 7242,
      "\u0120one\u0120of\u0120the": 7243,
      "\u0120and\u0120other": 7244,
      "\u0120able\u0120to": 7245,
      "\u0120about\u0120the": 7246,
      "\u0120you\u0120are": 7247,
      "\u0120is\u0120an": 7248,
      "\u0120to\u0120your": 7249,
      "\u0120types\u0120of": 7250,
      "\u0120way\u0120to": 7251,
      "\u0120is\u0120to": 7252,
      "\u0120for\u0120your": 7253,
      "\u0120of\u0120these": 7254,
      "\u0120how\u0120to": 7255,
      "\u0120of\u0120this": 7256,
      "\u0120more\u0120than": 7257,
      "\u0120has\u0120a": 7258,
      "\u0120the\u0120same": 7259,
      "\u0120number\u0120of": 7260,
      "\u0120can\u0120also": 7261,
      "\u0120important\u0120to": 7262,
      "\u0120you\u0120have": 7263,
      "\u0120all\u0120the": 7264,
      "\u0120through\u0120the": 7265,
      "\u0120a\u0120few": 7266,
      "\u0120which\u0120is": 7267,
      "\u0120to\u0120get": 7268,
      "\u0120during\u0120the": 7269,
      "\u0120of\u0120their": 7270,
      "\u0120a\u0120lot": 7271,
      "\u0120due\u0120to": 7272,
      "\u0120would\u0120be": 7273,
      "\u0120from\u0120a": 7274,
      "\u0120as\u0120well\u0120as": 7275,
      "\u0120do\u0120not": 7276,
      "\u0120used\u0120in": 7277,
      "\u0120to\u0120do": 7278,
      "\u0120on\u0120your": 7279,
      "\u0120amount\u0120of": 7280,
      "\u0120over\u0120the": 7281,
      "\u0120is\u0120that": 7282,
      "\u0120If\u0120you": 7283,
      "\u0120or\u0120a": 7284,
      "\u0120around\u0120the": 7285,
      "\u0120it\u0120was": 7286,
      "\u0120can\u0120help": 7287,
      "\u0120that\u0120you": 7288,
      "\u0120at\u0120a": 7289,
      "\u0120to\u0120use": 7290,
      "\u0120the\u0120most": 7291,
      "\u0120in\u0120this": 7292,
      "\u0120variety\u0120of": 7293,
      "\u0120in\u0120their": 7294,
      "\u0120to\u0120ensure": 7295,
      "\u0120does\u0120not": 7296,
      "\u0120and\u0120then": 7297,
      "\u0120to\u0120keep": 7298,
      "\u0120They\u0120are": 7299,
      "\u0120This\u0120is": 7300,
      "\u0120by\u0120a": 7301,
      "\u0120to\u0120help": 7302,
      "\u0120up\u0120to": 7303,
      "\u0120when\u0120the": 7304,
      "\u0120could\u0120be": 7305,
      "\u0120that\u0120can": 7306,
      "\u0120between\u0120the": 7307,
      "\u0120are\u0120not": 7308,
      "\u0120to\u0120create": 7309,
      "\u0120used\u0120for": 7310,
      "\u0120of\u0120an": 7311,
      "\u0120there\u0120is": 7312,
      "\u0120into\u0120a": 7313,
      "\u0120was\u0120the": 7314,
      "\u0120the\u0120right": 7315,
      "\u0120are\u0120some": 7316,
      "\u0120have\u0120to": 7317,
      "\u0120at\u0120least": 7318,
      "\u0120range\u0120of": 7319,
      "\u0120and\u0120is": 7320,
      "\u0120You\u0120can": 7321,
      "\u0120are\u0120a": 7322,
      "\u0120climate\u0120change": 7323,
      "\u0120you\u0120to": 7324,
      "\u0120use\u0120of": 7325,
      "\u0120if\u0120the": 7326,
      "\u0120like\u0120a": 7327,
      "\u0120time\u0120to": 7328,
      "\u0120is\u0120also": 7329,
      "\u0120that\u0120they": 7330,
      "\u0120them\u0120to": 7331,
      "\u0120the\u0120best": 7332,
      "\u0120the\u0120first": 7333,
      "\u0120to\u0120see": 7334,
      "\u0120part\u0120of\u0120the": 7335,
      "\u0120a\u0120lot\u0120of": 7336,
      "\u0120lead\u0120to": 7337,
      "\u0120not\u0120be": 7338,
      "\u0120known\u0120as": 7339,
      "\u0120There\u0120are": 7340,
      "\u0120you\u0120will": 7341,
      "\u0120to\u0120have": 7342,
      "\u0120in\u0120an": 7343,
      "\u0120for\u0120their": 7344,
      "\u0120kind\u0120of": 7345,
      "\u0120and\u0120more": 7346,
      "\u0120not\u0120only": 7347,
      "\u0120must\u0120be": 7348,
      "\u0120with\u0120your": 7349,
      "\u0120ability\u0120to": 7350,
      "\u0120but\u0120also": 7351,
      "\u0120of\u0120our": 7352,
      "\u0120it\u0120comes": 7353,
      "\u0120In\u0120the": 7354,
      "\u0120where\u0120the": 7355,
      "\u0120using\u0120a": 7356,
      "\u0120was\u0120a": 7357,
      "\u0120as\u0120it": 7358,
      "\u0120to\u0120prevent": 7359,
      "\u0120to\u0120their": 7360,
      "\u0120as\u0120they": 7361,
      "\u0120and\u0120are": 7362,
      "\u0120in\u0120order": 7363,
      "\u0120What\u0120is": 7364,
      "\u0120a\u0120good": 7365,
      "\u0120to\u0120find": 7366,
      "\u0120out\u0120of": 7367,
      "\u0120we\u0120can": 7368,
      "\u0120than\u0120the": 7369,
      "\u0120and\u0120it": 7370,
      "\u0120For\u0120example": 7371,
      "\u0120a\u0120new": 7372,
      "There\u0120are": 7373,
      "\u0120that\u0120it": 7374,
      "\u0120within\u0120the": 7375,
      "\u0120In\u0120this": 7376,
      "\u0120but\u0120the": 7377,
      "If\u0120you": 7378,
      "\u0120might\u0120be": 7379,
      "\u0120they\u0120can": 7380,
      "\u0120when\u0120you": 7381,
      "\u0120in\u0120which": 7382,
      "\u0120will\u0120help": 7383,
      "\u0120University\u0120of": 7384,
      "\u0120on\u0120their": 7385,
      "\u0120but\u0120it": 7386,
      "\u0120of\u0120its": 7387,
      "\u0120going\u0120to": 7388,
      "\u0120and\u0120their": 7389,
      "\u0120it\u0120comes\u0120to": 7390,
      "\u0120and\u0120how": 7391,
      "\u0120as\u0120an": 7392,
      "\u0120you\u0120should": 7393,
      "\u0120which\u0120are": 7394,
      "\u0120easy\u0120to": 7395,
      "In\u0120the": 7396,
      "\u0120have\u0120the": 7397,
      "\u0120or\u0120the": 7398,
      "\u0120of\u0120them": 7399,
      "\u0120making\u0120it": 7400,
      "\u0120a\u0120little": 7401,
      "\u0120to\u0120take": 7402,
      "\u0120risk\u0120of": 7403,
      "\u0120with\u0120an": 7404,
      "\u0120that\u0120can\u0120be": 7405,
      "\u0120make\u0120sure": 7406,
      "\u0120and\u0120I": 7407,
      "\u0120like\u0120the": 7408,
      "\u0120use\u0120a": 7409,
      "\u0120of\u0120all": 7410,
      "\u0120that\u0120your": 7411,
      "\u0120do\u0120you": 7412,
      "\u0120role\u0120in": 7413,
      "\u0120and\u0120can": 7414,
      "\u0120of\u0120water": 7415,
      "\u0120and\u0120even": 7416,
      "\u0120this\u0120is": 7417,
      "\u0120that\u0120we": 7418,
      "\u0120found\u0120in": 7419,
      "\u0120based\u0120on": 7420,
      "\u0120that\u0120will": 7421,
      "\u0120it\u0120to": 7422,
      "\u0120you\u0120need\u0120to": 7423,
      "\u0120designed\u0120to": 7424,
      "\u0120that\u0120a": 7425,
      "\u0120some\u0120of\u0120the": 7426,
      "\u0120up\u0120the": 7427,
      "\u0120across\u0120the": 7428,
      "\u0120are\u0120also": 7429,
      "\u0120need\u0120to\u0120be": 7430,
      "\u0120in\u0120our": 7431,
      "\u0120throughout\u0120the": 7432,
      "\u0120out\u0120the": 7433,
      "\u0120U.S": 7434,
      "\u0120and\u0120they": 7435,
      "\u0120associated\u0120with": 7436,
      "\u0120or\u0120other": 7437,
      "\u0120each\u0120other": 7438,
      "\u0120United\u0120States": 7439,
      "\u0120can\u0120cause": 7440,
      "\u0120off\u0120the": 7441,
      "\u0120form\u0120of": 7442,
      "\u0120the\u0120other": 7443,
      "\u0120to\u0120avoid": 7444,
      "\u0120and\u0120its": 7445,
      "\u0120you\u0120may": 7446,
      "\u0120for\u0120this": 7447,
      "\u0120with\u0120their": 7448,
      "\u0120If\u0120the": 7449,
      "\u0120create\u0120a": 7450,
      "\u0120for\u0120you": 7451,
      "\u0120or\u0120even": 7452,
      "\u0120provide\u0120a": 7453,
      "\u0120rather\u0120than": 7454,
      "\u0120we\u0120will": 7455,
      "\u0120we\u0120are": 7456,
      "\u0120I\u0120have": 7457,
      "\u0120part\u0120of": 7458,
      "\u0120years\u0120ago": 7459,
      "\u0120make\u0120it": 7460,
      "\u0120made\u0120of": 7461,
      "\u0120after\u0120the": 7462,
      "\u0120can\u0120be\u0120a": 7463,
      "\u0120in\u0120order\u0120to": 7464,
      "\u0120does\u0120the": 7465,
      "\u0120process\u0120of": 7466,
      "\u0120over\u0120time": 7467,
      "\u0120I\u0120was": 7468,
      "\u0120to\u0120grow": 7469,
      "\u0120solar\u0120panels": 7470,
      "\u0120it\u0120will": 7471,
      "\u0120for\u0120example": 7472,
      "\u0120and\u0120also": 7473,
      "\u0120it\u0120can": 7474,
      "\u0120we\u0120have": 7475,
      "\u0120there\u0120is\u0120a": 7476,
      "\u0120using\u0120the": 7477,
      "\u0120because\u0120the": 7478,
      "\u0120one\u0120of\u0120the\u0120most": 7479,
      "\u0120which\u0120can": 7480,
      "\u0120can\u0120also\u0120be": 7481,
      "\u0120due\u0120to\u0120the": 7482,
      "\u0120under\u0120the": 7483,
      "How\u0120to": 7484,
      "\u0120compared\u0120to": 7485,
      "\u0120reduce\u0120the": 7486,
      "\u0120made\u0120from": 7487,
      "It\u0120is": 7488,
      "\u0120trying\u0120to": 7489,
      "\u0120and\u0120to": 7490,
      "\u0120sense\u0120of": 7491,
      "\u0120along\u0120the": 7492,
      "\u0120to\u0120this": 7493,
      "\u0120when\u0120they": 7494,
      "\u0120of\u0120the\u0120following": 7495,
      "\u0120at\u0120all": 7496,
      "\u0120you\u0120know": 7497,
      "\u0120suitable\u0120for": 7498,
      "\u0120In\u0120addition": 7499,
      "\u0120instead\u0120of": 7500,
      "\u0120according\u0120to\u0120the": 7501,
      "\u0120time\u0120and": 7502,
      "\u0120out\u0120of\u0120the": 7503,
      "\u0120make\u0120a": 7504,
      "\u0120to\u0120protect": 7505,
      "\u0120high-quality": 7506,
      "\u0120so\u0120that": 7507,
      "\u0120level\u0120of": 7508,
      "\u0120for\u0120its": 7509,
      "\u0120understand\u0120the": 7510,
      "\u0120for\u0120an": 7511,
      "\u0120they\u0120have": 7512,
      "\u0120I\u0120am": 7513,
      "\u0120and\u0120in": 7514,
      "\u0120had\u0120a": 7515,
      "\u0120in\u0120the\u0120world": 7516,
      "\u0120use\u0120the": 7517,
      "\u0120as\u0120possible": 7518,
      "\u0120enough\u0120to": 7519,
      "\u0120look\u0120at": 7520,
      "\u0120one\u0120of": 7521,
      "\u0120their\u0120own": 7522,
      "\u0120piece\u0120of": 7523,
      "What\u0120is": 7524,
      "\u0120to\u0120an": 7525,
      "\u0120I\u0120think": 7526,
      "\u0120in\u0120mind": 7527,
      "\u0120what\u0120is": 7528,
      "\u0120too\u0120much": 7529,
      "\u0120a\u0120small": 7530,
      "\u0120to\u0120learn": 7531,
      "\u0120a\u0120bit": 7532,
      "\u0120the\u0120water": 7533,
      "\u0120makes\u0120it": 7534,
      "\u0120how\u0120the": 7535,
      "\u0120should\u0120you": 7536,
      "\u0120for\u0120any": 7537,
      "\u0120likely\u0120to": 7538,
      "\u0120most\u0120common": 7539,
      "\u0120as\u0120you": 7540,
      "\u0120such\u0120a": 7541,
      "\u0120people\u0120who": 7542,
      "One\u0120of\u0120the": 7543,
      "\u0120to\u0120wear": 7544,
      "\u0120to\u0120work": 7545,
      "\u0120down\u0120the": 7546,
      "\u0120of\u0120time": 7547,
      "\u0120and\u0120not": 7548,
      "\u0120are\u0120often": 7549,
      "\u0120and\u0120that": 7550,
      "\u0120to\u0120be\u0120a": 7551,
      "\u0120because\u0120it": 7552,
      "\u0120through\u0120a": 7553,
      "\u0120such\u0120as\u0120the": 7554,
      "\u0120difficult\u0120to": 7555,
      "\u0120difference\u0120between": 7556,
      "\u0120it's\u0120a": 7557,
      "\u0120caused\u0120by": 7558,
      "\u0120if\u0120they": 7559,
      "\u0120end\u0120of\u0120the": 7560,
      "\u0120and\u0120your": 7561,
      "\u0120with\u0120other": 7562,
      "\u0120depending\u0120on\u0120the": 7563,
      "\u0120source\u0120of": 7564,
      "\u0120as\u0120much": 7565,
      "\u0120is\u0120essential": 7566,
      "\u0120much\u0120more": 7567,
      "\u0120to\u0120go": 7568,
      "\u0120to\u0120provide": 7569,
      "\u0120Which\u0120of\u0120the\u0120following": 7570,
      "\u0120to\u0120consider": 7571,
      "\u0120before\u0120the": 7572,
      "\u0120on\u0120this": 7573,
      "\u0120I\u0120don't": 7574,
      "\u0120is\u0120often": 7575,
      "\u0120your\u0120own": 7576,
      "\u0120may\u0120have": 7577,
      "\u0120or\u0120more": 7578,
      "\u0120will\u0120also": 7579,
      "\u0120that\u0120has": 7580,
      "\u0120of\u0120it": 7581,
      "\u0120because\u0120they": 7582,
      "\u0120and\u0120water": 7583,
      "\u0120according\u0120to": 7584,
      "\u0120how\u0120much": 7585,
      "\u0120is\u0120very": 7586,
      "\u0120your\u0120home": 7587,
      "\u0120As\u0120a": 7588,
      "\u0120different\u0120types\u0120of": 7589,
      "\u0120those\u0120who": 7590,
      "\u0120making\u0120them": 7591,
      "\u0120choice\u0120for": 7592,
      "\u0120that\u0120have": 7593,
      "\u0120importance\u0120of": 7594,
      "\u0120wide\u0120range\u0120of": 7595,
      "\u0120a\u0120more": 7596,
      "\u0120What\u0120are\u0120the": 7597,
      "\u0120in\u0120its": 7598,
      "\u0120terms\u0120of": 7599,
      "\u0120in\u0120place": 7600,
      "\u0120but\u0120not": 7601,
      "\u0120but\u0120they": 7602,
      "\u0120is\u0120more": 7603,
      "\u0120ways\u0120to": 7604,
      "\u0120take\u0120a": 7605,
      "\u0120in\u0120some": 7606,
      "\u0120it's\u0120important\u0120to": 7607,
      "\u0120set\u0120of": 7608,
      "\u0120or\u0120not": 7609,
      "\u0120just\u0120a": 7610,
      "\u0120less\u0120than": 7611,
      "\u0120the\u0120soil": 7612,
      "\u0120in\u0120many": 7613,
      "\u0120to\u0120its": 7614,
      "\u0120become\u0120a": 7615,
      "\u0120and\u0120can\u0120be": 7616,
      "\u0120and\u0120what": 7617,
      "\u0120are\u0120more": 7618,
      "\u0120a\u0120great": 7619,
      "\u0120of\u0120any": 7620,
      "\u0120is\u0120crucial": 7621,
      "\u0120need\u0120for": 7622,
      "\u0120to\u0120create\u0120a": 7623,
      "\u0120benefits\u0120of": 7624,
      "\u0120in\u0120the\u0120text": 7625,
      "\u0120It\u0120was": 7626,
      "\u0120and\u0120will": 7627,
      "\u0120it's\u0120not": 7628,
      "\u0120if\u0120you're": 7629,
      "\u0120try\u0120to": 7630,
      "\u0120of\u0120life": 7631,
      "\u0120while\u0120the": 7632,
      "\u0120play\u0120a": 7633,
      "\u0120may\u0120also": 7634,
      "\u0120lot\u0120of": 7635,
      "\u0120away\u0120from": 7636,
      "\u0120there\u0120is\u0120no": 7637,
      "\u0120to\u0120improve": 7638,
      "\u0120in\u0120various": 7639,
      "\u0120to\u0120maintain": 7640,
      "\u0120it\u0120is\u0120important\u0120to": 7641,
      "\u0120that\u0120this": 7642,
      "\u0120and\u0120have": 7643,
      "\u0120your\u0120cat": 7644,
      "\u0120to\u0120produce": 7645,
      "\u0120I\u0120can": 7646,
      "\u0120in\u0120my": 7647,
      "\u0120your\u0120child": 7648,
      "\u0120creating\u0120a": 7649,
      "\u0120any\u0120other": 7650,
      "\u0120can\u0120lead\u0120to": 7651,
      "\u0120has\u0120the": 7652,
      "\u0120What\u0120was\u0120the": 7653,
      "You\u0120can": 7654,
      "\u0120world\u0120of": 7655,
      "\u0120long-term": 7656,
      "\u0120pH": 7657,
      "\u0120What\u0120are\u0120some": 7658,
      "\u0120up\u0120and": 7659,
      "\u0120did\u0120not": 7660,
      "\u0120the\u0120way": 7661,
      "\u0120increase\u0120the": 7662,
      "What\u0120is\u0120the": 7663,
      "\u0120sure\u0120to": 7664,
      "\u0120of\u0120each": 7665,
      "\u0120like\u0120to": 7666,
      "\u0120water\u0120and": 7667,
      "\u0120found\u0120that": 7668,
      "\u0120gluten-free": 7669,
      "\u0120into\u0120your": 7670,
      "\u0120thousands\u0120of": 7671,
      "\u0120lack\u0120of": 7672,
      "\u0120it\u0120can\u0120be": 7673,
      "\u0120what\u0120you": 7674,
      "\u0120until\u0120the": 7675,
      "\u0120and\u0120you": 7676,
      "\u0120may\u0120not": 7677,
      "\u0120It\u0120is\u0120a": 7678,
      "\u0120over\u0120a": 7679,
      "\u0120inside\u0120the": 7680,
      "\u0120and\u0120his": 7681,
      "\u0120to\u0120remove": 7682,
      "\u0120to\u0120determine": 7683,
      "\u0120make\u0120the": 7684,
      "\u0120species\u0120of": 7685,
      "\u0120based\u0120on\u0120the": 7686,
      "\u0120they\u0120were": 7687,
      "\u0120is\u0120NOT": 7688,
      "\u0120to\u0120give": 7689,
      "\u0120kinds\u0120of": 7690,
      "\u0120the\u0120surface": 7691,
      "\u0120and\u0120so": 7692,
      "\u0120and\u0120an": 7693,
      "\u0120that\u0120was": 7694,
      "\u0120to\u0120our": 7695,
      "\u0120they\u0120will": 7696,
      "\u0120when\u0120it\u0120comes\u0120to": 7697,
      "\u0120it\u0120has": 7698,
      "\u0120development\u0120of": 7699,
      "\u0120lots\u0120of": 7700,
      "\u0120for\u0120all": 7701,
      "\u0120focus\u0120on": 7702,
      "\u0120plenty\u0120of": 7703,
      "\u0120group\u0120of": 7704,
      "\u0120with\u0120this": 7705,
      "\u0120and\u0120some": 7706,
      "th\u0120century": 7707,
      "\u0120is\u0120no": 7708,
      "\u0120need\u0120a": 7709,
      "\u0120used\u0120in\u0120the": 7710,
      "\u0120against\u0120the": 7711,
      "\u0120of\u0120his": 7712,
      "\u0120to\u0120come": 7713,
      "\u0120levels\u0120of": 7714,
      "\u0120of\u0120what": 7715,
      "\u0120looking\u0120for": 7716,
      "\u0120its\u0120own": 7717,
      "\u0120How\u0120many": 7718,
      "\u0120including\u0120the": 7719,
      "\u0120In\u0120fact": 7720,
      "\u0120at\u0120home": 7721,
      "\u0120to\u0120make\u0120sure": 7722,
      "\u0120it\u0120is\u0120not": 7723,
      "\u0120in\u0120terms\u0120of": 7724,
      "\u0120signs\u0120of": 7725,
      "\u0120from\u0120your": 7726,
      "\u0120that\u0120could": 7727,
      "\u0120so\u0120much": 7728,
      "\u0120having\u0120a": 7729,
      "\u0120around\u0120the\u0120world": 7730,
      "\u0120needs\u0120to\u0120be": 7731,
      "\u0120had\u0120been": 7732,
      "\u0120an\u0120important": 7733,
      "\u0120not\u0120to": 7734,
[...]
