{"version": "1.0", "truncation": null, "padding": null, "added_tokens": [{"id": 7992, "content": "<|endoftext|>", "single_word": false, "lstrip": false, "rstrip": false, "normalized": false, "special": true}, {"id": 7993, "content": "<think>", "single_word": false, "lstrip": false, "rstrip": false, "normalized": false, "special": true}, {"id": 7994, "content": "</think>", "single_word": false, "lstrip": false, "rstrip": false, "normalized": false, "special": true}, {"id": 7995, "content": "<answer>", "single_word": false, "lstrip": false, "rstrip": false, "normalized": false, "special": true}, {"id": 7996, "content": "<|reserved_0|>", "single_word": false, "lstrip": false, "rstrip": false, "normalized": false, "special": true}, {"id": 7997, "content": "<|reserved_1|>", "single_word": false, "lstrip": false, "rstrip": false, "normalized": false, "special": true}, {"id": 7998, "content": "<|reserved_2|>", "single_word": false, "lstrip": false, "rstrip": false, "normalized": false, "special": true}, {"id": 7999, "content": "<|reserved_3|>", "single_word": false, "lstrip": false, "rstrip": false, "normalized": false, "special": true}], "normalizer": null, "pre_tokenizer": {"type": "Sequence", "pretokenizers": [{"type": "Digits", "individual_digits": false}, {"type": "Split", "pattern": {"Regex": "(?=(\\d{3})+(?!\\d))"}, "behavior": "Isolated", "invert": false}, {"type": "ByteLevel", "add_prefix_space": false, "trim_offsets": true, "use_regex": false}]}, "post_processor": null, "decoder": {"type": "ByteLevel", "add_prefix_space": true, "trim_offsets": true, "use_regex": true}, "model": {"type": "BPE", "dropout": null, "unk_token": null, "continuing_subword_prefix": null, "end_of_word_suffix": null, "fuse_unk": false, "byte_fallback": false, "ignore_merges": false, "vocab": {"Ā": 0, "ā": 1, "Ă": 2, "ă": 3, "Ą": 4, "ą": 5, "Ć": 6, "ć": 7, "Ĉ": 8, "ĉ": 9, "Ċ": 10, "ċ": 11, "Č": 12, "č": 13, "Ď": 14, "ď": 15, "Đ": 16, "đ": 17, "Ē": 18, "ē": 19, "Ĕ": 20, "ĕ": 21, "Ė": 22, "ė": 23, "Ę": 24, "ę": 25, "Ě": 26, "ě": 27, "Ĝ": 28, "ĝ": 29, "Ğ": 30, "ğ": 31, "Ġ": 32, "!": 33, "\"": 34, "#": 35, "$": 36, "%": 37, "&": 38, "'": 39, "(": 40, ")": 41, "*": 42, "+": 43, ",": 44, "-": 45, ".": 46, "/": 47, "0": 48, "1": 49, "2": 50, "3": 51, "4": 52, "5": 53, "6": 54, "7": 55, "8": 56, "9": 57, ":": 58, ";": 59, "<": 60, "=": 61, ">": 62, "?": 63, "@": 64, "A": 65, "B": 66, "C": 67, "D": 68, "E": 69, "F": 70, "G": 71, "H": 72, "I": 73, "J": 74, "K": 75, "L": 76, "M": 77, "N": 78, "O": 79, "P": 80, "Q": 81, "R": 82, "S": 83, "T": 84, "U": 85, "V": 86, "W": 87, "X": 88, "Y": 89, "Z": 90, "[": 91, "\\": 92, "]": 93, "^": 94, "_": 95, "`": 96, "a": 97, "b": 98, "c": 99, "d": 100, "e": 101, "f": 102, "g": 103, "h": 104, "i": 105, "j": 106, "k": 107, "l": 108, "m": 109, "n": 110, "o": 111, "p": 112, "q": 113, "r": 114, "s": 115, "t": 116, "u": 117, "v": 118, "w": 119, "x": 120, "y": 121, "z": 122, "{": 123, "|": 124, "}": 125, "~": 126, "ġ": 127, "Ģ": 128, "ģ": 129, "Ĥ": 130, "ĥ": 131, "Ħ": 132, "ħ": 133, "Ĩ": 134, "ĩ": 135, "Ī": 136, "ī": 137, "Ĭ": 138, "ĭ": 139, "Į": 140, "į": 141, "İ": 142, "ı": 143, "Ĳ": 144, "ĳ": 145, "Ĵ": 146, "ĵ": 147, "Ķ": 148, "ķ": 149, "ĸ": 150, "Ĺ": 151, "ĺ": 152, "Ļ": 153, "ļ": 154, "Ľ": 155, "ľ": 156, "Ŀ": 157, "ŀ": 158, "Ł": 159, "ł": 160, "¡": 161, "¢": 162, "£": 163, "¤": 164, "¥": 165, "¦": 166, "§": 167, "¨": 168, "©": 169, "ª": 170, "«": 171, "¬": 172, "Ń": 173, "®": 174, "¯": 175, "°": 176, "±": 177, "²": 178, "³": 179, "´": 180, "µ": 181, "¶": 182, "·": 183, "¸": 184, "¹": 185, "º": 186, "»": 187, "¼": 188, "½": 189, "¾": 190, "¿": 191, "Â": 192, "Ã": 193, "Ä": 194, "Å": 195, "Æ": 196, "Ç": 197, "È": 198, "É": 199, "Ê": 200, "Ë": 201, "Ì": 202, "Í": 203, "Î": 204, "Ï": 205, "Ð": 206, "Ñ": 207, "Ò": 208, "Ó": 209, "Ô": 210, "Õ": 211, "Ö": 212, "×": 213, "Ø": 214, "Ù": 215, "Ú": 216, "Û": 217, "Ü": 218, "Ý": 219, "Þ": 220, "ß": 221, "à": 222, "á": 223, "â": 224, "ã": 225, "ä": 226, "å": 227, "æ": 228, "ç": 229, "è": 230, "é": 231, "ê": 232, "ë": 233, "ì": 234, "í": 235, "î": 236, "ï": 237, "ð": 238, "ñ": 239, "ò": 240, "ó": 241, "ô": 242, "Ġt": 243, "Ġa": 244, "in": 245, "he": 246, "re": 247, "on": 248, "Ġthe": 249, "Ġs": 250, "er": 251, "at": 252, "Ġc": 253, "Ġo": 254, "en": 255, "es": 256, "Ġw": 257, "an": 258, "it": 259, "is": 260, "ing": 261, "Ġp": 262, "or": 263, "Ġf": 264, "Ġan": 265, "Ġb": 266, "al": 267, "ou": 268, "Ġm": 269, "ed": 270, "Ġto": 271, "Ġof": 272, "ar": 273, "Ġin": 274, "Ġand": 275, "Ġd": 276, "ion": 277, "ic": 278, "le": 279, "ro": 280, "as": 281, "Ġth": 282, "ct": 283, "Ġh": 284, "Ġe": 285, "ent": 286, "Ġl": 287, "il": 288, "Ġre": 289, "om": 290, "Ġis": 291, "ve": 292, "us": 293, ".Ċ": 294, "et": 295, "Ġg": 296, "ly": 297, "Ġn": 298, "Ġy": 299, "ow": 300, "ut": 301, "im": 302, "ol": 303, "ĠT": 304, "Ġbe": 305, "Ġyou": 306, "st": 307, "ce": 308, "id": 309, "ig": 310, "ot": 311, "Ġfor": 312, "ra": 313, "ch": 314, "ation": 315, "Ġst": 316, "ĠA": 317, "ur": 318, "Ġon": 319, "Ġthat": 320, "ir": 321, "ĠI": 322, "el": 323, "ver": 324, "Ġare": 325, "ul": 326, "Ġit": 327, "ith": 328, "Ġpro": 329, "ay": 330, "un": 331, "if": 332, "ĠS": 333, "Ġcon": 334, "se": 335, "Ġwith": 336, "Ġor": 337, "Ġas": 338, "am": 339, ".ĊĊ": 340, "Ġal": 341, "her": 342, "ĊĊ": 343, "ĠC": 344, "ad": 345, "est": 346, "od": 347, "Ġcan": 348, "ter": 349, "ge": 350, "qu": 351, "ure": 352, "ate": 353, "ĠThe": 354, "ke": 355, "Ġwh": 356, "Ġcom": 357, "um": 358, "ant": 359, "ess": 360, "ill": 361, "pe": 362, "igh": 363, "ab": 364, "Ġus": 365, "Ġex": 366, "ore": 367, "ĠW": 368, "ers": 369, "Ġv": 370, "ity": 371, "ment": 372, "Ġwe": 373, "ive": 374, "Ġse": 375, "Ġ(": 376, "ist": 377, "Ġde": 378, "Ġha": 379, "ĠP": 380, "rom": 381, "th": 382, "os": 383, "Ġyour": 384, "ac": 385, "Ġhe": 386, "ain": 387, "'s": 388, "ies": 389, "and": 390, "ĠM": 391, "pp": 392, "Ġch": 393, "ial": 394, "Ġen": 395, "ect": 396, "ld": 397, "Ġsh": 398, "oun": 399, "Ġne": 400, "Ġr": 401, "ĠB": 402, "Ġat": 403, "ight": 404, "em": 405, "Ġsu": 406, "op": 407, "Ġfrom": 408, "Ġpl": 409, "ĠD": 410, "ren": 411, "all": 412, "ort": 413, "Ġhave": 414, "iv": 415, "res": 416, "Ġby": 417, "ĠH": 418, "per": 419, "Ġle": 420, "âĢ": 421, "ĠF": 422, "ical": 423, "ome": 424, "Ġnot": 425, "oc": 426, "Ġun": 427, "ust": 428, "Ġthis": 429, "ide": 430, "art": 431, "ud": 432, "act": 433, "Ġma": 434, "ri": 435, "ine": 436, "ĠR": 437, "ĠE": 438, "ater": 439, "ould": 440, "pl": 441, "du": 442, "Ġab": 443, "ard": 444, "pt": 445, "og": 446, "ost": 447, "red": 448, "ions": 449, "ast": 450, "Ġim": 451, "Ġwill": 452, "out": 453, "ich": 454, "Ġcomp": 455, "Ġwhe": 456, "Ġint": 457, "iz": 458, "ell": 459, "ff": 460, "age": 461, "ag": 462, "Ġwor": 463, "Ġk": 464, "ther": 465, "Ġdo": 466, "our": 467, "ns": 468, "Ġad": 469, "The": 470, "gh": 471, "ound": 472, "ĠL": 473, "able": 474, "king": 475, "Ġthey": 476, "ated": 477, "ĠG": 478, "ĠN": 479, "Ġtheir": 480, "ans": 481, "ough": 482, "Ġall": 483, "Ġcont": 484, "Ġmore": 485, "ood": 486, "ance": 487, "der": 488, "ru": 489, "ry": 490, "Ġcl": 491, "Ġwas": 492, "ip": 493, "ous": 494, "ks": 495, "oo": 496, "ally": 497, "ĠO": 498, "Ġso": 499, "ĠTh": 500, "Ġme": 501, "Ġres": 502, "ult": 503, "ĠIn": 504, "orm": 505, "so": 506, "cc": 507, "ations": 508, "end": 509, "Ġbut": 510, "Ġwhich": 511, "ction": 512, "Ġte": 513, "up": 514, "Ġinc": 515, "ind": 516, "ib": 517, "ep": 518, "fe": 519, "ong": 520, "Ġout": 521, "Ġsp": 522, "Ġhas": 523, "ign": 524, "Ġj": 525, "Ġdis": 526, "20": 527, "Ġimp": 528, "Ġ\"": 529, "ime": 530, "ike": 531, "rent": 532, "ace": 533, "av": 534, "Ġro": 535, "ie": 536, "vel": 537, "Ġother": 538, "ase": 539, "wer": 540, "Ġalso": 541, "ear": 542, "hat": 543, "Ġar": 544, "Ġspe": 545, "lect": 546, "ence": 547, "Qu": 548, "Ġone": 549, "ap": 550, "estion": 551, "ĠU": 552, "ass": 553, "Ġman": 554, "ire": 555, "one": 556, "Ġgen": 557, "Ġfl": 558, "Ġsc": 559, "ents": 560, "ors": 561, "ite": 562, "ach": 563, "ress": 564, "ition": 565, "Ġper": 566, "ens": 567, "ice": 568, "very": 569, "ack": 570, "aus": 571, "Ġev": 572, "Ġthem": 573, "ĠIt": 574, "Ġpre": 575, "ary": 576, "Ġfe": 577, "Ġqu": 578, "te": 579, "'t": 580, "Ġup": 581, "Ġabout": 582, "Ġlike": 583, "nswer": 584, "Ġdif": 585, "Ġsy": 586, "now": 587, "Question": 588, "Ġwhen": 589, "Ġtr": 590, "Ġuse": 591, "ari": 592, "Ġsome": 593, "ces": 594, "ish": 595, "ile": 596, "Ġtime": 597, "ating": 598, "ĠAnswer": 599, "ĠThis": 600, "form": 601, "Ġused": 602, "Ġinto": 603, "ue": 604, "Ġapp": 605, "ll": 606, "row": 607, "Ġpart": 608, "are": 609, "ree": 610, "ric": 611, "Ġneed": 612, "ail": 613, "ific": 614, "Ġif": 615, "ber": 616, "Ġhow": 617, "Ġits": 618, "ild": 619, "les": 620, "ang": 621, "Ġco": 622, "ak": 623, "Ġthan": 624, "ays": 625, "ings": 626, "cess": 627, "ĠâĢ": 628, "Ġcol": 629, "Ġbet": 630, "Ġany": 631, "Ġmay": 632, "ame": 633, "ose": 634, "Ġdes": 635, "Ġover": 636, "Ġbec": 637, "Ġthere": 638, "ĠY": 639, "Ġra": 640, "Ġcomm": 641, "we": 642, "Ġsa": 643, "ts": 644, "Ġspec": 645, "Ġdiffe": 646, "Ġthese": 647, "low": 648, "ia": 649, "Ġcons": 650, "reat": 651, "Ġwater": 652, "stem": 653, "00": 654, "olog": 655, "ting": 656, "Ġrec": 657, "Ġind": 658, "ause": 659, "Ġprodu": 660, "Ġknow": 661, "ular": 662, "Ġbl": 663, "ds": 664, "Ġhel": 665, "ower": 666, "ons": 667, "Ġsol": 668, "Ġmet": 669, "Ġtra": 670, "ick": 671, "rough": 672, "Ġpe": 673, "Ġeff": 674, "ove": 675, "ĠWhat": 676, "Ġgr": 677, "oth": 678, "Ġtw": 679, "ub": 680, "ature": 681, "Ġsuch": 682, "Ġhelp": 683, "vers": 684, "Ġacc": 685, "ĠJ": 686, "ten": 687, "als": 688, "Ġplant": 689, "ility": 690, "ject": 691, "ms": 692, "ook": 693, "ck": 694, "Ġty": 695, "Ġmost": 696, "ple": 697, "Ġgo": 698, "Ġour": 699, "Ġstud": 700, "ake": 701, "ys": 702, "Ġunder": 703, "Ġwhat": 704, "Ġadd": 705, "Ġmake": 706, "enc": 707, "hes": 708, "ange": 709, "Ġget": 710, "Ġam": 711, "ph": 712, "ory": 713, "ments": 714, "Ġprov": 715, "Ġsystem": 716, "ient": 717, "uring": 718, "Ġyear": 719, "ates": 720, "Ġpo": 721, "Ġoff": 722, "lud": 723, "Ġact": 724, "ics": 725, "Ġshould": 726, "Ġsm": 727, "erg": 728, "Ġpr": 729, "xt": 730, "Ġph": 731, "Ġwere": 732, "Ġnew": 733, "hen": 734, "Ġelect": 735, "Ġtwo": 736, "ord": 737, "ov": 738, "tain": 739, "Ġhigh": 740, "Ġtrans": 741, "Ġsur": 742, "Ġbeen": 743, "Ġag": 744, "Ġdifferent": 745, "bs": 746, "erv": 747, "ning": 748, "ĠSt": 749, "Ġwould": 750, "..": 751, "Ġke": 752, "its": 753, "Ġthrough": 754, "irst": 755, "ĠAn": 756, "ĠV": 757, "ĠK": 758, "ble": 759, "chn": 760, "Ġwho": 761, "ful": 762, "ond": 763, "ual": 764, "ade": 765, "Ġem": 766, "Ġonly": 767, "Ġvari": 768, "Ġinclud": 769, "own": 770, "Ġinter": 771, "ise": 772, "Ġlight": 773, "ween": 774, "Ġbu": 775, "Ġwork": 776, "ft": 777, "In": 778, "Ġcre": 779, "ne": 780, "int": 781, "Ġno": 782, "Ġrep": 783, "Ġmod": 784, "Ġmany": 785, "fore": 786, "Ġpos": 787, "Ġrel": 788, "Ġjust": 789, "ative": 790, "Ġsim": 791, "Ġ-": 792, "ople": 793, "Ġbetween": 794, "aterial": 795, "Ġinst": 796, "ible": 797, "Ġreg": 798, "Ġusing": 799, "Ġrem": 800, "ities": 801, "Ġdet": 802, "ount": 803, "Ġwell": 804, "ced": 805, "Ġcar": 806, "Ġsign": 807, "Ġdi": 808, "Ġform": 809, "ark": 810, "hed": 811, "ize": 812, "10": 813, "Ġprocess": 814, "19": 815, "lic": 816, "erm": 817, "get": 818, "ution": 819, "Ġwhere": 820, "Ġdoes": 821, "ract": 822, "ential": 823, "ob": 824, "Ġac": 825, "Ġgrow": 826, "Ġlong": 827, "Ġfun": 828, "Ġimport": 829, "velop": 830, "Ġmaterial": 831, "Ġfirst": 832, "Ġpeople": 833, "Ġrequ": 834, "ink": 835, "ience": 836, "ram": 837, "ines": 838, "arch": 839, "?Ċ": 840, "fter": 841, "Ġthen": 842, "Ġtechn": 843, "ased": 844, "Ġmain": 845, "Ġche": 846, "Ġexper": 847, "Ġway": 848, "ually": 849, "irc": 850, "ĠCh": 851, "ruct": 852, "ically": 853, "uch": 854, "Ġatt": 855, "Ġinv": 856, "Ġcould": 857, "omet": 858, "ergy": 859, "Ġmy": 860, "Ġbecause": 861, "pect": 862, "ĠIf": 863, "Ġgener": 864, "Ġpat": 865, "rib": 866, "201": 867, "ever": 868, "iqu": 869, "Ġcur": 870, "Ġdevelop": 871, "ĠHow": 872, "aw": 873, ").": 874, "Ġpower": 875, "ife": 876, "Ġeach": 877, "Ġins": 878, "Ġeven": 879, "Ġdec": 880, "Ġexp": 881, "raw": 882, "Ġbr": 883, "ures": 884, "ins": 885, "Ġit's": 886, "Ġlar": 887, "Ġnum": 888, "Ġvery": 889, "ology": 890, "Ġfol": 891, "ious": 892, "ĠThey": 893, "alth": 894, "ron": 895, "iron": 896, "Ġass": 897, "iss": 898, "Ġext": 899, "Ġgl": 900, "n't": 901, "cial": 902, "on't": 903, "Ġevery": 904, "Ġimportant": 905, "Ġsupp": 906, "mer": 907, "ural": 908, "Ġdesign": 909, "els": 910, "Ġconc": 911, "Ġresult": 912, "Ġrese": 913, "Ġsmall": 914, "Ġeffect": 915, "Ġexam": 916, "?ĊĊ": 917, "stand": 918, "Ġset": 919, "ĠWh": 920, "hing": 921, "ied": 922, "Ġav": 923, "ĠâĢĵ": 924, "ef": 925, "ality": 926, "Ġsee": 927, "Ġgra": 928, "Ġpa": 929, "ĠUn": 930, "Ġmin": 931, "ere": 932, "gan": 933, "Ġsub": 934, "old": 935, "),": 936, "âĢĻ": 937, "ian": 938, "Ġmuch": 939, "ĠYou": 940, "ix": 941, "ily": 942, "Ġenergy": 943, "ps": 944, "'re": 945, "ages": 946, "Ġhum": 947, "Ġdisc": 948, "Ġtyp": 949, "rit": 950, "Ġfind": 951, "Ġpot": 952, "Ġloc": 953, "Ġcomple": 954, "vent": 955, "ros": 956, "Ġcor": 957, "Ġback": 958, ",\"": 959, "ety": 960, "Ġeas": 961, "Ġhis": 962, "Ġequ": 963, "Ġgood": 964, "Ġinf": 965, "Ġchar": 966, "Ġyears": 967, "ency": 968, "imate": 969, "formation": 970, "ata": 971, "Ġincre": 972, "Ġallow": 973, "ec": 974, "Ġwant": 975, "NA": 976, "ident": 977, "Ġwhile": 978, "Th": 979, "Ġstr": 980, "gg": 981, "Ġsame": 982, "ption": 983, "Ġfound": 984, "Ġcall": 985, "ists": 986, "viron": 987, "uc": 988, "Ġfollow": 989, "Ġhand": 990, "ases": 991, "ock": 992, "of": 993, "Ġpers": 994, "Ġart": 995, "Ġmade": 996, "iel": 997, "ool": 998, "Ġsec": 999, "Ġdist": 1000, "Ġproper": 1001, "Ġfact": 1002, "ĠAs": 1003, "Ġstart": 1004, "Ġhad": 1005, "Ġdep": 1006, "Ġlear": 1007, "ider": 1008, "Ġworld": 1009, "other": 1010, "Ġval": 1011, "ues": 1012, "oy": 1013, "wor": 1014, "ĠWe": 1015, "Ġcle": 1016, "eng": 1017, "Ġpres": 1018, "io": 1019, "Ġexpl": 1020, "elf": 1021, "Ġcell": 1022, "ized": 1023, "ather": 1024, "Ġsk": 1025, "read": 1026, "Ġduring": 1027, "Ġbeing": 1028, "Ġcontro": 1029, "ium": 1030, "Ġbefore": 1031, "Ġshow": 1032, "Ġpartic": 1033, "Ġtake": 1034, "Ġaround": 1035, "ices": 1036, "Ġshe": 1037, "Ġob": 1038, "Ġaut": 1039, "Ġafter": 1040, "ives": 1041, "rop": 1042, "Ġlevel": 1043, "ational": 1044, "ĠFor": 1045, "ides": 1046, "dition": 1047, "Ġboth": 1048, "Ġmat": 1049, "itt": 1050, "Ġoften": 1051, "Ġhealth": 1052, "Ġdown": 1053, "arm": 1054, "Ġair": 1055, "Ġtem": 1056, "Ġright": 1057, "urn": 1058, "Ġent": 1059, "Ġprot": 1060, "Ġbo": 1061, "led": 1062, "Ġfood": 1063, "Ġchild": 1064, "Ġens": 1065, "Ġbest": 1066, "tern": 1067, "Ġcommon": 1068, "Ġhome": 1069, "Ġcut": 1070, "Ġher": 1071, "hod": 1072, "Ġgu": 1073, "wn": 1074, "Ġenviron": 1075, "eg": 1076, "ty": 1077, "Ġear": 1078, "Ġproduct": 1079, "Ġinformation": 1080, "Ġredu": 1081, "Ġlook": 1082, "ness": 1083, "oid": 1084, "etic": 1085, "ward": 1086, "What": 1087, "imes": 1088, ":Ċ": 1089, ".\"": 1090, "ĠPro": 1091, "ets": 1092, "Ġdr": 1093, "Ġref": 1094, "omm": 1095, "Ġconst": 1096, "Ġkeep": 1097, "ave": 1098, "Ġve": 1099, "Ġap": 1100, "Ġsolar": 1101, "Ġnumber": 1102, "Ġeng": 1103, "200": 1104, "Ġdon't": 1105, "Ġplay": 1106, "Ġless": 1107, "Ġtoo": 1108, "Ġdata": 1109, "Ġthose": 1110, "ody": 1111, "acter": 1112, "Ġproble": 1113, "Ġ'": 1114, "Ġproject": 1115, "Ġdire": 1116, "Ġposs": 1117, "ict": 1118, "Ġvol": 1119, "-s": 1120, "Ġplants": 1121, "ved": 1122, "Ġtest": 1123, "Ġbuild": 1124, "Ġunderstand": 1125, "Ġdef": 1126, "Ġplan": 1127, "Ġpop": 1128, "Ġend": 1129, "ier": 1130, "ale": 1131, "ull": 1132, "Ġrad": 1133, "Ġdraw": 1134, "Ġlead": 1135, "Ġsurf": 1136, "ason": 1137, "Ġlife": 1138, "Ġfin": 1139, "Ġvis": 1140, "ands": 1141, "Ġmon": 1142, "Ġcurrent": 1143, "nect": 1144, "Ġadv": 1145, "Ġperson": 1146, "ired": 1147, "Ġread": 1148, "the": 1149, "ional": 1150, ":ĊĊ": 1151, "How": 1152, "-b": 1153, "Ġcirc": 1154, "ivers": 1155, "iew": 1156, "Ġown": 1157, "ont": 1158, "ĠThese": 1159, "ving": 1160, "ole": 1161, "Ġtool": 1162, "rence": 1163, "Ġsl": 1164, "...": 1165, "ash": 1166, "cept": 1167, "ined": 1168, "ĠEn": 1169, "Ġcommun": 1170, "Ġprovide": 1171, "Ġed": 1172, "Ġchange": 1173, "Ġcost": 1174, "Ġmethod": 1175, "ulation": 1176, "Ġmeas": 1177, "Ġtype": 1178, "Ġmed": 1179, "Ġpar": 1180, "ute": 1181, "Ġsaid": 1182, "perature": 1183, "Ġele": 1184, "ĠAl": 1185, "reen": 1186, "Ġenvironment": 1187, "12": 1188, "requ": 1189, "Ġ=": 1190, "Ġsomet": 1191, "ited": 1192, "less": 1193, "Ġlarge": 1194, "ves": 1195, "This": 1196, "ger": 1197, "air": 1198, "Ġnow": 1199, "ters": 1200, "way": 1201, "-c": 1202, "ield": 1203, "pen": 1204, "Ġorgan": 1205, "ivid": 1206, "any": 1207, "ots": 1208, "Ġmaking": 1209, "Ġexample": 1210, "Ġcr": 1211, "ĠTo": 1212, "ĠHe": 1213, "ars": 1214, "Ġstudy": 1215, "Ġfish": 1216, "ability": 1217, "ining": 1218, "ism": 1219, "itions": 1220, "Ġprog": 1221, "aking": 1222, "Ġmight": 1223, "Ġday": 1224, "Ġprof": 1225, "chool": 1226, "ways": 1227, "ator": 1228, "-f": 1229, "Ġspecies": 1230, "ank": 1231, "ants": 1232, "Ġdam": 1233, "Ġcat": 1234, "Ġtop": 1235, "Ġwithout": 1236, "Ġdise": 1237, "oci": 1238, "ince": 1239, "ling": 1240, "ert": 1241, "Ġident": 1242, "Ġcreate": 1243, "Ġstruct": 1244, "Ġcent": 1245, "Ġpur": 1246, "ew": 1247, "Ġresearch": 1248, "ouse": 1249, "ĠSc": 1250, "Ġmaterials": 1251, "Ġcontain": 1252, "Ġprotect": 1253, "Ġserv": 1254, "ex": 1255, "Ġopt": 1256, "Ġtemperature": 1257, "ffect": 1258, "Ġcare": 1259, "Ġknown": 1260, "Ġoper": 1261, "ify": 1262, "15": 1263, "Ġgreat": 1264, "Ġide": 1265, "ath": 1266, "Ġocc": 1267, "Ġanim": 1268, "day": 1269, "ven": 1270, "Ġthree": 1271, "Ġcontrol": 1272, "iving": 1273, "Ġsignific": 1274, "ern": 1275, "Ġbre": 1276, "Ġstill": 1277, "Ġbetter": 1278, "Ġclass": 1279, "ips": 1280, "Ġchang": 1281, "yc": 1282, "Ġhy": 1283, "ivity": 1284, "ape": 1285, "Ġperform": 1286, "ross": 1287, "Ġmust": 1288, "ĠThere": 1289, "iven": 1290, "ustr": 1291, "ead": 1292, "Ġser": 1293, "put": 1294, "Ġincluding": 1295, "kes": 1296, "Ġimpro": 1297, "oss": 1298, "Ġpoint": 1299, "Ġben": 1300, "Ġconnect": 1301, "Ġfew": 1302, "Ġcap": 1303, "ared": 1304, "Ġplace": 1305, "Ġstep": 1306, "Ġbas": 1307, "Ġcalled": 1308, "line": 1309, "cing": 1310, "Ġarea": 1311, "ĠAnd": 1312, "ique": 1313, "Ġdid": 1314, "Ġbir": 1315, "Ġspecific": 1316, "ner": 1317, "Ġhard": 1318, "Ġagain": 1319, "ior": 1320, "me": 1321, "Ġreal": 1322, "It": 1323, "Ġsurface": 1324, "gen": 1325, "Ġcal": 1326, "Ġappe": 1327, "itive": 1328, "Ġsoil": 1329, "Ġconsider": 1330, "Ġresp": 1331, "If": 1332, "Ġlow": 1333, "Ġanal": 1334, "Ġess": 1335, "ĠBut": 1336, "ĠHowever": 1337, "Ġpol": 1338, "ĠAd": 1339, "âĢĻs": 1340, "br": 1341, "olution": 1342, "ĠWhen": 1343, "apt": 1344, "Ġhuman": 1345, "Ġappro": 1346, "oes": 1347, "Ġpotential": 1348, "hers": 1349, "-t": 1350, "Ġnat": 1351, "Ġpan": 1352, "Ġline": 1353, "Ġsw": 1354, "ĠI'": 1355, "par": 1356, "Ġvarious": 1357, "ense": 1358, "Ġsure": 1359, "Ġfrequ": 1360, "Ġkey": 1361, "ids": 1362, "18": 1363, "ital": 1364, "here": 1365, "Ġloo": 1366, "Ġbeh": 1367, "Ġrequire": 1368, "30": 1369, "Ġimpact": 1370, "aves": 1371, "Ġconf": 1372, "Ġprevent": 1373, "Ġapplic": 1374, "oad": 1375, "rodu": 1376, "Ġcho": 1377, "hy": 1378, "ention": 1379, "ertain": 1380, "Ġwithin": 1381, "ĠPl": 1382, "Ġbody": 1383, "ĠSo": 1384, "Ġfam": 1385, "Ġbi": 1386, "Ġdirect": 1387, "Ġstudents": 1388, "Ġfunction": 1389, "Ġtypes": 1390, "ization": 1391, "Ġstand": 1392, "Ġris": 1393, "ination": 1394, "iness": 1395, "Ġspace": 1396, "Ġpract": 1397, "Ġthink": 1398, "Ġyou're": 1399, "Ġdev": 1400, "Ġsize": 1401, "Ġaddition": 1402, "Ġbel": 1403, "Ġtext": 1404, "Ġfollowing": 1405, "Ġthough": 1406, "Ġelectr": 1407, "Ġsour": 1408, "Ġiss": 1409, "oor": 1410, "Ġdel": 1411, "eds": 1412, "Ġsupport": 1413, "An": 1414, "Ġcaus": 1415, "Ġindivid": 1416, "Ġensure": 1417, "pr": 1418, "ott": 1419, "oup": 1420, "Ġhapp": 1421, "Ġcontin": 1422, "Ġavail": 1423, "Ġlet": 1424, "rete": 1425, "Ġmark": 1426, "Ġmag": 1427, "ering": 1428, "ently": 1429, "ax": 1430, "aste": 1431, "000": 1432, "50": 1433, "ished": 1434, "Ġsystems": 1435, "ental": 1436, "ittle": 1437, "de": 1438, "ision": 1439, "Ġrun": 1440, "Ġbenef": 1441, "ilar": 1442, "Ġmach": 1443, "Ġlearn": 1444, "Ġwood": 1445, "Ġdue": 1446, "ified": 1447, "ording": 1448, "Ġanother": 1449, "osed": 1450, "over": 1451, "Ġet": 1452, "Ġfil": 1453, "Ġpossible": 1454, "Ġthings": 1455, "ode": 1456, "Ġeffic": 1457, "Ġmill": 1458, "Ġmult": 1459, "iversity": 1460, "Ġcond": 1461, "omes": 1462, "Ġsty": 1463, "Ġpass": 1464, "Ġlim": 1465, "Ġhere": 1466, "port": 1467, "St": 1468, "Ġelectric": 1469, "Ġest": 1470, "Ġfree": 1471, "Ġwhy": 1472, "Ġinstall": 1473, "Ġcour": 1474, "rees": 1475, "Ġmeans": 1476, "rain": 1477, "Ġsever": 1478, "Ġdeterm": 1479, "-d": 1480, "Ġphys": 1481, "Ġinvol": 1482, "Ġhig": 1483, "Ġstate": 1484, "ug": 1485, "Ġlay": 1486, "light": 1487, "Ġz": 1488, "Ġable": 1489, "uss": 1490, "'ll": 1491, "mb": 1492, "Ġresist": 1493, "Ġsun": 1494, "cul": 1495, "fer": 1496, "Ġsit": 1497, "Ġcome": 1498, "Ġbus": 1499, "Ġinclude": 1500, "iver": 1501, "Ġrange": 1502, "ĠDNA": 1503, "Ġcomb": 1504, "Ġmeasure": 1505, "oms": 1506, "fact": 1507, "ĠSe": 1508, "Ġdepend": 1509, "Ġcolor": 1510, "Ġlast": 1511, "Ġcause": 1512, "Ġclean": 1513, "Ġmove": 1514, "Ġalways": 1515, "raft": 1516, "Ġessential": 1517, "Ġtry": 1518, "Ġdesc": 1519, "Ġsomething": 1520, "Ġsignificant": 1521, "Ġbecome": 1522, "Ġang": 1523, "Ġavailable": 1524, "inal": 1525, "ences": 1526, "ĠAr": 1527, "be": 1528, "mat": 1529, "Ġchem": 1530, "Ġste": 1531, "Ġheat": 1532, "Ġnatural": 1533, "Ġcomput": 1534, "Ġcount": 1535, "Ġpub": 1536, "ards": 1537, "Ġseveral": 1538, "aces": 1539, "Ġput": 1540, "Ġwind": 1541, "Ġprofess": 1542, "ĠOn": 1543, "Ġgoing": 1544, "Ġlittle": 1545, "Ġmean": 1546, "Ġareas": 1547, "Ġchildren": 1548, "Ġtechnology": 1549, "ane": 1550, "icle": 1551, "11": 1552, "ĠCl": 1553, "ches": 1554, "Ġscient": 1555, "-p": 1556, "Ġ[": 1557, "Ġpresent": 1558, "ember": 1559, "Ġreally": 1560, "Ġfeel": 1561, "Ġresults": 1562, "astic": 1563, "Ġopen": 1564, "Ġsal": 1565, "Ġfeature": 1566, "Ġflow": 1567, "Ġaffect": 1568, "ats": 1569, "ccess": 1570, ".,": 1571, "Ġusually": 1572, "Ġdisease": 1573, "Ġsay": 1574, "Ġwear": 1575, "ĠSh": 1576, "Ġmic": 1577, "Ġbased": 1578, "Ġground": 1579, "ances": 1580, "Ġlot": 1581, "akes": 1582, "ateg": 1583, "erest": 1584, "thing": 1585, "Ġneeds": 1586, "til": 1587, "Ġhead": 1588, "Ġenough": 1589, "Ġnon": 1590, "Ġel": 1591, "ration": 1592, "ills": 1593, "az": 1594, "ruction": 1595, "Ġsing": 1596, "ted": 1597, "ication": 1598, "Ġteam": 1599, "Ġpress": 1600, "100": 1601, "Ġroof": 1602, "Ġhist": 1603, "Ġmakes": 1604, "ĠEx": 1605, "Ġengine": 1606, "duct": 1607, "Ġer": 1608, "ura": 1609, "meric": 1610, "iation": 1611, "ples": 1612, "omp": 1613, "Ġquality": 1614, "We": 1615, "cent": 1616, "ote": 1617, "ann": 1618, "Ġaccess": 1619, "ox": 1620, "work": 1621, "Ġinterest": 1622, "Ġconditions": 1623, "iod": 1624, "ĠIs": 1625, "Ġrece": 1626, "Ġtimes": 1627, "ables": 1628, "Ġmot": 1629, "Ġschool": 1630, "Ġside": 1631, "amp": 1632, "ĠIt's": 1633, "When": 1634, "Ġprovid": 1635, "Ġrest": 1636, "arc": 1637, "Ġrepl": 1638, "Ġcells": 1639, "fort": 1640, "16": 1641, "Ġes": 1642, "arden": 1643, "Ġdig": 1644, "ended": 1645, "Ġshort": 1646, "Ġbeg": 1647, "Ġfield": 1648, "ĠRe": 1649, "Ġdevelopment": 1650, "Ġpain": 1651, "Ġorder": 1652, "Ġwee": 1653, "ĠCon": 1654, "Ġtreat": 1655, "ably": 1656, "ffic": 1657, "ients": 1658, "Ġspecial": 1659, "Ġparticular": 1660, "urther": 1661, "ĠRes": 1662, "Ġcharacter": 1663, "ufact": 1664, "Ġec": 1665, "Ġobject": 1666, "ours": 1667, "Ġgive": 1668, "Ġ$": 1669, "ieve": 1670, "ED": 1671, "Ġdem": 1672, "land": 1673, "Ġoccur": 1674, "14": 1675, "Ġexperience": 1676, "Ġreact": 1677, "inc": 1678, "Ġmar": 1679, "atch": 1680, "As": 1681, "âĢĶ": 1682, "Ġsimilar": 1683, "Ġeasy": 1684, "ems": 1685, "let": 1686, "oot": 1687, "Ġtoget": 1688, "Ġtogether": 1689, "Ġprim": 1690, "pecial": 1691, "Ġopp": 1692, "Ġsens": 1693, "pping": 1694, "round": 1695, "ires": 1696, "Ġcompon": 1697, "ĠWith": 1698, "Ġsecond": 1699, "Ġprote": 1700, ")Ċ": 1701, "Ġmodel": 1702, "Ġenc": 1703, "aut": 1704, "âĢĿ": 1705, "Ġret": 1706, "Ġcertain": 1707, "ories": 1708, "Ġ&": 1709, "Ġpost": 1710, "hip": 1711, "Ġold": 1712, "Ġreport": 1713, "aster": 1714, "raph": 1715, "bers": 1716, "ring": 1717, "Ġcase": 1718, "ength": 1719, "Ġsince": 1720, "fect": 1721, "outh": 1722, "âĢĵ": 1723, "hor": 1724, "Ġcomplete": 1725, "--": 1726, "Ġproblem": 1727, "Ġclimate": 1728, "Ġconcrete": 1729, "Ġter": 1730, "ĠBy": 1731, "Ġsimple": 1732, "Ġdamage": 1733, "chan": 1734, "Ġmaintain": 1735, "Ġbig": 1736, "Ġmov": 1737, "Ġeffective": 1738, "ints": 1739, "af": 1740, "ustom": 1741, "Ġhigher": 1742, "Ġnecess": 1743, "Ġuntil": 1744, "ĠAmeric": 1745, "Ġamount": 1746, "atter": 1747, "agn": 1748, "Ġpie": 1749, "ocus": 1750, "med": 1751, "asing": 1752, "ding": 1753, "ological": 1754, "ored": 1755, "Ġprogram": 1756, "riend": 1757, "enn": 1758, "Ġworks": 1759, "pper": 1760, "Ġcomes": 1761, "rect": 1762, "Ġbro": 1763, "ither": 1764, "lish": 1765, "au": 1766, "ray": 1767, "Ġchanges": 1768, "orn": 1769, "Ġorig": 1770, "Ġnear": 1771, "ately": 1772, "lu": 1773, "Ġlaw": 1774, "Ġtri": 1775, "ones": 1776, "Ġtools": 1777, "uit": 1778, "ware": 1779, "ĠUniversity": 1780, "ush": 1781, "Ġnext": 1782, "Ġobs": 1783, "uture": 1784, "ope": 1785, "Ġdetail": 1786, "vert": 1787, "Ġstrong": 1788, "Ġalong": 1789, "Ġturn": 1790, "Ġrepres": 1791, "13": 1792, "oose": 1793, "Ġwebs": 1794, "Ġpopular": 1795, "Ġsingle": 1796, "Ġdiff": 1797, "Ġlab": 1798, "-l": 1799, "ton": 1800, "ĠWhich": 1801, "Ġproducts": 1802, "ral": 1803, "Ġgiven": 1804, "view": 1805, "Ġbuilding": 1806, "Ġvers": 1807, "iple": 1808, "jor": 1809, "Ġpaper": 1810, "Ġnut": 1811, "Ġprom": 1812, "Ġlocal": 1813, "ĠAt": 1814, "Ġwide": 1815, "ster": 1816, "Ġgrowth": 1817, "Ġquick": 1818, "Ġdry": 1819, "ries": 1820, "Ġabove": 1821, "Ġinvest": 1822, "bon": 1823, "atic": 1824, "Ġprec": 1825, "alk": 1826, "ĠBe": 1827, "Ġmagn": 1828, "Ġmanufact": 1829, "Ġbusiness": 1830, "Ġans": 1831, "ators": 1832, "Ġcult": 1833, "Ġsuccess": 1834, "Ġimprove": 1835, "Ġaway": 1836, "Ġrole": 1837, "âĢ¦": 1838, "Ġcreat": 1839, "Ġvalue": 1840, "\":": 1841, "Ġsum": 1842, "Ġunique": 1843, "-m": 1844, "Ġhouse": 1845, ",Ċ": 1846, "Ġcontent": 1847, "Ġworking": 1848, "Ġ.": 1849, "utes": 1850, "Ġdays": 1851, "Ġtur": 1852, "ĠInd": 1853, "Ġey": 1854, "por": 1855, "irt": 1856, "ĠPh": 1857, "Ġmonth": 1858, "und": 1859, "Ġmetal": 1860, "oring": 1861, "Ġrele": 1862, "Ġkind": 1863, "Ġstructure": 1864, "inter": 1865, "izing": 1866, "Ġincrease": 1867, "Ġcomplex": 1868, "Ġperiod": 1869, "Ġce": 1870, "Ġlearning": 1871, "You": 1872, "ission": 1873, "Ġphot": 1874, "Ġprob": 1875, "Ġdesigned": 1876, "Ġfocus": 1877, "Ġsugg": 1878, "vious": 1879, "25": 1880, "ression": 1881, "There": 1882, "pecially": 1883, "ocial": 1884, "Ġgene": 1885, "Ġavoid": 1886, "not": 1887, "Ġlist": 1888, "Ġsequ": 1889, "lus": 1890, "Ġgenes": 1891, "ĠTe": 1892, "Ġname": 1893, "ains": 1894, "Ġfeed": 1895, "202": 1896, "ĠNew": 1897, "Ġgarden": 1898, "Ġbit": 1899, "str": 1900, "ah": 1901, "Ġfore": 1902, "Ġacross": 1903, "Ġrecomm": 1904, "Ġwall": 1905, "Ġmal": 1906, "Ġchemical": 1907, "ler": 1908, "17": 1909, "Ġjo": 1910, "tic": 1911, "Ġfour": 1912, "lection": 1913, "Ġchall": 1914, "ĠThat": 1915, "Ġsearch": 1916, "Ġmechan": 1917, "Ġmajor": 1918, "Ġgroup": 1919, "ustry": 1920, "Ġmem": 1921, "to": 1922, "igure": 1923, "Ġrisk": 1924, "ĠSp": 1925, "Ġnet": 1926, "Ġvide": 1927, "40": 1928, "estions": 1929, "Ġmix": 1930, "Ġleast": 1931, "pped": 1932, "Ġdone": 1933, "ised": 1934, "Ġfull": 1935, "Ġach": 1936, "aging": 1937, "tage": 1938, ")ĊĊ": 1939, "Ġmo": 1940, "Ġpred": 1941, "Ġcru": 1942, "Ġcustom": 1943, "ĠCan": 1944, "istic": 1945, "Ġelectrical": 1946, "omen": 1947, "Ġproblems": 1948, "Ġothers": 1949, "Ġterm": 1950, "Ġproduction": 1951, "Ġassoci": 1952, "eth": 1953, "Ġfuture": 1954, "ĠDe": 1955, "icult": 1956, "ON": 1957, "ification": 1958, "Ġlikely": 1959, "Ġred": 1960, "ered": 1961, "Ġgreen": 1962, "Ġtree": 1963, "Ġpast": 1964, "yn": 1965, "Ġagainst": 1966, "cer": 1967, "Ġearly": 1968, "ference": 1969, "ĠZ": 1970, "Ġactually": 1971, "Ġfactors": 1972, "cy": 1973, "Ġhaving": 1974, "iting": 1975, "Ġappear": 1976, "Ġland": 1977, "To": 1978, "Ġdeg": 1979, "Ġsaf": 1980, "na": 1981, "Ġparts": 1982, "ĠEng": 1983, "Ġcra": 1984, "reng": 1985, "ume": 1986, "Ġmole": 1987, "ibility": 1988, "Ġtru": 1989, "ĠâĢľ": 1990, "idence": 1991, "Ġlevels": 1992, "Ġsignal": 1993, "IN": 1994, "Ġspeed": 1995, "Ġfac": 1996, "ĠInst": 1997, "ditional": 1998, "Ġsuit": 1999, "Ġbegin": 2000, "olar": 2001, "Ġproduce": 2002, "ges": 2003, "Ġallows": 2004, "Ġsafe": 2005, "Ġbehav": 2006, "ensive": 2007, "Ġtransm": 2008, "Ġclear": 2009, "ret": 2010, "ĠEar": 2011, "Ġunderstanding": 2012, "Ġexce": 2013, "Ġnorm": 2014, "Ġvariety": 2015, "Ġcourse": 2016, "Ġrequired": 2017, "osp": 2018, "lying": 2019, "Ġreduce": 2020, "Ġhim": 2021, "igns": 2022, "Ġfar": 2023, "Ġdescrib": 2024, "Ġmil": 2025, "Ġlooking": 2026, "Ġbelow": 2027, "Ġresearc": 2028, "Ġsource": 2029, "Ġgre": 2030, "TE": 2031, "Ġsafety": 2032, "com": 2033, "Ġways": 2034, "Ġexperim": 2035, "ashion": 2036, "Ġespecially": 2037, "ipment": 2038, "Ġoil": 2039, "__": 2040, "ury": 2041, "for": 2042, "Ġi": 2043, "ties": 2044, "Ġclose": 2045, "though": 2046, "ites": 2047, "Ġox": 2048, "Ġlower": 2049, "'ve": 2050, "ump": 2051, "man": 2052, "For": 2053, "Ġgenetic": 2054, "avor": 2055, "Ġreason": 2056, "cean": 2057, "Ġeither": 2058, "Ġabs": 2059, "Ġleaves": 2060, "eter": 2061, "Ġdetect": 2062, "Ġindustry": 2063, "ĠWor": 2064, "anced": 2065, "imum": 2066, "ircraft": 2067, "Ġcover": 2068, "ysis": 2069, "ĠSome": 2070, "Ġnecessary": 2071, "yl": 2072, "Ġlength": 2073, "Ġflu": 2074, "Ġapplications": 2075, "Ġsuggest": 2076, "ogn": 2077, "Ġmind": 2078, "Ġactiv": 2079, "Ġdifference": 2080, "!ĊĊ": 2081, "Ġsqu": 2082, "Ġhyd": 2083, "Ġstyle": 2084, "itch": 2085, "ograph": 2086, "ived": 2087, "Ġlive": 2088, "Ġintern": 2089, "ene": 2090, "Ġsoft": 2091, "LL": 2092, "Ġperformance": 2093, "Ġleft": 2094, "Ġaccording": 2095, "Ġsays": 2096, "Ġnever": 2097, "Ġpersonal": 2098, "Ġmass": 2099, "Ġexist": 2100, "Ġmarket": 2101, "60": 2102, "Ġbase": 2103, "ctor": 2104, "Ġprovides": 2105, "Ġsolution": 2106, "Ġthing": 2107, "Ġregular": 2108, "Ġindic": 2109, "Ġcorrect": 2110, "ĠâĢĶ": 2111, "Ġdifficult": 2112, "Wh": 2113, "Ġscience": 2114, "Ġthin": 2115, "ores": 2116, "Ġwebsite": 2117, "Ġtar": 2118, "Ġfurther": 2119, "ounds": 2120, "Un": 2121, "ledge": 2122, "Ġconstruction": 2123, "Ġstreng": 2124, "Ġfrequency": 2125, "Ġcheck": 2126, "Ġprop": 2127, "Ġpurp": 2128, "Ġpath": 2129, "utions": 2130, "Ġexpect": 2131, "Ġissues": 2132, "osing": 2133, "iques": 2134, "aria": 2135, "onom": 2136, "Ġperfect": 2137, "Ġevolution": 2138, "Ġweight": 2139, "resh": 2140, "Ġshape": 2141, "Ġmicro": 2142, "ilities": 2143, "Ġsand": 2144, "Ġleg": 2145, "Ġdiscuss": 2146, "24": 2147, "Ġenh": 2148, "Ġhal": 2149, "Ġfamily": 2150, "ule": 2151, "Ġtoday": 2152, "Ġevent": 2153, "Ġdress": 2154, "lished": 2155, "Ġtypically": 2156, "Ġwhite": 2157, "Ġdoesn't": 2158, "most": 2159, "Ġneeded": 2160, "Ġplastic": 2161, "ik": 2162, "tenance": 2163, "iency": 2164, "Ġveget": 2165, "pro": 2166, "Ġdeep": 2167, "Ġquestion": 2168, "Ġrot": 2169, "Ġbreak": 2170, "Ġgrowing": 2171, "ucle": 2172, "Ġstress": 2173, "Ġoffer": 2174, "Ġblack": 2175, "Ġpressure": 2176, "Ġelements": 2177, "Ġwhether": 2178, "Ġresour": 2179, "ĠI'm": 2180, "Ġhelps": 2181, "Ġselect": 2182, "rap": 2183, "Ġdrawing": 2184, "Ġfall": 2185, "Ġcontrib": 2186, "self": 2187, "Ġequipment": 2188, "Ġrepresent": 2189, "ising": 2190, "Ġbag": 2191, "Ġsocial": 2192, "Ġut": 2193, "ready": 2194, "Ġability": 2195, "ĠCol": 2196, "ĠBl": 2197, "Ġarticle": 2198, "rag": 2199, "side": 2200, "ming": 2201, "ream": 2202, "Ġaircraft": 2203, "Ġsam": 2204, "ystem": 2205, "lement": 2206, "Ġrate": 2207, "ending": 2208, "itud": 2209, "Ġcrucial": 2210, "Ġonce": 2211, "wards": 2212, "ĠUS": 2213, "Ġamong": 2214, "ĠOne": 2215, "Ġfeatures": 2216, "Ġtrees": 2217, "Ġbott": 2218, "co": 2219, "Ġquant": 2220, "Ġlines": 2221, "Ġlif": 2222, "oney": 2223, "atory": 2224, "Ġview": 2225, "ĠYour": 2226, "ĠEarth": 2227, "Ġresistance": 2228, "Ġge": 2229, "une": 2230, "aps": 2231, "Ġill": 2232, "Ġbul": 2233, "Ġmethods": 2234, "obal": 2235, "Ġsite": 2236, "Ġeffects": 2237, "ĠAll": 2238, "Ġexc": 2239, ",N": 2240, "Ġhours": 2241, "Ġoptim": 2242, "ina": 2243, "Ġpanels": 2244, "Ch": 2245, "agement": 2246, "Ġload": 2247, "Ġresearchers": 2248, "Ġcomputer": 2249, "Ġcutting": 2250, "ĠOr": 2251, "Ġeasily": 2252, "Ġinteract": 2253, "Ġwr": 2254, "ilt": 2255, ").Ċ": 2256, "ird": 2257, "Ġconsum": 2258, "ĠIm": 2259, "Ġremov": 2260, "Ġelectron": 2261, "ĠQu": 2262, "rences": 2263, "aving": 2264, "Ġconduct": 2265, "ctions": 2266, "Ġvoltage": 2267, "Ġwrit": 2268, "can": 2269, "Ġappl": 2270, "Ġhistory": 2271, "Ġinit": 2272, "uals": 2273, "Ġindividual": 2274, "Ġemb": 2275, "Ġbar": 2276, "use": 2277, "Ġ+": 2278, "Ġhol": 2279, "Ġkn": 2280, "val": 2281, "Ġalready": 2282, "Ġtot": 2283, "Ġseen": 2284, "Ġwhole": 2285, "Ġuses": 2286, "Ġgeneral": 2287, "bo": 2288, "Ġfashion": 2289, "\":\"": 2290, "iring": 2291, "Ġcircuit": 2292, "Ġlonger": 2293, "Ġcomponents": 2294, "ames": 2295, "Ġinfect": 2296, "by": 2297, "Ġcool": 2298, "rown": 2299, "Ġball": 2300, "Ġcarbon": 2301, "Ġobserv": 2302, "Ġcomfort": 2303, "Ġonline": 2304, "199": 2305, "Ġbirds": 2306, "Ġbal": 2307, "ze": 2308, "idd": 2309, "cks": 2310, "Ġfriend": 2311, "earch": 2312, "Ġchoice": 2313, "rel": 2314, "Ġapproach": 2315, "Ġant": 2316, "ĠLED": 2317, "Ġprofessional": 2318, "ng": 2319, "Ġbenefits": 2320, "ploy": 2321, "Ġtarget": 2322, "Ġcrit": 2323, "Ġchoose": 2324, "\",\"": 2325, "Ġtechniques": 2326, "Ġsubst": 2327, "Ġcompany": 2328, "just": 2329, "Ġinteg": 2330, "Ġauthor": 2331, ".\"ĊĊ": 2332, "Ġacid": 2333, "Ġpublic": 2334, "Ġadvant": 2335, "Ġsepar": 2336, "Ġinside": 2337, "aced": 2338, "ply": 2339, "Ġseason": 2340, "reg": 2341, "Ġneg": 2342, "Ġeat": 2343, "Ġmachine": 2344, "Ġtell": 2345, "aken": 2346, "lor": 2347, "Ġcoll": 2348, "Ġfill": 2349, "Ġcapac": 2350, "Ġport": 2351, "!Ċ": 2352, "ĠSE": 2353, "Ġsteel": 2354, "rs": 2355, "ĠX": 2356, "ortun": 2357, "Ġtas": 2358, "uro": 2359, "Ġweather": 2360, "Ġcollect": 2361, "Ġproperties": 2362, "Ġwarm": 2363, "fully": 2364, "Ġparent": 2365, "ried": 2366, "ows": 2367, "Ġstrateg": 2368, "Ġphysical": 2369, "othing": 2370, "Ġmoist": 2371, "Ġidentify": 2372, "Ġhot": 2373, "Ġstrength": 2374, "Ġposition": 2375, "Ġweek": 2376, "Ġentire": 2377, "idered": 2378, "Ġetc": 2379, "Ġshar": 2380, "Ġconsist": 2381, "Ġtraditional": 2382, "Ġknowledge": 2383, "Ġidea": 2384, "Ġanswer": 2385, "sel": 2386, "Ġsuper": 2387, "Ġpoly": 2388, "ropri": 2389, "ae": 2390, "Ġanimals": 2391, "Ġeduc": 2392, "Ġ/": 2393, "uck": 2394, "Ġsmo": 2395, "joy": 2396, "Ġgas": 2397, "rum": 2398, "Ġextra": 2399, "Ġsil": 2400, "Ġwire": 2401, "Ġcreating": 2402, "ee": 2403, "plic": 2404, "Ġrespons": 2405, "ym": 2406, "Ġradio": 2407, "ennis": 2408, "Ġcompet": 2409, "Ġheav": 2410, "verage": 2411, "reme": 2412, "Ġhappen": 2413, "angu": 2414, "Ġmax": 2415, "hem": 2416, "Ġask": 2417, "Ġever": 2418, "Ġscientists": 2419, "Ġcalcul": 2420, "Ġvideo": 2421, "Ġsyn": 2422, "Ġefficient": 2423, "Ġcrus": 2424, "ibr": 2425, "ĠNo": 2426, "verse": 2427, "Al": 2428, "Ġstra": 2429, "Ġanalysis": 2430, "Ġintrodu": 2431, "80": 2432, "eral": 2433, "Ġconsidered": 2434, "ery": 2435, "Ġpoints": 2436, "Ġpercent": 2437, "Ġteeth": 2438, "ĠGen": 2439, "Ġmultiple": 2440, "Ġfram": 2441, "Ġsea": 2442, "uff": 2443, "ĠGo": 2444, "Ġlarger": 2445, "ta": 2446, "Ġbuy": 2447, "Ġgar": 2448, "Ġbook": 2449, "Ġpay": 2450, "AS": 2451, "Ġfru": 2452, "isms": 2453, "ER": 2454, "ĠTr": 2455, "Ġquestions": 2456, "Ġgetting": 2457, "Ġwar": 2458, "Ġx": 2459, "Ġinflu": 2460, "Ġslow": 2461, "Ġoverall": 2462, "Ġdetermine": 2463, "Ġwaste": 2464, "Ġadapt": 2465, "Ġhealthy": 2466, "Ġgame": 2467, "Ġbatter": 2468, "Ġprotein": 2469, "Ġassociated": 2470, "ival": 2471, "orth": 2472, "ades": 2473, "ĠHere": 2474, "Ġlove": 2475, "Ġstandard": 2476, "Ġloss": 2477, "Ġbasic": 2478, "Ġtreatment": 2479, "Ġage": 2480, "orts": 2481, "Ġimage": 2482, "Ġconcept": 2483, "So": 2484, "AR": 2485, "Ġpack": 2486, "Ġsat": 2487, "Ġmaintenance": 2488, "22": 2489, "Ġskills": 2490, "Ġthat's": 2491, "Ġself": 2492, "ĠUs": 2493, "Ġbacter": 2494, "Ġcases": 2495, "aling": 2496, "Ġhalf": 2497, "att": 2498, "Ġcontact": 2499, "Ġrelated": 2500, "Ġrelative": 2501, "ĠWhile": 2502, "Ġdoing": 2503, "Ġmillion": 2504, "Ġdispl": 2505, "Ġseeds": 2506, "Ġmatter": 2507, "amm": 2508, "Ġmut": 2509, "Ġhowever": 2510, "Ġnature": 2511, "Ġterms": 2512, "Ġchalleng": 2513, "vant": 2514, "On": 2515, "Ġregul": 2516, "Â°": 2517, "ley": 2518, "Ġpositive": 2519, "Ġmeet": 2520, "ext": 2521, "ront": 2522, "Ġrather": 2523, "Ġquickly": 2524, "Ġsym": 2525, "Ġcode": 2526, "Ġactivity": 2527, "Ġalg": 2528, "ĠCent": 2529, "selves": 2530, "ourn": 2531, "Ġmanufacture": 2532, "Ġwords": 2533, "Ġangle": 2534, "Ġsitu": 2535, "Ġhold": 2536, "Ġoutput": 2537, "Ġsomeone": 2538, "izes": 2539, "Ġelectricity": 2540, "Ġlink": 2541, "Ġdiet": 2542, "Ġexplain": 2543, "Ġprojects": 2544, "Ġenjoy": 2545, "Ġminutes": 2546, "cri": 2547, "Ġcommunity": 2548, "Ġenvironmental": 2549, "ese": 2550, "Ġseed": 2551, "Ġmoney": 2552, "ino": 2553, "Ġsense": 2554, "Ġmodern": 2555, "ney": 2556, "imens": 2557, "lex": 2558, "Ġegg": 2559, "Ġcan't": 2560, "Ġopportun": 2561, "umin": 2562, "ditionally": 2563, "Ġindividuals": 2564, "ules": 2565, "Ġdeveloped": 2566, "Ġexperi": 2567, "yp": 2568, "Ġlater": 2569, "Ġprimary": 2570, "Ġ,": 2571, "Ġlo": 2572, "Ġaddress": 2573, "ogle": 2574, "itor": 2575, "ops": 2576, "Ġfeet": 2577, "aged": 2578, "Ġshows": 2579, "isc": 2580, "Ġextreme": 2581, "onds": 2582, "Ġmention": 2583, "Ġword": 2584, "Ġwa": 2585, "Ġrelations": 2586, "Ġcook": 2587, "Ġblood": 2588, "itude": 2589, "Ġsimply": 2590, "Ġuser": 2591, "Ġlayer": 2592, "Ġremain": 2593, "Ġshown": 2594, "Ġadded": 2595, "Ġremove": 2596, "Ġshap": 2597, "ĠDo": 2598, "nown": 2599, "Ġimm": 2600, "Ġtravel": 2601, "-g": 2602, "Ġthick": 2603, "Ġcreated": 2604, "Ġfit": 2605, "Ġtotal": 2606, "Ġfresh": 2607, "Ġyou'll": 2608, "Ġfast": 2609, "Ġappropri": 2610, "Ġrepair": 2611, "Ad": 2612, "Ġmus": 2613, "Ġcompared": 2614, "-w": 2615, "Ġdistrib": 2616, "Ġgot": 2617, "oph": 2618, "-based": 2619, "rew": 2620, "Ġrecogn": 2621, "Ġexact": 2622, "ooking": 2623, "ung": 2624, "Ġinstead": 2625, "ĠLe": 2626, "Ġgenerally": 2627, "Ġefficiency": 2628, "Ġcannot": 2629, "ils": 2630, "Ġtakes": 2631, "Ġautom": 2632, "Ġdura": 2633, "ipe": 2634, "Ġreach": 2635, "Ġaltern": 2636, "ĠCal": 2637, "Ġrequires": 2638, "ULL": 2639, "oon": 2640, "Ġthought": 2641, "Ġactivities": 2642, "Ġbring": 2643, "vest": 2644, "ĠGr": 2645, "ĠDr": 2646, "Ġdou": 2647, "ĠScience": 2648, "Ġoptions": 2649, "Ġing": 2650, "cular": 2651, "Ġattention": 2652, "ĠAmerican": 2653, "uten": 2654, "Ġfloor": 2655, "Ġthroughout": 2656, "oh": 2657, "Ġhumans": 2658, "ging": 2659, "ustain": 2660, "Ġharm": 2661, "ĠMed": 2662, "Ġdigital": 2663, "Ġoption": 2664, "Ġanten": 2665, "Ġcondition": 2666, "Ġprobably": 2667, "ĠCont": 2668, "AT": 2669, "ights": 2670, "Ġprevious": 2671, "Ġindustr": 2672, "Ġalmost": 2673, "Ġstudies": 2674, "Ġsaw": 2675, "lusion": 2676, "Ġadditional": 2677, "ively": 2678, "ES": 2679, "ĠCar": 2680, "ĠAm": 2681, "Ġincreasing": 2682, "ili": 2683, "istics": 2684, "Ġglobal": 2685, "Ġcyc": 2686, "Ġpage": 2687, "Con": 2688, "rogen": 2689, "Ġprep": 2690, "imately": 2691, "Ġbeaut": 2692, "Ġsteps": 2693, "mbol": 2694, "Ġdevices": 2695, "Ġtou": 2696, "Ġdom": 2697, "Ġpractice": 2698, "Ġyoung": 2699, "Ġmonths": 2700, "90": 2701, "Ġmalaria": 2702, "nov": 2703, "Ġmess": 2704, "Ġsmaller": 2705, "Ġbird": 2706, "ixt": 2707, "Ġlighting": 2708, "rad": 2709, "Ġseries": 2710, "aches": 2711, "Ġincludes": 2712, "Ġsuitable": 2713, "23": 2714, "Ġglass": 2715, "Ġlangu": 2716, "Ġliving": 2717, "Ġdevice": 2718, "Ġcontinu": 2719, "Ġroom": 2720, "ĠComm": 2721, "ching": 2722, "iter": 2723, "istry": 2724, "Ġbox": 2725, "ĠCom": 2726, "Ġproperty": 2727, "Ġyet": 2728, "Ġoutside": 2729, "Ġaqu": 2730, "Ġaverage": 2731, "lease": 2732, "Ġproviding": 2733, "Ġadjust": 2734, "-in": 2735, "Ġachieve": 2736, "Ġbehavior": 2737, "Ġfive": 2738, "Ġocean": 2739, "where": 2740, "ners": 2741, "Ġhar": 2742, "Ġ--": 2743, "Ġmen": 2744, "Ġisn't": 2745, "Ġu": 2746, "Ġincreased": 2747, "Ġgain": 2748, "iles": 2749, "ĠOf": 2750, "oups": 2751, "elling": 2752, "Ġtaking": 2753, "abor": 2754, "Ġquite": 2755, "asons": 2756, "ged": 2757, "Ġdirection": 2758, "ift": 2759, "erve": 2760, "ched": 2761, "urity": 2762, "erous": 2763, "Ġguide": 2764, "ĠShe": 2765, "ensity": 2766, "ecause": 2767, "Ġyourself": 2768, "Ġrecyc": 2769, "Ġrespect": 2770, "21": 2771, "Ġcontroll": 2772, "Ġnucle": 2773, "Ġtable": 2774, "Ġface": 2775, "Ġlog": 2776, "One": 2777, "ocks": 2778, "Ġsound": 2779, "ĠPr": 2780, "acks": 2781, "Ġestab": 2782, "inks": 2783, "Ġstri": 2784, "inary": 2785, "Ġclothing": 2786, "Ġsubject": 2787, "ellow": 2788, "ĠCo": 2789, "pan": 2790, ").ĊĊ": 2791, "Ġswe": 2792, "ams": 2793, "Ġdefin": 2794, "Ġnormal": 2795, "Ġresources": 2796, "Ġpurpose": 2797, "Ġservice": 2798, "Ġhab": 2799, "Ġcolors": 2800, "inate": 2801, "Ġseem": 2802, "Ġfail": 2803, "medi": 2804, "Cl": 2805, "ĠAfter": 2806, "Ġhighly": 2807, "oint": 2808, "Ġmoisture": 2809, "Ġissue": 2810, "Ġann": 2811, "Ġminim": 2812, "Ġgover": 2813, "itute": 2814, "Ġwon": 2815, "Ġgrass": 2816, "Ġones": 2817, "Ġpict": 2818, "Ġfib": 2819, "rict": 2820, "Ġitself": 2821, ",NULL": 2822, "Ġwinter": 2823, "Ġproduced": 2824, "Ġreflect": 2825, "oses": 2826, "Ġcapt": 2827, "-h": 2828, "Ġdirectly": 2829, "Ġexpress": 2830, "ĠHar": 2831, "Ġsometimes": 2832, "Ġcommonly": 2833, "ai": 2834, "water": 2835, "ishing": 2836, "Ġdistance": 2837, "ĠNational": 2838, "Ġforce": 2839, "Ġanything": 2840, "sequ": 2841, "Ġconstant": 2842, "itted": 2843, "Ġfoot": 2844, "Ġevents": 2845, "eb": 2846, "Ġstory": 2847, "Ġtend": 2848, "Ġpri": 2849, "Ġaspect": 2850, "Ġroot": 2851, "Ġprovided": 2852, "Ġeverything": 2853, "terns": 2854, "rm": 2855, "Ġaccur": 2856, "Ġtaken": 2857, "Ġemploy": 2858, "Ġkids": 2859, "osition": 2860, "...ĊĊ": 2861, "Ġcarry": 2862, "Ġdark": 2863, "uce": 2864, "Ġbad": 2865, "Ġcold": 2866, "Ġapplication": 2867, "Pro": 2868, "sc": 2869, "Ġideal": 2870, "Ġstay": 2871, "Ġinput": 2872, "ls": 2873, "Ġsn": 2874, "Ġcommunication": 2875, "Ġinvolved": 2876, "rams": 2877, "Ġtank": 2878, ".S": 2879, "Ex": 2880, "ument": 2881, "augh": 2882, "Ġexplore": 2883, "Ġcoun": 2884, "Ġheart": 2885, "Ġpow": 2886, "Ġfire": 2887, "Ġcosts": 2888, "Ġcompan": 2889, "Ġservices": 2890, "ĠDes": 2891, "ogen": 2892, "Ġstarted": 2893, "Ġnegative": 2894, "umb": 2895, "Ġcaused": 2896, "Ġfix": 2897, "Ġtrue": 2898, "Ġsummer": 2899, "Ġoffers": 2900, "Ġep": 2901, "fric": 2902, "Ġtennis": 2903, "Ġmom": 2904, "uel": 2905, "gest": 2906, "RI": 2907, "onse": 2908, "ĠMan": 2909, "ĠSEO": 2910, "Ġregion": 2911, "Ġspread": 2912, "Ġtraining": 2913, "overed": 2914, "Ġuseful": 2915, "Ġeasier": 2916, "ĠCons": 2917, "Ġrequirements": 2918, "Ġearth": 2919, "Ġappropriate": 2920, "70": 2921, "go": 2922, "known": 2923, "room": 2924, "Ġlights": 2925, "sect": 2926, "Ġitems": 2927, "Sh": 2928, "Ġrain": 2929, "ĠGu": 2930, "Ġreplace": 2931, "Ġtheory": 2932, "Ġpatterns": 2933, "-st": 2934, "alt": 2935, "fish": 2936, "Ġconcent": 2937, "Ġâ": 2938, "Ġtips": 2939, "Ġdepending": 2940, "ĠApp": 2941, "Ġproperly": 2942, "ĠKe": 2943, "Ġtren": 2944, "rig": 2945, "Ġsymbol": 2946, "Ġtim": 2947, "Ġmodels": 2948, "Ġ|": 2949, "ĠUse": 2950, "rec": 2951, "inding": 2952, "arily": 2953, "Why": 2954, "Ġreaction": 2955, "Ġago": 2956, "Ġradi": 2957, "Ġthemselves": 2958, "like": 2959, "Ġgovern": 2960, "Ġpair": 2961, ".\"Ċ": 2962, "Ġthey're": 2963, "Ġsalt": 2964, "Ġcou": 2965, "Ġparticularly": 2966, "fficient": 2967, "rid": 2968, "aring": 2969, "ygen": 2970, "Ġcauses": 2971, "Ġvalues": 2972, "Ġpredict": 2973, "\",": 2974, "Ġflight": 2975, "Ġlocation": 2976, "Ġchrom": 2977, "Ġsurv": 2978, "gar": 2979, "Ġpopulation": 2980, "Ġobtain": 2981, "eding": 2982, "Ġbottom": 2983, "ĠMe": 2984, "Ġforms": 2985, "Ġmanagement": 2986, "li": 2987, "Ġbur": 2988, "Ġcommer": 2989, "Ġreli": 2990, "aily": 2991, "Ġpieces": 2992, "hib": 2993, "Ġeconom": 2994, "ĠâĢ¦": 2995, "Ġjob": 2996, "ured": 2997, "Ġshare": 2998, "Ġwomen": 2999, "ightly": 3000, "Ġgreater": 3001, "Ġanaly": 3002, "Ġrefer": 3003, "Ġbehind": 3004, "Ġaction": 3005, "ĠUnited": 3006, "ĠAI": 3007, "encies": 3008, "head": 3009, "Ġtemperatures": 3010, "mon": 3011, "Ġrock": 3012, "ĠComp": 3013, "Ġunc": 3014, "iding": 3015, "Ġprotection": 3016, "Ġcement": 3017, "Ġnutri": 3018, "Ġdiseases": 3019, "rast": 3020, "Ġnight": 3021, "26": 3022, "Ġprocesses": 3023, "wh": 3024, "aim": 3025, "ĠResearch": 3026, "Ġcharge": 3027, "ĠGoogle": 3028, "28": 3029, "Ġaud": 3030, "orpor": 3031, "Ġpiece": 3032, "Ġelement": 3033, "Ġvisual": 3034, "ises": 3035, "Ġgluten": 3036, "ube": 3037, "ĠNe": 3038, "Ġleading": 3039, "Ġcountry": 3040, "Ġinitial": 3041, "ooks": 3042, "odes": 3043, "Ġregard": 3044, "ĠAfric": 3045, "Ġproced": 3046, "Ġimages": 3047, "Ġsus": 3048, "anks": 3049, "opy": 3050, "othes": 3051, "ground": 3052, "Ġcommercial": 3053, "urope": 3054, "Ġpatients": 3055, "Ġallowing": 3056, "rug": 3057, "Ġtrying": 3058, "Ġtransform": 3059, "Ġwave": 3060, "enced": 3061, "Ġprinc": 3062, "aries": 3063, "erc": 3064, "ertil": 3065, "alu": 3066, "Ġdemon": 3067, "ĠAre": 3068, "sh": 3069, "Ġfinal": 3070, "Ġsustain": 3071, "ails": 3072, "Ġcard": 3073, "Ġaccount": 3074, "Ġpurch": 3075, "Ġwild": 3076, "Ġsupply": 3077, "ields": 3078, "ĠMay": 3079, "Ġutil": 3080, "-e": 3081, "ĠFrom": 3082, "Ġdoc": 3083, "Ġcross": 3084, "ison": 3085, "Ġspring": 3086, "Ġpil": 3087, "Ġcountries": 3088, "Ġprefer": 3089, "icial": 3090, "osis": 3091, "ĠSu": 3092, "Ġskin": 3093, "Ġexperiment": 3094, "Ġadding": 3095, "Ġunit": 3096, "Ġver": 3097, "Ġcompletely": 3098, "Ġframe": 3099, "Ġassess": 3100, "Ġchick": 3101, "Ġapplied": 3102, "Ġfine": 3103, "Ġrecord": 3104, "Ġfem": 3105, "alle": 3106, "OT": 3107, "Ġmeaning": 3108, "But": 3109, "Ġrecent": 3110, "ians": 3111, "Ġstraight": 3112, "Ġlanguage": 3113, "Ġbuilt": 3114, "Ġgenome": 3115, "ached": 3116, "Ġstore": 3117, "Ġtre": 3118, "Ġir": 3119, "Ġresponse": 3120, "Ġmentioned": 3121, "Ġvary": 3122, "orith": 3123, "oll": 3124, "off": 3125, "AN": 3126, "Ġemerg": 3127, "-to": 3128, "angle": 3129, "Ġbrain": 3130, "OR": 3131, "Ġparticip": 3132, "Ġla": 3133, "Ġgroups": 3134, "Ġfront": 3135, "ĠNot": 3136, "Ġrice": 3137, "ĠMore": 3138, "Ġstop": 3139, "Ġingred": 3140, "Ġintegr": 3141, "Ġabsor": 3142, "ula": 3143, "Ġrecommended": 3144, "Ġbacteria": 3145, "Ġcontinue": 3146, "Ġtooth": 3147, "irus": 3148, "Ġveh": 3149, "Ġroll": 3150, "inct": 3151, "Ġpick": 3152, "Ġwat": 3153, "Ġful": 3154, "Ġeye": 3155, "Ġult": 3156, "Ġbelieve": 3157, "Ġensuring": 3158, "Ġdiagn": 3159, "ening": 3160, "Ġrecommend": 3161, "Ġswitch": 3162, "osure": 3163, "Ġcritical": 3164, "Ġbelie": 3165, "Ġspir": 3166, "Ġattract": 3167, "Ġwatch": 3168, "Ġarr": 3169, "ĠThen": 3170, "Ġ\\": 3171, "rist": 3172, "AC": 3173, "Ġtal": 3174, "27": 3175, "iddle": 3176, "eor": 3177, "Ġforest": 3178, "Ġcontains": 3179, "Ġobjects": 3180, "Ġpanel": 3181, "Ġtowards": 3182, "Ġlands": 3183, "Ġmoving": 3184, "Ġ...": 3185, "Ġrat": 3186, "**": 3187, "Ġdetails": 3188, "Ġmiss": 3189, "aks": 3190, "Ġsolid": 3191, "Ġsle": 3192, "35": 3193, "inally": 3194, "Ġcam": 3195, "Ġoriginal": 3196, "new": 3197, "Ġstone": 3198, "Ġanimal": 3199, "Ġfoods": 3200, "Ġreview": 3201, "artment": 3202, "Ġcancer": 3203, "45": 3204, "Ġsources": 3205, "Ġimplement": 3206, "vey": 3207, "ccording": 3208, "Ġpret": 3209, "Ġinvestig": 3210, "ST": 3211, "Ġheavy": 3212, "cking": 3213, "Is": 3214, "ounts": 3215, "Ġhor": 3216, "</": 3217, "Ġmedical": 3218, "Ġtomat": 3219, "Ġboard": 3220, "urb": 3221, "load": 3222, "ĠEurope": 3223, "ĠMost": 3224, "hern": 3225, "Ġfactor": 3226, "Ġexcell": 3227, "Ġmagnetic": 3228, "Ġblue": 3229, "Ġantenna": 3230, "Ġdrive": 3231, "Ġbran": 3232, "abric": 3233, "Ġequal": 3234, "ero": 3235, "Ġdoor": 3236, "Ġfly": 3237, "Ġtherm": 3238, "Ġdepth": 3239, "Ġmotor": 3240, "Ġguid": 3241, "Ġgraph": 3242, "Ġgives": 3243, "Ġready": 3244, "acy": 3245, "Ġroad": 3246, "Ġevidence": 3247, "Ġmaximum": 3248, "rim": 3249, "redit": 3250, "Ġparents": 3251, "Ġpaint": 3252, "wise": 3253, "orage": 3254, "Ġteach": 3255, "Step": 3256, "Ġusers": 3257, "Ġsolutions": 3258, "back": 3259, "acing": 3260, "Ġconnected": 3261, "Ġinches": 3262, "Ġscreen": 3263, "Ġdecre": 3264, "ulations": 3265, "Ġagg": 3266, "ests": 3267, "Ġvolcan": 3268, "Ġdisplay": 3269, "198": 3270, "Ġteac": 3271, "Ġsoftware": 3272, "Ġnumbers": 3273, "Ġoxygen": 3274, "app": 3275, "Ġgut": 3276, "EN": 3277, "Ġweeks": 3278, "pec": 3279, "Ġgoes": 3280, "Ġenhance": 3281, "min": 3282, "It's": 3283, "Ġbra": 3284, "Ġpublished": 3285, "icles": 3286, "ĠYes": 3287, "Ġencou": 3288, "ales": 3289, "Ġsection": 3290, "urs": 3291, "Ġinvolves": 3292, "Ġelse": 3293, "omic": 3294, "Ġnetwork": 3295, "amic": 3296, "Ġsix": 3297, "Ġprior": 3298, "ror": 3299, "Ġwel": 3300, "Be": 3301, "Ġthere's": 3302, "ma": 3303, "Ġdest": 3304, "itter": 3305, "Ġtechnique": 3306, "ID": 3307, "Ġelectrons": 3308, "cient": 3309, "Ġlimit": 3310, "volution": 3311, "Ġdish": 3312, "icate": 3313, "Ġliqu": 3314, "onic": 3315, "Ġbroad": 3316, "ptoms": 3317, "Ġaff": 3318, "Ġstructures": 3319, "ĠSchool": 3320, "Ġalgorith": 3321, "Ġcenter": 3322, "ĠStud": 3323, "Ġinstallation": 3324, "oud": 3325, "Ġkit": 3326, "ĠTechn": 3327, "ĠDep": 3328, "ologies": 3329, "pid": 3330, "Ġspect": 3331, "By": 3332, "aff": 3333, "ĠStates": 3334, "met": 3335, "Ġappearance": 3336, "Ġmovement": 3337, "arium": 3338, "Ġsmooth": 3339, "oming": 3340, "ĠPer": 3341, "Ġevol": 3342, "wood": 3343, "Ġeyes": 3344, "Ġparticles": 3345, "ĠRNA": 3346, "Ġcompanies": 3347, "encing": 3348, "Ġbecomes": 3349, "Ġblade": 3350, "ĠBi": 3351, "Ġlimited": 3352, "Ġband": 3353, "ustral": 3354, ".com": 3355, "Ġstat": 3356, "Ġversat": 3357, "With": 3358, "uted": 3359, "Ġdiv": 3360, "ĠLet": 3361, "Ġdegrees": 3362, "Ġaim": 3363, "Ġoutd": 3364, "Ġfruit": 3365, "illing": 3366, "Ġsett": 3367, "Ġmor": 3368, "itting": 3369, "Ġpoll": 3370, "Ġchann": 3371, "ĠMar": 3372, "Ġbattery": 3373, "Ġroots": 3374, "Ġtalk": 3375, "Ġfigure": 3376, "Ġvegetables": 3377, "Ġhabit": 3378, "Ġimportance": 3379, "yond": 3380, "hether": 3381, "ĠGl": 3382, "Ġdemonstr": 3383, "Ġrob": 3384, "ĠWhy": 3385, "Ġhair": 3386, "Ġactive": 3387, "illed": 3388, "Ġvisit": 3389, "ĠFl": 3390, "Ġtransfer": 3391, "Can": 3392, "While": 3393, "inated": 3394, "ĠCO": 3395, "come": 3396, "29": 3397, "ĠRem": 3398, "Ġeveryone": 3399, "Ġlat": 3400, "Ġtesting": 3401, "ĠQ": 3402, "These": 3403, "Ġreasons": 3404, "Ġscientific": 3405, "Ġradiation": 3406, "Ġdidn't": 3407, "hemat": 3408, "Ġreve": 3409, "oors": 3410, "Ġsequence": 3411, "Ġblock": 3412, "Ġcoast": 3413, "osite": 3414, "iny": 3415, "Ġmedia": 3416, "Ġflat": 3417, "epend": 3418, "Ġsave": 3419, "Ġtail": 3420, "Ġhappens": 3421, "Ġexcess": 3422, "Ġbud": 3423, "Ġproteins": 3424, "ĠMany": 3425, "Ġapprox": 3426, "Ġadult": 3427, "Ġfund": 3428, "Ġcapacity": 3429, "Ġevalu": 3430, "ĠNow": 3431, "Ġsignificantly": 3432, "ĠEnglish": 3433, "standing": 3434, "Ġaccept": 3435, "iful": 3436, "Ġtransport": 3437, "ĠSolar": 3438, "Ġsquare": 3439, "ok": 3440, "ĠNorth": 3441, "Ġestim": 3442, "Ġlawn": 3443, "ĠRec": 3444, "Ġarch": 3445, "ĠElect": 3446, "Ġdate": 3447, "ĠMet": 3448, "Ġideas": 3449, "ĠAss": 3450, "Ġfra": 3451, "Ġthr": 3452, "zy": 3453, "Ġwon't": 3454, ".g": 3455, "steroid": 3456, "Ġsurround": 3457, "more": 3458, "Ġfertil": 3459, "cape": 3460, "Ġsignals": 3461, "ulated": 3462, "uge": 3463, "Ġdiag": 3464, "ĠMy": 3465, "Ġwin": 3466, "ellig": 3467, "Ġinstruct": 3468, "Ġhands": 3469, "Ġmembers": 3470, "mber": 3471, "ĠAdditionally": 3472, "Ġtit": 3473, "ĠDraw": 3474, "Ġparam": 3475, "Ġvac": 3476, "Ġinnov": 3477, "eli": 3478, "Ġexcellent": 3479, "unch": 3480, "Ġupon": 3481, "Ġbill": 3482, "pa": 3483, "Ġcombination": 3484, "Ġstates": 3485, "ĠReg": 3486, "Ġremember": 3487, "âĢĻt": 3488, "iform": 3489, "rier": 3490, "....": 3491, "Ġhandle": 3492, "Ġgets": 3493, "Ġresid": 3494, "Ġtouch": 3495, "amb": 3496, "Ġiron": 3497, "Ġprint": 3498, "Ġoutf": 3499, "Ġplat": 3500, "ork": 3501, "Ġbread": 3502, "vity": 3503, "Ġlate": 3504, "hens": 3505, "Ġreducing": 3506, "oe": 3507, "ĠTra": 3508, "Ġfavor": 3509, "Ġhost": 3510, "iling": 3511, "Ġexpression": 3512, "Ġheight": 3513, "Ġapply": 3514, "Ġcame": 3515, "ĠÂ": 3516, "Ġlooks": 3517, "Ġsent": 3518, "ĠAlso": 3519, "ĠPre": 3520, "Ġlives": 3521, "Ġpotat": 3522, "Ġrapid": 3523, "Ġseems": 3524, "Ġfabric": 3525, "ously": 3526, "Ġrout": 3527, "Ġwalls": 3528, "Ġtherefore": 3529, "inder": 3530, "Ġimmedi": 3531, "Ġnews": 3532, "ĠPe": 3533, "ĠOnce": 3534, "Ġselection": 3535, "bit": 3536, "ixture": 3537, "Ġled": 3538, "75": 3539, "aker": 3540, "bility": 3541, "asting": 3542, "ĠI've": 3543, "ournal": 3544, "500": 3545, "vere": 3546, "Ġsites": 3547, "Ġtiss": 3548, "Ġcharacteristics": 3549, "Ġdang": 3550, "ĠSouth": 3551, "Ġaw": 3552, "Ġthus": 3553, "Ġdepends": 3554, "mosp": 3555, "ociety": 3556, "Ġcats": 3557, "eters": 3558, "Ġreturn": 3559, "ulate": 3560, "Ġfunctions": 3561, "Ġparas": 3562, "\".": 3563, "Ġedge": 3564, "Ġbenefit": 3565, "____": 3566, "Ġvert": 3567, "Ġplaced": 3568, "âĢ¢": 3569, "otic": 3570, "ervation": 3571, "Ġchallenges": 3572, "uration": 3573, "tt": 3574, "Ġmel": 3575, "ĠAustral": 3576, "Ġreading": 3577, "ĠWorld": 3578, "Ġstarting": 3579, "Ġexactly": 3580, "Ġstage": 3581, "Ġmoment": 3582, "ĠSim": 3583, "Ġweb": 3584, "Ġpretty": 3585, "Ġdental": 3586, "Ġsunlight": 3587, "Ġtraffic": 3588, "Ġconvers": 3589, "Ġcomfortable": 3590, "Ġshapes": 3591, "ĠOur": 3592, "Ġnav": 3593, "Re": 3594, "Ġinsect": 3595, "ĠAg": 3596, "obile": 3597, "Ġassist": 3598, "Ġvalu": 3599, "Ġsides": 3600, "Ġoperation": 3601, "Ġdifferences": 3602, "Ġexpensive": 3603, "Ġphase": 3604, "Ġexamples": 3605, "Ġmarine": 3606, "Ġpattern": 3607, "Ġthreat": 3608, "Ġsymptoms": 3609, "rought": 3610, "Ġleave": 3611, "Ġdiscovered": 3612, "ĠChe": 3613, "Ġserve": 3614, "Ġsoon": 3615, "Ġgoal": 3616, "wers": 3617, "ĠAb": 3618, "Ġdrug": 3619, "Ġfat": 3620, "TR": 3621, "Ġorganic": 3622, "Ġbond": 3623, "Ġincorpor": 3624, "Ġrelatively": 3625, "-free": 3626, "Ġ:": 3627, "Ġice": 3628, "Ġflavor": 3629, "empt": 3630, "ifically": 3631, "Ġ#": 3632, "Ġbalance": 3633, "Now": 3634, "Ġtask": 3635, "Ġimag": 3636, "Ġstorage": 3637, "Ġcry": 3638, "Ġdaily": 3639, "set": 3640, "Ġphen": 3641, "Ġmatch": 3642, "Ġpul": 3643, "Ġrise": 3644, "Ġfuel": 3645, "asc": 3646, "Ġpresence": 3647, "ĠIntern": 3648, "ĠInstitute": 3649, "roll": 3650, "Ġstudent": 3651, "Ġcooking": 3652, "Ġadvantage": 3653, "Ġdeveloping": 3654, "-qu": 3655, "Ġcentury": 3656, "Ġfilm": 3657, "resp": 3658, "Ġprice": 3659, "Ġworth": 3660, "IC": 3661, "----": 3662, "board": 3663, "He": 3664, "ĠSystem": 3665, "ĠAc": 3666, "Ġaer": 3667, "den": 3668, "Ġhope": 3669, "irm": 3670, "Ġserious": 3671, "Ġexpected": 3672, "Ġprecise": 3673, "ĠSm": 3674, "Pl": 3675, "Ġmouth": 3676, "Ġregions": 3677, "aser": 3678, "And": 3679, "Ġeffort": 3680, "Ġpoor": 3681, "Ġmold": 3682, "Ġsigns": 3683, "Ġscale": 3684, "Ġaccurate": 3685, "Ġcomponent": 3686, "aly": 3687, "con": 3688, "orial": 3689, "Ġengineering": 3690, "Ġclaim": 3691, "Ġpowerful": 3692, "atives": 3693, "Ġbow": 3694, "They": 3695, "Ġwonder": 3696, "36": 3697, "enge": 3698, "Ġfully": 3699, "Ġexisting": 3700, "RNA": 3701, "idth": 3702, "cription": 3703, "ĠBecause": 3704, "Ġinteresting": 3705, "sy": 3706, "overy": 3707, "Ġmedium": 3708, "Ġfro": 3709, "oration": 3710, "Ġexpert": 3711, "uild": 3712, "Ġdescribed": 3713, "semb": 3714, "Ġoccas": 3715, "Ġeggs": 3716, "Ġpen": 3717, "ibly": 3718, "Ġplane": 3719, "Ġsurfaces": 3720, "Ġreceive": 3721, "ĠWater": 3722, "ension": 3723, "Ġtaste": 3724, "Ġslightly": 3725, "Ġampl": 3726, "RE": 3727, "amed": 3728, "rol": 3729, "ĠGod": 3730, "Ġwet": 3731, "bor": 3732, "Ġrunning": 3733, "Ġrare": 3734, "Ġrepe": 3735, "ĠTheir": 3736, "Ġbright": 3737, "Ġinsulation": 3738, "ran": 3739, "Ġidentified": 3740, "Ġsecurity": 3741, "Ġasteroid": 3742, "Ġinform": 3743, "Ġharvest": 3744, "zz": 3745, "lier": 3746, "words": 3747, "Ġknife": 3748, "Ġdiam": 3749, "Ġten": 3750, "apter": 3751, "-up": 3752, "arr": 3753, "Ġsignificance": 3754, "Ġgovernment": 3755, "Ġeducation": 3756, "Ġvia": 3757, "Ġresulting": 3758, "-sh": 3759, "Ġdisp": 3760, "ography": 3761, "Ġplatform": 3762, "esthe": 3763, "icy": 3764, "era": 3765, "omb": 3766, "Ġsuccessful": 3767, "Ġwindow": 3768, "Ġformed": 3769, "Ġdeath": 3770, "rench": 3771, "Ġfriends": 3772, "Ġangles": 3773, "Ġarg": 3774, "Ġbeautiful": 3775, "Ġchromos": 3776, "eties": 3777, "Ġtransmission": 3778, "anging": 3779, "Ġpriv": 3780, "Ġreduced": 3781, "pite": 3782, "Ġatmosp": 3783, "Ġwearing": 3784, "Ġnothing": 3785, "Ġingredients": 3786, "Ġdistribution": 3787, "Ġflex": 3788, "Ġlocated": 3789, "ault": 3790, "Ġconver": 3791, "allel": 3792, "Ġachie": 3793, "ancing": 3794, "Ġsetting": 3795, "Ġemot": 3796, "inating": 3797, "ided": 3798, "ament": 3799, "rus": 3800, "Ġplayers": 3801, "ĠHealth": 3802, "Ġeffectively": 3803, "Ġcausing": 3804, "Ġwaves": 3805, "rops": 3806, "bi": 3807, "ĠAir": 3808, "Ġlabor": 3809, "change": 3810, "Ġgenerate": 3811, "cl": 3812, "Ġrelationship": 3813, "ĠDi": 3814, "ferences": 3815, "ĠEach": 3816, "ĠPC": 3817, "Ġdat": 3818, "icks": 3819, "Ġcurrently": 3820, "Ġdecision": 3821, "Ġsecure": 3822, "Ġonto": 3823, "Ġspirit": 3824, "Hz": 3825, "Ġpractical": 3826, "Ġtook": 3827, "IS": 3828, "Ġbeyond": 3829, "apan": 3830, "Ġsauce": 3831, "ĠAmerica": 3832, "Ġelim": 3833, "Ġmort": 3834, "yle": 3835, "inting": 3836, "Ġplaces": 3837, "Ġmeat": 3838, "hips": 3839, "ĠSw": 3840, "Ġthird": 3841, "Ġfaster": 3842, "Ġliquid": 3843, "Ġcycle": 3844, "Ġdesired": 3845, "term": 3846, "Ġwrong": 3847, "isions": 3848, "Ġincreases": 3849, "Ġdimens": 3850, "Ġdouble": 3851, "Ġmanufacturing": 3852, "Ġspot": 3853, "Ġround": 3854, "Ġnutrients": 3855, "ĠMake": 3856, "Ġclos": 3857, "Ġextremely": 3858, "Ġcoating": 3859, "Ġrich": 3860, "ancial": 3861, "Ġforward": 3862, "Ġmotion": 3863, "Ġalternative": 3864, "Ġculture": 3865, "ĠOver": 3866, "Ġlack": 3867, "Ġillustr": 3868, "Ġdemand": 3869, "Ġcolle": 3870, "Ġadvanced": 3871, "197": 3872, "Ġinsp": 3873, "Im": 3874, "Ġthous": 3875, "ressive": 3876, "Ġyellow": 3877, "ĠTrans": 3878, "issions": 3879, "ĠPar": 3880, "Ġincluded": 3881, "Ġfoundation": 3882, "Ġadvantages": 3883, "Ġscrew": 3884, "Ġnit": 3885, "itation": 3886, "Ġchanging": 3887, "ĠHigh": 3888, "Ġgold": 3889, "Ġconstruct": 3890, "eration": 3891, "rick": 3892, "ras": 3893, "oly": 3894, "Ġoccurs": 3895, "ificial": 3896, "iment": 3897, "ype": 3898, "Ġmachines": 3899, "Ġtrig": 3900, "wo": 3901, "ĠUsing": 3902, "ĠIts": 3903, "Ã©": 3904, "roduction": 3905, "rehens": 3906, "ĠOther": 3907, "rate": 3908, "Ġop": 3909, "Ġcontract": 3910, "Ġrules": 3911, "Ġprocessing": 3912, "Ġbecame": 3913, "Ġbreat": 3914, "ober": 3915, "Ġinfluence": 3916, "Ġanyone": 3917, "Ġsituation": 3918, "Ġvolume": 3919, "TEM": 3920, "Do": 3921, "onal": 3922, "At": 3923, "cules": 3924, "Ġversion": 3925, "Ġprepar": 3926, "ball": 3927, "Ġmeasures": 3928, "ĠAv": 3929, "Ġmos": 3930, "Ġtrack": 3931, "AM": 3932, "Ġcoming": 3933, "Ġcalc": 3934, "Ġdri": 3935, "Ġinstalled": 3936, ".e": 3937, "Ġbrown": 3938, "izer": 3939, "ulf": 3940, "right": 3941, "Ġthinking": 3942, "Ġratio": 3943, "unk": 3944, "isp": 3945, "32": 3946, "icine": 3947, "Ġresponsible": 3948, "quit": 3949, "Ġswim": 3950, "rage": 3951, "Ġkeeping": 3952, "ternal": 3953, "Ġfields": 3954, "Ġhyp": 3955, "IT": 3956, "PS": 3957, "Ġ*": 3958, "Ġdent": 3959, "Ġremains": 3960, "odies": 3961, "Ġanimation": 3962, "-quality": 3963, "hood": 3964, "Ġconnection": 3965, "ends": 3966, "Ġwidely": 3967, "Ġcamp": 3968, "Ġopportunity": 3969, "Ġrecently": 3970, "Ġhistor": 3971, "Ġcompar": 3972, "Ġseparate": 3973, "Ġ)": 3974, "odium": 3975, "fess": 3976, "ctors": 3977, "ana": 3978, "Ġpatient": 3979, "Ġdyn": 3980, "idity": 3981, "ded": 3982, "ĠTH": 3983, "Ġfilter": 3984, "Ġsem": 3985, "ned": 3986, "Ġdesigns": 3987, "ĠTherefore": 3988, "andom": 3989, "unction": 3990, "ĠSince": 3991, "Ġpet": 3992, "Ġfinding": 3993, "Ġder": 3994, "ĠMod": 3995, "Ġnote": 3996, "ĠChrist": 3997, "Ġalthough": 3998, "Ġgeneration": 3999, "ĠLear": 4000, "Ġobserved": 4001, "ĠSte": 4002, "Ġquantum": 4003, "Ġ{": 4004, "Ġtasks": 4005, "Ġbed": 4006, "Ġion": 4007, "ĠAut": 4008, "Ġdistinct": 4009, "ĠÎ": 4010, "...Ċ": 4011, "dom": 4012, "Ġuniform": 4013, "Ġattempt": 4014, "Ġyou've": 4015, "Ġmolecular": 4016, "Ġpages": 4017, "Ġplanet": 4018, "Ġhomes": 4019, "uminum": 4020, "Ġstuff": 4021, "aled": 4022, "ĠEm": 4023, "Ġvaluable": 4024, "NC": 4025, "Ġintellig": 4026, "ĠFirst": 4027, "ĠInc": 4028, "Ġupd": 4029, "Ġdiss": 4030, "Ġaffected": 4031, "Ġdead": 4032, "Ġactual": 4033, "Ġcateg": 4034, "Ġtechnologies": 4035, "fl": 4036, "tle": 4037, "Ġinstance": 4038, "Ġblog": 4039, "Ġpicture": 4040, "Ġhuge": 4041, "ĠCenter": 4042, "Ġfair": 4043, "Ġdeal": 4044, "Here": 4045, "Ġren": 4046, "Ġplanting": 4047, "Ġindustrial": 4048, "AL": 4049, "adem": 4050, "Ġchance": 4051, "ĠRep": 4052, "Ġdust": 4053, "Ġflour": 4054, "ened": 4055, "Ġsuff": 4056, "Ġplanning": 4057, "Ġdog": 4058, "Ġcity": 4059, "haps": 4060, "Ġdocument": 4061, "Ġdurability": 4062, "Ġrates": 4063, "uracy": 4064, "Ġbound": 4065, "Ġund": 4066, "Some": 4067, "Ġmid": 4068, "Ġcounter": 4069, "Ġfarm": 4070, "izations": 4071, "Ġlost": 4072, "ĠJoh": 4073, "Ġmixture": 4074, "Ġcleaning": 4075, "Ġelectro": 4076, "ĠWest": 4077, "etics": 4078, "Ġcustomers": 4079, "Ġspr": 4080, "Ġvirus": 4081, "Ġcas": 4082, "Ġsamples": 4083, "Ġorganisms": 4084, "house": 4085, "Us": 4086, "Ġconcern": 4087, "iforn": 4088, "ĠJust": 4089, "Ġcontext": 4090, "Ġdefined": 4091, "ĠWhether": 4092, "ĠRed": 4093, "Ġreported": 4094, "Ġequation": 4095, "ourney": 4096, "Ġnoise": 4097, "Res": 4098, "arge": 4099, "ource": 4100, "Ġgiving": 4101, "Ġpractices": 4102, "ken": 4103, "Ph": 4104, "lands": 4105, "300": 4106, "Ġrub": 4107, "Ġexpand": 4108, "Ġvirt": 4109, "Ġstar": 4110, "Ġdon": 4111, "sych": 4112, "hest": 4113, "ying": 4114, "undred": 4115, "uits": 4116, "Ġreference": 4117, "Ġdensity": 4118, "hel": 4119, "Ġhour": 4120, "Ġgradu": 4121, "chr": 4122, "Ġeru": 4123, "Ġshell": 4124, "âĪ": 4125, "Ġpool": 4126, "Ġpull": 4127, "Ġcommunities": 4128, "ĠFe": 4129, "Ġlargest": 4130, "Ġchicken": 4131, "Ġspl": 4132, "vered": 4133, "'d": 4134, "Ġdiscover": 4135, "Ġexposure": 4136, "mar": 4137, "Ġcoord": 4138, "Ġcontribute": 4139, "ometry": 4140, "oles": 4141, "osystem": 4142, "ĠJapan": 4143, "33": 4144, "Ġrelevant": 4145, "ĠAlthough": 4146, "derstanding": 4147, "Ġsevere": 4148, "iate": 4149, "Ġmaintaining": 4150, "However": 4151, "icon": 4152, "Ġstrategies": 4153, "Ġinj": 4154, "Ġaspects": 4155, "ifornia": 4156, "ĠMin": 4157, "Ġsav": 4158, "tered": 4159, "Ġtests": 4160, "ĠEven": 4161, "ÂŃ": 4162, "Ġcorresp": 4163, "Ġcrusher": 4164, "dy": 4165, "Ġreliable": 4166, "Ġcup": 4167, "Ġallowed": 4168, "inger": 4169, "||": 4170, "Ġnotice": 4171, "Ġinterp": 4172, "Ġaquarium": 4173, "gr": 4174, "Ġtele": 4175, "asts": 4176, "order": 4177, "Ġmiddle": 4178, "Ġdivers": 4179, "Ġmulti": 4180, "ĠState": 4181, "word": 4182, "Ġfinancial": 4183, "ishes": 4184, "Ġmolecules": 4185, "Ġneut": 4186, "Ġsample": 4187, "Ġax": 4188, "working": 4189, "Se": 4190, "Ġinfection": 4191, "plant": 4192, "Ġremoved": 4193, "ister": 4194, "Ġchoosing": 4195, "-term": 4196, "Ġeating": 4197, "ĠPart": 4198, "ky": 4199, "Ġbehavi": 4200, "itect": 4201, "ricult": 4202, "Ġsort": 4203, "Ġwindows": 4204, "ĠAC": 4205, "ptions": 4206, "Ġparallel": 4207, "Ġsizes": 4208, "Ġprofession": 4209, "works": 4210, "lebr": 4211, "Ġperm": 4212, "enty": 4213, "ĠBrit": 4214, "Ġaren't": 4215, "ĠPot": 4216, "Ġcollabor": 4217, "Ġbab": 4218, "ony": 4219, "Ġstandards": 4220, "ĠWho": 4221, "Ġsurpr": 4222, "Ġwrite": 4223, "Ġinternal": 4224, "Ġprograms": 4225, "ĠSec": 4226, "icious": 4227, "ET": 4228, "Ġsugar": 4229, "rest": 4230, "Ġwriting": 4231, "Ġoperations": 4232, "Ġfile": 4233, "Ġstick": 4234, "En": 4235, "Ġcovered": 4236, "Ġtransl": 4237, "Ġscen": 4238, "ĠArt": 4239, "Ġ<": 4240, "Ġran": 4241, "Ġbasis": 4242, "Ġspecifically": 4243, "Ġsleep": 4244, "ipped": 4245, "urrent": 4246, "Ġabsorb": 4247, "ancy": 4248, "Ġbegan": 4249, "Ġunits": 4250, "agnetic": 4251, "Ġmosquit": 4252, "ĠNOT": 4253, "ĠPa": 4254, "Ġaesthe": 4255, "Conc": 4256, "ipes": 4257, "Ġatoms": 4258, "Ġcircle": 4259, "que": 4260, "Ġbrand": 4261, "ications": 4262, "05": 4263, "ĠThat's": 4264, "time": 4265, "umber": 4266, "elines": 4267, "Ġflood": 4268, "Ġmonit": 4269, "Ġpromot": 4270, "Ġtypical": 4271, "rans": 4272, "Ġdegree": 4273, "All": 4274, "bles": 4275, "Ġimpacts": 4276, "rition": 4277, "Ġmist": 4278, "Ġsweet": 4279, "Ġcollection": 4280, "Ġbags": 4281, "Ġaccuracy": 4282, "Ġstructural": 4283, "ask": 4284, "Ġprecision": 4285, "Ġhundred": 4286, "Ġwe're": 4287, "Ġchallenge": 4288, "Ġbeginning": 4289, "iences": 4290, "Ġpron": 4291, "Ġsex": 4292, "ĠSun": 4293, "Ġpump": 4294, "och": 4295, "Ġpin": 4296, "Ġdie": 4297, "48": 4298, "Ġship": 4299, "Ġcredit": 4300, "bl": 4301, "iverse": 4302, "ashing": 4303, "che": 4304, "inking": 4305, "Ġindepend": 4306, "Ġenvironments": 4307, "Ġlet's": 4308, "Ġmeasured": 4309, "Ġfrequently": 4310, "Ġjourney": 4311, "Ġdescribe": 4312, "Ġhole": 4313, "ĠCalifornia": 4314, "Ġcontainer": 4315, "Ġfemale": 4316, "sp": 4317, "Ġhoriz": 4318, "ux": 4319, "Ġdrain": 4320, "ypes": 4321, "vol": 4322, "Ġcomprehens": 4323, "ifying": 4324, "Ġhighlight": 4325, "urally": 4326, "CO": 4327, "Ġvent": 4328, "-y": 4329, "Ġclothes": 4330, "ica": 4331, "Ġlinks": 4332, "Ġlayers": 4333, "book": 4334, "iff": 4335, "ĠHarry": 4336, "ek": 4337, "Ġinstructions": 4338, "Ġprogress": 4339, "Ġleaf": 4340, "Ġnavig": 4341, "ĠMon": 4342, "US": 4343, "oice": 4344, "Ġreality": 4345, "Ġhit": 4346, "Ġwritten": 4347, "Ġdetailed": 4348, "igen": 4349, "Ġmit": 4350, "zing": 4351, "ĠRad": 4352, "ny": 4353, "Ġfinish": 4354, "Ġclim": 4355, "37": 4356, "):": 4357, "reet": 4358, "Ġengines": 4359, "Ġtexture": 4360, "Ġzero": 4361, "ada": 4362, "31": 4363, "ING": 4364, "Ġexposed": 4365, "Ġholes": 4366, "Ġwalk": 4367, "Ġstream": 4368, "Ġdescri": 4369, "Ġpowder": 4370, "AD": 4371, "ĠGerm": 4372, "equ": 4373, "Ġwheat": 4374, "Ġregularly": 4375, "Ġgir": 4376, "abilities": 4377, "lt": 4378, "gram": 4379, "Ġelectronic": 4380, "Ġflying": 4381, "ION": 4382, "Ġapproximately": 4383, "hol": 4384, "Ġgenerated": 4385, "Ġsubs": 4386, "Ġhous": 4387, "Ġgrown": 4388, "ĠAct": 4389, "Ġclock": 4390, "amental": 4391, "Ġbecoming": 4392, "Ġpilot": 4393, ":c": 4394, "Ġproport": 4395, "Ġseg": 4396, "Ġsets": 4397, "umm": 4398, "Ġphone": 4399, "Ġflower": 4400, "urt": 4401, "vironment": 4402, "Ġinternational": 4403, "Ġthermal": 4404, "usion": 4405, "Ġnearly": 4406, "elt": 4407, "Ġvital": 4408, "Ġtopic": 4409, "rows": 4410, "ĠTime": 4411, "used": 4412, "amin": 4413, "acters": 4414, "Ġkil": 4415, "ĠEngine": 4416, "Ġmathemat": 4417, "Ġelev": 4418, "Ġshad": 4419, "Ġplease": 4420, "Ġoptimal": 4421, "Ġensures": 4422, "Ġhaz": 4423, "Ġtrust": 4424, "thes": 4425, "Ġmechanism": 4426, "irect": 4427, "ĠPower": 4428, "Ġvi": 4429, "Ġfraud": 4430, "ĠMal": 4431, "Ġplays": 4432, "Ġcore": 4433, "ĠAccording": 4434, "amps": 4435, "oding": 4436, "Ġexperiences": 4437, "icro": 4438, "Ġvector": 4439, "Ġvarieties": 4440, "Ġtox": 4441, "Ġasked": 4442, "Ġecosystem": 4443, "Ġconsequ": 4444, "ira": 4445, "99": 4446, "Ġopportunities": 4447, "Ġassemb": 4448, "Ġflowers": 4449, "Ġapart": 4450, "ares": 4451, "ĠĠ": 4452, "Ġtiny": 4453, "ocol": 4454, "-like": 4455, "Ġtax": 4456, "Ġstrategy": 4457, "Ġstyles": 4458, "Ġcouple": 4459, "ĠSTEM": 4460, "65": 4461, "Ġsmart": 4462, "Ġoutdoor": 4463, "After": 4464, "Ġrelease": 4465, "Ġwent": 4466, "ags": 4467, "Ġtriangle": 4468, "Ġassum": 4469, "Another": 4470, "oughly": 4471, "Ġdurable": 4472, "Ġstatement": 4473, "EC": 4474, "itary": 4475, "Ġbuildings": 4476, "Ġinterested": 4477, "Ġqual": 4478, "Ġcontrast": 4479, "ĠInt": 4480, "Ġformal": 4481, "Ġimmediately": 4482, "aught": 4483, "Ġconcer": 4484, "ios": 4485, "Ġdetermined": 4486, "Ġplate": 4487, "ille": 4488, "illi": 4489, "ava": 4490, "ĠIns": 4491, "-se": 4492, "brid": 4493, "Ġnumerous": 4494, "Ġefforts": 4495, "umn": 4496, "Ġsuggests": 4497, "ipp": 4498, "asm": 4499, "Ġconsumption": 4500, "pective": 4501, "pril": 4502, "Ġexhib": 4503, "Ġalign": 4504, "Ġestablish": 4505, "duc": 4506, "Ġprocedure": 4507, "ĠAfrica": 4508, "Ġemail": 4509, "Ġreceived": 4510, "Ġhydro": 4511, "-r": 4512, "Ġchanged": 4513, "ilies": 4514, "Ġformula": 4515, "196": 4516, "?\"": 4517, "bris": 4518, "Ġshowed": 4519, "Ġinstrum": 4520, "Ab": 4521, "Ġspin": 4522, "mm": 4523, "Ġmilk": 4524, "Ġminimum": 4525, "Ġhom": 4526, "Ġcy": 4527, "infor": 4528, "Ġrandom": 4529, "ferent": 4530, "eline": 4531, "Ġliter": 4532, "azing": 4533, "ollow": 4534, "Ġrule": 4535, "face": 4536, "Ke": 4537, "Ġvit": 4538, "ountain": 4539, "Ġsimpl": 4540, "That": 4541, "opl": 4542, "ĠEd": 4543, ".âĢĿ": 4544, "Ġexerc": 4545, "Ġvertical": 4546, "Ġclin": 4547, "ighter": 4548, "34": 4549, "Ġmiles": 4550, "Ġraw": 4551, "iveness": 4552, "oday": 4553, ".)": 4554, "place": 4555, "Ġquar": 4556, "Ġenter": 4557, "Ġfindings": 4558, "Ġchlor": 4559, "AP": 4560, "Ġmobile": 4561, "Ġvibr": 4562, "uary": 4563, "Ġded": 4564, "Ġbooks": 4565, "irts": 4566, "Ġrecipe": 4567, "Ġconsists": 4568, "Ġatmosphere": 4569, "Ġast": 4570, "Ġoperating": 4571, "Ġthor": 4572, "Ġrecycling": 4573, "38": 4574, "Ġsharp": 4575, "Ġconsistent": 4576, "Ġshall": 4577, "er's": 4578, "utorial": 4579, "Ġrisks": 4580, "ructure": 4581, "Ġversatile": 4582, "Ġprepared": 4583, "Ġmale": 4584, "Answer": 4585, "Ġcarefully": 4586, "Ġcopper": 4587, "ocal": 4588, "Ġalt": 4589, "Ġperformed": 4590, "SP": 4591, "Ġmis": 4592, "Ġbackground": 4593, "Ġpotentially": 4594, "iliar": 4595, "Ġalone": 4596, "Ġfavorite": 4597, "Ġdrop": 4598, "Ġstable": 4599, "No": 4600, "Ġbiological": 4601, "Ġcharacters": 4602, "Ġvehicle": 4603, "related": 4604, "chen": 4605, "onding": 4606, "Ġsche": 4607, "Ġcelebr": 4608, "Ġbulbs": 4609, "Ġchoices": 4610, "aren": 4611, "Ġidentity": 4612, "Ġbusinesses": 4613, "Ġindustries": 4614, "rosion": 4615, "oman": 4616, "Ġstation": 4617, "Ġcart": 4618, "rical": 4619, "Ġevolutionary": 4620, "ĠJan": 4621, "Ġagree": 4622, "hold": 4623, "ha": 4624, "Ġsustainable": 4625, "Ġpurposes": 4626, "ye": 4627, ",âĢĿ": 4628, "Des": 4629, "ĠIndia": 4630, "Ġpopulations": 4631, "Ġsatis": 4632, "Ġmetals": 4633, "Ġmechanical": 4634, "55": 4635, "Ġroofing": 4636, "Ġadvance": 4637, "Ġexternal": 4638, "Ġfiber": 4639, "Ġestablished": 4640, "Ġscan": 4641, "Ġhydrogen": 4642, "ĠDay": 4643, "ĠVol": 4644, "Ġfixed": 4645, "icking": 4646, "Ġpenc": 4647, "atically": 4648, "Ġfishing": 4649, "ĠUK": 4650, "Ġartificial": 4651, "tes": 4652, "ĠSl": 4653, "Ġschools": 4654, "ĠâĢ¢": 4655, "rosc": 4656, "Ġphenomen": 4657, "Ġmostly": 4658, "Ġur": 4659, "Ġstain": 4660, "Ġpal": 4661, "RO": 4662, "Ġgames": 4663, "Ġlatest": 4664, "Ġdiverse": 4665, "Ġdebris": 4666, "Ġformation": 4667, "Ġimproved": 4668, "-S": 4669, "Ġgear": 4670, "uman": 4671, "Ġappears": 4672, "Ġdiagram": 4673, "Ġchannel": 4674, "ĠOut": 4675, "Our": 4676, "Ġtissue": 4677, "rupt": 4678, "Ġnational": 4679, "Ġcultural": 4680, "Ġchain": 4681, "ĠHist": 4682, "Ġtherap": 4683, "Ġstability": 4684, "Ġpig": 4685, "Ġuns": 4686, "Ġweak": 4687, "Ġcheese": 4688, "Ġisol": 4689, "lets": 4690, "Ġwanted": 4691, "Ġorganization": 4692, "Ġaluminum": 4693, "ĠEnergy": 4694, "Ġcos": 4695, "Ġcentral": 4696, "ipping": 4697, "osen": 4698, "uk": 4699, "ĠLight": 4700, "ĠAdd": 4701, "Ġheld": 4702, "Ġcasual": 4703, "ĠClass": 4704, "vision": 4705, "Ġarchitect": 4706, "Ġwal": 4707, "Ġneigh": 4708, "olute": 4709, "Ġoutfit": 4710, "Ġcompounds": 4711, "ĠPlant": 4712, "Ġfollowed": 4713, "Once": 4714, "//": 4715, "ĠDis": 4716, "uth": 4717, "Ġphysics": 4718, "Ġexperienced": 4719, "Ġindicate": 4720, "ĠStep": 4721, "-le": 4722, "Ġcomprehensive": 4723, "yd": 4724, "ĠOct": 4725, "Ġmessage": 4726, "ropical": 4727, "Ġplaying": 4728, "Ġhighest": 4729, "Ġfung": 4730, "ĠFrench": 4731, "Ġdeb": 4732, "Ġvs": 4733, "Ġgrid": 4734, "hemical": 4735, "Ġdamaged": 4736, "acking": 4737, "ventional": 4738, "Ġmainly": 4739, "Ġpreviously": 4740, "lean": 4741, "ĠChar": 4742, "Ġvisible": 4743, "onge": 4744, "otics": 4745, "Ġspectrum": 4746, "iers": 4747, "ĠRead": 4748, "alse": 4749, "Ġbiology": 4750, "Ġcars": 4751, "ĠSch": 4752, "ifferent": 4753, "reed": 4754, "Ġlearned": 4755, "wide": 4756, "Ġsensitive": 4757, "Ġearlier": 4758, "78": 4759, "Ġrefers": 4760, "Ġatom": 4761, "phalt": 4762, "Ġamounts": 4763, "oves": 4764, "Ġadop": 4765, "ĠII": 4766, "Ġleads": 4767, "ĠOcean": 4768, "Ġbutter": 4769, "Ġapprec": 4770, "asp": 4771, "iced": 4772, "ĠSur": 4773, "Ġteachers": 4774, "Ġclick": 4775, "Ġlandscape": 4776, "ivil": 4777, "ĠDepartment": 4778, "Ġemissions": 4779, "ĠEvery": 4780, "rade": 4781, "cious": 4782, "Ġspray": 4783, "ĠGe": 4784, "Ġworked": 4785, "iction": 4786, "400": 4787, "Ġmeasurement": 4788, "Ġsounds": 4789, "Ġprepare": 4790, "Ġseal": 4791, "Ġtechnical": 4792, "Ġbodies": 4793, "Ġfeeding": 4794, "win": 4795, "Ġcreates": 4796, "anes": 4797, "Ġflav": 4798, "Ġthousands": 4799, "abol": 4800, "Ġcrop": 4801, "ĠDoes": 4802, "Ġcorrectly": 4803, "Ġolder": 4804, "key": 4805, "aur": 4806, "ĠProfess": 4807, "Ġeventually": 4808, "Ġmixed": 4809, "atever": 4810, "oxide": 4811, "Ġintroduced": 4812, "ĠServ": 4813, "Ġfrag": 4814, "Ġcomplic": 4815, "ĠBet": 4816, "stract": 4817, "Ġmusc": 4818, "Ġzone": 4819, "Ġobvious": 4820, "Ġexperiments": 4821, ">Ċ": 4822, "39": 4823, "Ġconven": 4824, "Ġpsych": 4825, "Ġinspect": 4826, "Ġpotatoes": 4827, "Ġbutton": 4828, "Ġforces": 4829, "ĠKeep": 4830, "irds": 4831, "Ġpurchase": 4832, "Ġcompound": 4833, "Ġcreative": 4834, "><": 4835, "Ġdiameter": 4836, "Ġfunctional": 4837, "ĠDuring": 4838, "icated": 4839, "Ġalgorithm": 4840, "Ġcryst": 4841, "Ġmutations": 4842, "Ġprimarily": 4843, "which": 4844, "Ġcombined": 4845, "Ġsket": 4846, "celer": 4847, "Ġign": 4848, "Ġcommit": 4849, "Ġkept": 4850, "PC": 4851, "uly": 4852, "Ġsequences": 4853, "Ġcomposition": 4854, "Ġaggreg": 4855, "Ġworn": 4856, "Ġtun": 4857, "-C": 4858, "ees": 4859, "Ġhelpful": 4860, "Ġsell": 4861, "Ġinver": 4862, "ection": 4863, "Ġdivid": 4864, "cap": 4865, "Ġheating": 4866, "ugg": 4867, "Ġsho": 4868, "Ġhelping": 4869, "Ġturned": 4870, "estone": 4871, "Are": 4872, "Ġexperts": 4873, "Ġconfidence": 4874, "eper": 4875, "Ġcareer": 4876, "Ġphotos": 4877, "hyd": 4878, "ĠConsider": 4879, "ifier": 4880, "Ġlic": 4881, "150": 4882, "Ġremote": 4883, "Ġmaybe": 4884, "ontal": 4885, "Ġcab": 4886, "Ġopposite": 4887, "Ġconclusion": 4888, "Ġsheet": 4889, "Ġkinds": 4890, "rowing": 4891, "antic": 4892, "ĠAug": 4893, "ĠWar": 4894, "Ġtomatoes": 4895, "cell": 4896, "Ġtall": 4897, "Ġmaster": 4898, "atural": 4899, "Ġarm": 4900, "Ġaware": 4901, "Ġcopy": 4902, "Ġbillion": 4903, "Ġretain": 4904, "Ġmother": 4905, "Ġtalking": 4906, "Ġdigest": 4907, "Ġrepresents": 4908, "Ġresource": 4909, "ida": 4910, "Ġproduces": 4911, "Ġancient": 4912, "Ġcontrolled": 4913, "omy": 4914, "Ġorigin": 4915, "Ġregarding": 4916, "Ġcustomer": 4917, "Ġsend": 4918, "Ġanswers": 4919, "Ġfeeling": 4920, "Ġnice": 4921, "see": 4922, "ĠDesign": 4923, "Ġplans": 4924, "Ġlots": 4925, "ingu": 4926, "ĠWell": 4927, "ss": 4928, "Ġfrequencies": 4929, "Ġacqu": 4930, "Ġindu": 4931, "Ġcarried": 4932, "ĠHis": 4933, "Ġmental": 4934, "Ġden": 4935, "aked": 4936, "Yes": 4937, "imal": 4938, "Ġinvestment": 4939, "itely": 4940, "Ġobtained": 4941, "Ġsnow": 4942, "ĠBar": 4943, "osph": 4944, "oil": 4945, "Sc": 4946, "Ġlaser": 4947, "ender": 4948, "Ġconcentration": 4949, "Ġproducing": 4950, "heet": 4951, "Ġcapable": 4952, "Ġstem": 4953, "Ġtoler": 4954, "Ġparameters": 4955, "Ġprofessionals": 4956, "EM": 4957, "Ġlabel": 4958, "Ġoperate": 4959, "ech": 4960, "ĠChina": 4961, "Ġwhose": 4962, "Ġinfl": 4963, "ief": 4964, "flow": 4965, "Ġextract": 4966, "Ġedges": 4967, "Ġstarts": 4968, "Ġwiring": 4969, "ND": 4970, "Ar": 4971, "unt": 4972, "Ġreduction": 4973, "ĠMarch": 4974, "Ġdrill": 4975, "Ġtrends": 4976, "Ġplayer": 4977, "Ġspaces": 4978, ";Ċ": 4979, "weight": 4980, "Ġhon": 4981, "Ġmusic": 4982, "/or": 4983, "phas": 4984, "ĠYork": 4985, "uries": 4986, "Ġsaying": 4987, "ĠDC": 4988, "rome": 4989, "Ġreferred": 4990, "Ġeth": 4991, "urance": 4992, "Ġcalculate": 4993, "with": 4994, "ĠAustralia": 4995, "Ġvideos": 4996, "AB": 4997, "ĠConc": 4998, "Ġgarlic": 4999, "Ġafford": 5000, "Ġconcepts": 5001, "Ġhomeown": 5002, "Ġconsidering": 5003, "Ġsurrounding": 5004, "Ġsettings": 5005, "iet": 5006, "Ġattack": 5007, "ĠExpl": 5008, "akers": 5009, "01": 5010, "Ġ>": 5011, "outhern": 5012, "ses": 5013, "Ġcompl": 5014, "Ġtold": 5015, "Ġseconds": 5016, "Ġcable": 5017, "ĠPV": 5018, "Ġstored": 5019, "Ġowners": 5020, "Ġupper": 5021, "Ġburn": 5022, "Ġconsult": 5023, "Ġchemicals": 5024, "ĠPlan": 5025, "gu": 5026, "ĠApril": 5027, "Ġcooked": 5028, "Ġerror": 5029, "proof": 5030, "Ġmanufacturer": 5031, "Ġmember": 5032, "Ġgrain": 5033, "-time": 5034, "Ġtube": 5035, "Conclusion": 5036, "Ġrect": 5037, "].": 5038, "Ġmamm": 5039, "atin": 5040, "Ġsatell": 5041, "ĠProject": 5042, "rot": 5043, "lings": 5044, "Ġple": 5045, "Ġnative": 5046, "Ġmeteor": 5047, "Ġshowing": 5048, "ibrary": 5049, "Ġcm": 5050, "Ġsufficient": 5051, "Ġca": 5052, "Ġhear": 5053, "Ġextensive": 5054, "ented": 5055, "ĠGreen": 5056, "rief": 5057, "Ġvul": 5058, "Ġdangerous": 5059, "iples": 5060, "Ġshel": 5061, "crib": 5062, "ester": 5063, "bre": 5064, "Ġconfig": 5065, "Ġpric": 5066, "Ġnamed": 5067, "arts": 5068, "Ġfilled": 5069, "Ġsuppl": 5070, "Ġjack": 5071, "OS": 5072, "Ġfed": 5073, "ads": 5074, "AA": 5075, "47": 5076, "Ġtrou": 5077, "Ġdu": 5078, "=\"": 5079, "oof": 5080, "ĠThus": 5081, "oom": 5082, "ĠDet": 5083, "ĠInter": 5084, "wear": 5085, "Ġmeasurements": 5086, "Ġdefinition": 5087, "kin": 5088, "Ġparticle": 5089, "ought": 5090, "Ġresistant": 5091, "rip": 5092, "amics": 5093, "Ġbudget": 5094, "Ġnaturally": 5095, "Ġestimated": 5096, "Ġrelax": 5097, "ĠOpen": 5098, "IG": 5099, "Ġencourage": 5100, "ĠAny": 5101, "ĠSol": 5102, "Ġeconomic": 5103, "Ġmanage": 5104, "uilding": 5105, "Ġautism": 5106, "ĠInternational": 5107, "ilit": 5108, "roph": 5109, "Ġdro": 5110, "Ġhappy": 5111, "46": 5112, "lass": 5113, "ĠWood": 5114, "Ġclay": 5115, "ĠJohn": 5116, "ums": 5117, "ptember": 5118, "Ġattached": 5119, "opes": 5120, "anges": 5121, "Ġoffice": 5122, "Ġreinfor": 5123, "Ġnormally": 5124, "Over": 5125, "-re": 5126, "ulating": 5127, "Ġsituations": 5128, "Ġdiversity": 5129, "Ġoxid": 5130, "Ġbranches": 5131, "Ġcamera": 5132, "Ġbulb": 5133, "Ġkeywords": 5134, "'m": 5135, "Ġfight": 5136, "cript": 5137, "ĠExper": 5138, "ico": 5139, "Ġtight": 5140, "06": 5141, "riendly": 5142, "Ġblocks": 5143, "Ġcrops": 5144, "Figure": 5145, "ager": 5146, "Ġemp": 5147, "Ġcolour": 5148, "âĢľ": 5149, "Ġbeneficial": 5150, "Ġcontinues": 5151, "chers": 5152, "life": 5153, "Ġcorrosion": 5154, "Ġspend": 5155, "gy": 5156, "ued": 5157, "Com": 5158, "erate": 5159, "ĠMain": 5160, "ormal": 5161, "dent": 5162, "Ġbeans": 5163, "Ġfamilies": 5164, "ĠFound": 5165, "Ġselected": 5166, "Ġsociety": 5167, "ĠEl": 5168, "Ġfasc": 5169, "what": 5170, "Ġstru": 5171, "Ġadvice": 5172, "Ġtub": 5173, "Ġnutrition": 5174, "areness": 5175, "95": 5176, "Ġanti": 5177, "Ġtutorial": 5178, "ologists": 5179, "uments": 5180, "ĠIndian": 5181, "Ġteaching": 5182, "Ġexception": 5183, "IV": 5184, "Ġboost": 5185, "uis": 5186, "ĠMc": 5187, "Unknown": 5188, "Ġwing": 5189, "hyl": 5190, "Ġjournal": 5191, "Ġadds": 5192, "ocket": 5193, "Ġexplan": 5194, "inese": 5195, "Ġloose": 5196, "Ġcompetition": 5197, "Most": 5198, "Ġdeliver": 5199, "Ġlose": 5200, "org": 5201, "Ġham": 5202, "ĠJune": 5203, "Bl": 5204, "Ġturns": 5205, "Ġheard": 5206, "Ġassign": 5207, "Ġhumidity": 5208, "ĠTechnology": 5209, "ĠBlack": 5210, "Ġimmune": 5211, "Ġgrains": 5212, "Ġwires": 5213, "ially": 5214, "Ġchallenging": 5215, "Ġsubm": 5216, "zen": 5217, "ĠBr": 5218, "Ġenth": 5219, "Ġdecor": 5220, "Ġtransition": 5221, "Ġuniverse": 5222, "Ġofficial": 5223, "Ġgun": 5224, "Ġgerm": 5225, "pring": 5226, "Ġtoward": 5227, "Ġcomputers": 5228, "ĠBoth": 5229, "Ġdriving": 5230, "Ġmonitoring": 5231, "Use": 5232, "Ġgrinding": 5233, "Ġfundamental": 5234, "itors": 5235, "Ġincred": 5236, "Ġbirth": 5237, "Ġreleased": 5238, "Ġattire": 5239, "ĠDon't": 5240, "Ġharmful": 5241, "Ġbrought": 5242, "Ġinvolve": 5243, "Ġintest": 5244, "erals": 5245, "Ġrenew": 5246, "Ġwe'll": 5247, "Ġkitchen": 5248, "-year": 5249, "Ġdishes": 5250, "Ġcuts": 5251, "urthermore": 5252, "-F": 5253, "Ġcontaining": 5254, "ĠHer": 5255, "Ġscenari": 5256, "Ġrespond": 5257, "arent": 5258, "Ġdecades": 5259, "/s": 5260, "vents": 5261, "ĠBas": 5262, "Ġorganizations": 5263, "eless": 5264, "Ġfurn": 5265, "Ġunivers": 5266, "body": 5267, "195": 5268, "Ġlocations": 5269, "Ġdiscovery": 5270, "yth": 5271, "Ġpromote": 5272, "Ġends": 5273, "-M": 5274, "Ġconnections": 5275, "Ġencoun": 5276, "Ġvision": 5277, "Ġpresented": 5278, "Ġintelligence": 5279, "Ġstaff": 5280, "Ġmeal": 5281, "Ġconducted": 5282, "Ġcorn": 5283, "ĠAng": 5284, "Ġreactions": 5285, "ipl": 5286, "orter": 5287, "Ġequival": 5288, "ĠUp": 5289, "nes": 5290, "Ġvegetable": 5291, "eliac": 5292, "Ġmig": 5293, "Ġkill": 5294, "Ġoffering": 5295, "Ġcand": 5296, "Ġconcentr": 5297, "Ġabund": 5298, "Ġcompact": 5299, "Ġaccessories": 5300, "Ġthickness": 5301, "Ġshared": 5302, "Let": 5303, "Ġsensor": 5304, "Ġbroken": 5305, "Ġclosely": 5306, "that": 5307, "Ġmeters": 5308, "Ġwatering": 5309, "Ġclassic": 5310, "Ġvariation": 5311, "Ġfamiliar": 5312, "Ġreduces": 5313, "Ġpure": 5314, "vention": 5315, "Ġperhaps": 5316, "Ġvict": 5317, "Ġshirt": 5318, "des": 5319, "ĠCommun": 5320, "Ġeight": 5321, "Ġwaters": 5322, "ĠCor": 5323, "minist": 5324, "espan": 5325, "ĠFr": 5326, "Ġcircuits": 5327, "Ġmechanisms": 5328, "ĠBritish": 5329, "Ġleaving": 5330, "Ġtel": 5331, "Ġrig": 5332, "Ġagricult": 5333, "Ġbeauty": 5334, "Ġdecisions": 5335, "Ġsess": 5336, "Ġperce": 5337, "Ġsurvive": 5338, "Ġinsights": 5339, "ublic": 5340, "Ġadvert": 5341, "Ġworry": 5342, "Ġoral": 5343, "Ġdetection": 5344, "ĠFeb": 5345, "Ġembra": 5346, "Ġblades": 5347, "Ġguidelines": 5348, "Ġrelationships": 5349, "Ġhabitat": 5350, "ĠVal": 5351, "Ġelectrom": 5352, "Ġ...ĊĊ": 5353, "orders": 5354, "Ġcollected": 5355, "ĠLike": 5356, "gery": 5357, "ppers": 5358, "ometimes": 5359, "Ġcloser": 5360, "44": 5361, "arant": 5362, "Ġye": 5363, "120": 5364, "Ġcoastal": 5365, "rix": 5366, "Ġmanufacturers": 5367, "Ġmode": 5368, "Ġfruits": 5369, "-th": 5370, "Ġletter": 5371, "Ġclosed": 5372, "Pre": 5373, "active": 5374, "ĠGet": 5375, "Ġattach": 5376, "ĠProgram": 5377, "cule": 5378, "ĠTake": 5379, "Ġoverl": 5380, "vis": 5381, "Ġvulner": 5382, "porary": 5383, "Ġemphas": 5384, "Ġod": 5385, "Ġchim": 5386, "how": 5387, "Ġotherwise": 5388, "Ġaffects": 5389, "Ġvirtual": 5390, "Ġcert": 5391, "Ġrocks": 5392, "ials": 5393, "orthern": 5394, "ĠTV": 5395, "ĠMark": 5396, "Ġvel": 5397, "-res": 5398, "ĠEuropean": 5399, "ĠEnvironment": 5400, "Ġreplacement": 5401, "ographic": 5402, "Ġchemistry": 5403, "abil": 5404, "Ġsolve": 5405, "rors": 5406, "roduct": 5407, "esh": 5408, "Ġtested": 5409, "erson": 5410, "ste": 5411, "Ġneutral": 5412, "Ġfer": 5413, "ĠPat": 5414, "ĠDav": 5415, "Ġstring": 5416, "Ġacceler": 5417, "ĠMach": 5418, "Ġanalog": 5419, "Ġplenty": 5420, "Ġinsects": 5421, "ĠSea": 5422, "Ġpreventing": 5423, "Ġturning": 5424, "IM": 5425, "ii": 5426, "Ġcream": 5427, "ĠPres": 5428, "Ġserved": 5429, "Ġstorm": 5430, "iance": 5431, "Ġintric": 5432, "itivity": 5433, "Ġahead": 5434, "Ġbatteries": 5435, "abet": 5436, "Ġconservation": 5437, "Ġjaw": 5438, "Ġwait": 5439, "Ġexcept": 5440, "rant": 5441, "acific": 5442, "-D": 5443, "Ġfirm": 5444, "eed": 5445, "Ġinch": 5446, "Ġvess": 5447, "Ġplayed": 5448, "Ġfluid": 5449, "thesis": 5450, "orous": 5451, "izz": 5452, "cers": 5453, "ologist": 5454, "Ġtrim": 5455, "estic": 5456, "tics": 5457, "rote": 5458, "Ġmajority": 5459, "Ġmeasuring": 5460, "xi": 5461, "Ġnames": 5462, "Gen": 5463, "Ġtomato": 5464, "Ġprocedures": 5465, "Ġprinciple": 5466, "usi": 5467, "itis": 5468, "Ġbank": 5469, "INTR": 5470, "ĠCount": 5471, "ĠNet": 5472, "upp": 5473, "OL": 5474, "ometric": 5475, "ius": 5476, "ocking": 5477, "Ġpollution": 5478, "ĠAfrican": 5479, "Ġranking": 5480, "TC": 5481, "idden": 5482, "Ġremoving": 5483, "Ġfailure": 5484, "Ġcultiv": 5485, "Ġsold": 5486, "Ġlinear": 5487, "fts": 5488, "ample": 5489, "Ġaccum": 5490, "Ġlinked": 5491, "cast": 5492, "Ġju": 5493, "obe": 5494, "Ġadults": 5495, "Ġyield": 5496, "Ġbelong": 5497, "Ġbrid": 5498, "ffective": 5499, "180": 5500, "Ġmap": 5501, "ĠBo": 5502, "Ġsky": 5503, "umes": 5504, "Rem": 5505, "Ġrid": 5506, "Ġcatch": 5507, "Ġrapidly": 5508, "ronic": 5509, "outs": 5510, "Ġevolved": 5511, "ĠIS": 5512, "ĠClimate": 5513, "Ġsport": 5514, "Many": 5515, "ĠDevelop": 5516, "Ġlesson": 5517, "Ġslowly": 5518, "umps": 5519, "Ġconcerns": 5520, "-on": 5521, "Ġintended": 5522, "49": 5523, "rones": 5524, "Ġcreation": 5525, "ressed": 5526, "ounced": 5527, "ĠRF": 5528, "Ġabsolute": 5529, "Ġmilitary": 5530, "Ġgoals": 5531, "Ġcareful": 5532, "Ġmol": 5533, "Ġcourt": 5534, "Ġproposed": 5535, "vantages": 5536, "Ġmorning": 5537, "hors": 5538, "ovember": 5539, "Ġdoors": 5540, "play": 5541, "Ġiniti": 5542, "My": 5543, "Ġmonitor": 5544, "Ġflo": 5545, "Ġfollows": 5546, "Ġpartners": 5547, "ruary": 5548, "uting": 5549, "arsh": 5550, "Ġarray": 5551, "urban": 5552, "ĠPan": 5553, "rab": 5554, "ossible": 5555, "Ġfig": 5556, "-sc": 5557, "Ġactions": 5558, "Ġsouth": 5559, "Ġord": 5560, "Ġamazing": 5561, "Ġmining": 5562, "ibilities": 5563, "ĠLet's": 5564, "Ġsports": 5565, "arian": 5566, "Ġcertainly": 5567, "Ġperspective": 5568, "Ġflooring": 5569, "ĠFigure": 5570, "Ġtreated": 5571, "alian": 5572, "Ġvariations": 5573, "organ": 5574, "-B": 5575, "Ġbaby": 5576, "Ġscr": 5577, "Ġimproving": 5578, "Ġnitrogen": 5579, "Ġadhes": 5580, "istant": 5581, "ounce": 5582, "Ġcontinuous": 5583, "Ġsed": 5584, "Ġairpl": 5585, "ĠWhere": 5586, "Ġnetworks": 5587, "fra": 5588, "More": 5589, "asy": 5590, "lines": 5591, "unc": 5592, "hemistry": 5593, "Ġfocused": 5594, "ĠRemember": 5595, "ĠHel": 5596, "Ġdestro": 5597, "pecific": 5598, "Ġvoice": 5599, "ĠHome": 5600, "INTRON": 5601, "Ġoccasion": 5602, "Ġformat": 5603, "Ġpassed": 5604, "Ġexplained": 5605, "Ġconventional": 5606, "85": 5607, "Cont": 5608, "Ġapproaches": 5609, "Ġacids": 5610, "First": 5611, "iant": 5612, "ĠSub": 5613, "Ġreports": 5614, "OU": 5615, "Ġdeeper": 5616, "Ġregulations": 5617, "Ġdrone": 5618, "Ġstories": 5619, "Ġtruly": 5620, "Ġenable": 5621, "Ġinterior": 5622, "Ġstock": 5623, "inity": 5624, "ĠSan": 5625, "ĠMex": 5626, "Ġlifespan": 5627, "TS": 5628, "Ġinterpret": 5629, "ĠÃ": 5630, "Ġpepper": 5631, "ĠPhys": 5632, "edia": 5633, "Ġskill": 5634, "76": 5635, "ĠJuly": 5636, "ĠLaw": 5637, "Ġtip": 5638, "Ġcalcium": 5639, "ceed": 5640, "Ġaudience": 5641, "Ġwhatever": 5642, "ĠInstead": 5643, "Ġlooked": 5644, "Ġclearly": 5645, "Your": 5646, "ords": 5647, "Ġusage": 5648, "rooms": 5649, "Ġmanner": 5650, "RC": 5651, "Ġprofessor": 5652, "struct": 5653, "Ġshade": 5654, "Ġasphalt": 5655, "ildren": 5656, "erved": 5657, "Ġthread": 5658, "Ġtor": 5659, "ĠEduc": 5660, "cember": 5661, "]Ċ": 5662, "Ġvehicles": 5663, "Ġplanted": 5664, "Ġcolon": 5665, "Sp": 5666, "uning": 5667, "Ġstatus": 5668, "Ġwest": 5669, "Ġmissing": 5670, "osc": 5671, "exp": 5672, "Ġunless": 5673, "Ġenthusi": 5674, "isation": 5675, "Ġgreenhouse": 5676, "Ġwithstand": 5677, "Ġdecided": 5678, "Ġselecting": 5679, "Ġinteractions": 5680, "asure": 5681, "ĠAssoci": 5682, "Ġnovel": 5683, "Ġspiritual": 5684, "Ġworld's": 5685, "Ġfear": 5686, "Ġsubstance": 5687, "Ġjoint": 5688, "Ġtoxic": 5689, "Ġvacc": 5690, "Ġsumm": 5691, "ĠChinese": 5692, "Ġfinished": 5693, "ĠCNC": 5694, "struction": 5695, "ĠAnother": 5696, "Ġtwice": 5697, "Ġstim": 5698, "ĠTwo": 5699, "Ġshift": 5700, "Ġbrush": 5701, "Ġpictures": 5702, "Ġopening": 5703, "ĠCut": 5704, "aper": 5705, "Ġachieved": 5706, "Ġexec": 5707, "peed": 5708, "ceans": 5709, "Ġperman": 5710, "ara": 5711, "terior": 5712, "Ġ`": 5713, "inant": 5714, "isher": 5715, ",NM": 5716, "Ġcop": 5717, "Ġtape": 5718, "Ġannual": 5719, "-friendly": 5720, "Ġinteraction": 5721, "Ġlegal": 5722, "astics": 5723, "ĠCheck": 5724, "Ġdra": 5725, "null": 5726, "SE": 5727, "Ġbeam": 5728, "Ġhappened": 5729, "Ġbigger": 5730, "Ġminimal": 5731, "Ġdecide": 5732, "arrow": 5733, "pling": 5734, "Ġpolit": 5735, "Ġinner": 5736, "ĠDI": 5737, "ĠAbout": 5738, "ĠSk": 5739, "Ġpreparation": 5740, "Ġtried": 5741, "Ġcompleted": 5742, "Ġstages": 5743, "ĠâĢĺ": 5744, "Ġward": 5745, "Ġmemory": 5746, "Ġmolecule": 5747, "Ġattrib": 5748, "pection": 5749, "Ġcomet": 5750, "De": 5751, "Ġvolcano": 5752, "ias": 5753, "Ġseeing": 5754, "Not": 5755, "ĠSeptember": 5756, "Ġapplying": 5757, "Ġmild": 5758, "Ġdecrease": 5759, "duino": 5760, "Ġserves": 5761, "Ġsoph": 5762, "fortun": 5763, "Ġlaboratory": 5764, "-n": 5765, "-be": 5766, "]ĊĊ": 5767, "Ġteacher": 5768, "Ġease": 5769, "bal": 5770, "Ġsurvey": 5771, "Cons": 5772, "ini": 5773, "ĠI'll": 5774, "Ġclasses": 5775, "ongevity": 5776, "ĠDec": 5777, "Ġdiscussed": 5778, "Ġbone": 5779, "Ġgrade": 5780, "Ġraised": 5781, "down": 5782, "ĠScient": 5783, "Ġbegins": 5784, "CC": 5785, "Ġinternet": 5786, "ĠMicro": 5787, "Ġpush": 5788, "Ġexplains": 5789, "Ġdrag": 5790, "From": 5791, "Ġpolar": 5792, "-of": 5793, "I'm": 5794, "Ġportion": 5795, "Ġdoub": 5796, "Ġpossess": 5797, "ĠSupp": 5798, "ĠStart": 5799, "Ġfertilizer": 5800, "Ġmeant": 5801, "sec": 5802, "Ġequivalent": 5803, "ĠOctober": 5804, "well": 5805, "esting": 5806, "ASA": 5807, "Ġnorth": 5808, "Ġborn": 5809, "osion": 5810, "Ġguess": 5811, "Ġtheore": 5812, "rite": 5813, "Ġmagnet": 5814, "Ġwidth": 5815, "ĠAugust": 5816, "Ġprivate": 5817, "Ġprotective": 5818, "LE": 5819, "Ġcreatures": 5820, "oved": 5821, "gin": 5822, "ĠProt": 5823, "Ġpencil": 5824, "Ġseven": 5825, "Ġprinciples": 5826, "Ġgenerator": 5827, "bing": 5828, "ĠJanuary": 5829, "Ġtopics": 5830, "Ġperiods": 5831, "Ġpants": 5832, "robe": 5833, "going": 5834, "Ġfacilit": 5835, "Ġwants": 5836, "-by": 5837, "Ġteams": 5838, ".org": 5839, "Ġemergency": 5840, "Ġsensors": 5841, "Ġrust": 5842, "New": 5843, "inations": 5844, "Ġwelding": 5845, "Ġcontainers": 5846, "ĠPark": 5847, "Ġpolicy": 5848, "Ġworldwide": 5849, "Ġeleg": 5850, "Ġminerals": 5851, "PA": 5852, "Ġwasn't": 5853, "Ġmath": 5854, "Ġalgorithms": 5855, "Ġtitle": 5856, "Ġrow": 5857, "Ġindoor": 5858, "Ġimpl": 5859, "Ġdrainage": 5860, "Ġstudied": 5861, "Ġspots": 5862, "ushing": 5863, "mark": 5864, "Ġbalanced": 5865, "Ġincreasingly": 5866, "ĠDar": 5867, "DA": 5868, "alled": 5869, "sem": 5870, "Ġhomeowners": 5871, "Ġdelicious": 5872, "ĠUV": 5873, "',": 5874, "Ġvariable": 5875, "Ġdin": 5876, "bage": 5877, "ĠBra": 5878, "Ġcircum": 5879, "nel": 5880, "dule": 5881, "Ġstreet": 5882, "lege": 5883, "Ġwebsites": 5884, "Ġitem": 5885, "09": 5886, "Ġcodes": 5887, "fall": 5888, "eria": 5889, "Ġdownload": 5890, "ked": 5891, "ĠLook": 5892, "eries": 5893, "earchers": 5894, "Ġputting": 5895, "Ġouter": 5896, "Ġcorresponding": 5897, "Ġdoctor": 5898, "Ġcomment": 5899, "Ġdescription": 5900, "xiety": 5901, "Ġvast": 5902, "Ġroutine": 5903, "Ġhistorical": 5904, "ĠOff": 5905, "unting": 5906, "Ġsurvival": 5907, "Ġmetabol": 5908, "Ġfoss": 5909, "Using": 5910, "/m": 5911, "Ġbath": 5912, "tical": 5913, "exac": 5914, "Ġconvert": 5915, "Ġremaining": 5916, "vari": 5917, "Ġmac": 5918, "iration": 5919, "lin": 5920, "Ġimaging": 5921, "BC": 5922, "ĠCanada": 5923, "08": 5924, "Â°C": 5925, "inates": 5926, "ĠâĪ": 5927, "Ġstudying": 5928, "useum": 5929, "Ġcere": 5930, "Ġopin": 5931, "Ġgather": 5932, "Ġawareness": 5933, "anish": 5934, "Ġclinical": 5935, "forest": 5936, "Ġchosen": 5937, "raction": 5938, "ĠPort": 5939, "MS": 5940, "lim": 5941, "Before": 5942, "ĠNature": 5943, "Ġblow": 5944, "Ġmarketing": 5945, "cest": 5946, "Ġfamous": 5947, "Ġpairs": 5948, "Ġexciting": 5949, "Ġmm": 5950, "ifies": 5951, "Ġcovers": 5952, "Ġstands": 5953, "Ġreceiver": 5954, "azon": 5955, "scill": 5956, "Ġcapabilities": 5957, "reate": 5958, "Ġloop": 5959, "rays": 5960, "ĠPeople": 5961, "Ġsequencing": 5962, "thetic": 5963, "Ġcommunicate": 5964, "-related": 5965, "Ġunlike": 5966, "Ġhorizontal": 5967, "Ġrepairs": 5968, "Ġkm": 5969, "ilation": 5970, "Ġlaws": 5971, "Although": 5972, "Ġadequ": 5973, "Ġcompare": 5974, "Ġcrack": 5975, "ĠPacific": 5976, "inery": 5977, "owing": 5978, "afety": 5979, "Ġindependent": 5980, "Ġions": 5981, "ifications": 5982, "uls": 5983, "Ġdefinitely": 5984, "ĠCity": 5985, "Ġbreeding": 5986, "Ġstrugg": 5987, "Rec": 5988, "Ġshot": 5989, "Ġindex": 5990, "Ġalter": 5991, "from": 5992, "ĠFlor": 5993, "Ġsuggested": 5994, "Ġsuccessfully": 5995, "aching": 5996, "Ġban": 5997, "Ġrating": 5998, "Ġcracks": 5999, "âĪĴ": 6000, "App": 6001, "Ġsecondary": 6002, "Ġtropical": 6003, "Ġmyster": 6004, "-the": 6005, "ĠDel": 6006, "ĠHaw": 6007, "Ġdram": 6008, "rastructure": 6009, "point": 6010, "DF": 6011, "cket": 6012, "Ġplug": 6013, "ka": 6014, "mp": 6015, "Ġcalls": 6016, "42": 6017, "Ġkid": 6018, "vin": 6019, "Ġtherapy": 6020, "Ġwouldn't": 6021, "Ġgall": 6022, "do": 6023, "Ġbits": 6024, "Ġbaking": 6025, "but": 6026, "ĠGuide": 6027, "Ġbrief": 6028, "Ġdivided": 6029, "Ġfeedback": 6030, "Ġmeeting": 6031, "Int": 6032, "Ġhundreds": 6033, "Ġdioxide": 6034, "Ġcapture": 6035, "esc": 6036, "Ġpeace": 6037, "Ġforget": 6038, "Ġlamp": 6039, "Ġveloc": 6040, "Ġcolleag": 6041, "hop": 6042, "ĠFood": 6043, "opic": 6044, "Ġexercise": 6045, "vit": 6046, "IR": 6047, "Ġlift": 6048, "Ġdefect": 6049, "oul": 6050, "Ġenab": 6051, "Ġbrick": 6052, "Ġwarming": 6053, "Ġclassroom": 6054, "Ġantib": 6055, "ĠEqu": 6056, "oxy": 6057, "Ġcraft": 6058, "ĠFoundation": 6059, "ompl": 6060, "Ġgro": 6061, "rimp": 6062, "Ġphosph": 6063, "idents": 6064, "Ġrubber": 6065, "ĠNASA": 6066, "ĠPol": 6067, "ĠBro": 6068, "\"The": 6069, "Ġsuscept": 6070, "Ġprinting": 6071, "66": 6072, "angles": 6073, "Ġspecialized": 6074, "-P": 6075, "ridge": 6076, "oto": 6077, "ĠMaterial": 6078, "Ġhelped": 6079, "ogenic": 6080, "|Ċ": 6081, "Ġprotected": 6082, "ait": 6083, "Ġthrive": 6084, "Ġreplaced": 6085, "athe": 6086, "Ġbol": 6087, "rie": 6088, "Ġatomic": 6089, "avy": 6090, "Ġfan": 6091, "apor": 6092, "Ġhood": 6093, "Ġbasically": 6094, "oam": 6095, "Ġeveryday": 6096, "Ġcontrols": 6097, "Ġmanual": 6098, "Ġpasta": 6099, "Ġadm": 6100, "Ġaesthetic": 6101, "ĠDef": 6102, "lers": 6103, "Ġpropag": 6104, "Ġturb": 6105, "Ġwings": 6106, "Ġexpressed": 6107, "Ġconsequences": 6108, "Ġdatab": 6109, "Ġprompt": 6110, "Ġleather": 6111, "Ġgreatly": 6112, "Ġindicates": 6113, "Ġpreferences": 6114, "Ġinsert": 6115, "Ġurban": 6116, "Ġmoved": 6117, "Ġlongevity": 6118, "Ġfunctionality": 6119, "According": 6120, "berry": 6121, "Ġstret": 6122, "Ġlegs": 6123, "tion": 6124, "Ġprem": 6125, "Ġdimensions": 6126, "Ġsharpen": 6127, "Ġol": 6128, "rots": 6129, "Ġje": 6130, "Ġperfectly": 6131, "Ġwhereas": 6132, "Ġyard": 6133, "ĠLife": 6134, "Ġplus": 6135, "Te": 6136, "Ġdiscussion": 6137, "Ġholds": 6138, "pected": 6139, "://": 6140, "Ġimplic": 6141, "ricks": 6142, "iled": 6143, "CT": 6144, "Ġsusp": 6145, "ĠGra": 6146, "Ġsurgery": 6147, "Ġdrugs": 6148, "Ġshowc": 6149, "ĠProper": 6150, "Ġseam": 6151, "Ġcreativity": 6152, "oys": 6153, "Ġsodium": 6154, "Ġtiles": 6155, "Ġinnovative": 6156, "Ġpros": 6157, "Ġcivil": 6158, "nas": 6159, "Ġgeometry": 6160, "Ġsubstances": 6161, "Ġremoval": 6162, "oz": 6163, "isease": 6164, "ĠEngineering": 6165, "Ġinstit": 6166, "gn": 6167, "then": 6168, "Ġminimize": 6169, ".[": 6170, "Ġcrushing": 6171, "Ġnuclear": 6172, "ĠAM": 6173, "ĠCollege": 6174, "ĠAS": 6175, "lear": 6176, "Ġphoto": 6177, "ama": 6178, "Ġsulf": 6179, "Ġtreatments": 6180, "Ġtrip": 6181, "igital": 6182, "Ġalgae": 6183, "heat": 6184, "oke": 6185, "Ġbuying": 6186, "Ġwe've": 6187, "mic": 6188, "rying": 6189, "attle": 6190, "Ġsight": 6191, "ĠOF": 6192, "Ġrespectively": 6193, "Ġbelief": 6194, "itches": 6195, "Ġentirely": 6196, "Ġdynamic": 6197, "Ġsafely": 6198, "oper": 6199, "Ġsud": 6200, "van": 6201, "ĠOrgan": 6202, "Ġbiggest": 6203, "Ġstrip": 6204, "ĠThrough": 6205, "ĠMat": 6206, "ĠSee": 6207, "194": 6208, "ĠBen": 6209, "icing": 6210, "-ch": 6211, "Ġextended": 6212, "Ġappeal": 6213, "apers": 6214, "Ġefficiently": 6215, "fered": 6216, "ĠMich": 6217, "Ġpossibly": 6218, "Ġcast": 6219, "Ġleaders": 6220, "cement": 6221, "Ġcrow": 6222, "lectric": 6223, "Ġdiagnosis": 6224, "ĠBel": 6225, "02": 6226, "Ġmedicine": 6227, "ovol": 6228, "ĠToday": 6229, "Ġguarant": 6230, "ĠCare": 6231, "ien": 6232, "pact": 6233, "Ġgravity": 6234, "Ġexploring": 6235, "Ġdissol": 6236, "Ġintricate": 6237, "Ġextend": 6238, "Ġsudden": 6239, "Ġgave": 6240, "Ġwhat's": 6241, "Ġmice": 6242, "fortunately": 6243, "Ġphr": 6244, "Ġmaxim": 6245, "Ġbreath": 6246, "Ġoccup": 6247, "ĠNovember": 6248, "ford": 6249, "ĠJapanese": 6250, "cont": 6251, "Ġresil": 6252, "Ġdentist": 6253, ".D": 6254, "Ġsto": 6255, "Ġmutation": 6256, "Since": 6257, "Ġexpans": 6258, "âĢĻre": 6259, "TH": 6260, "Ġclus": 6261, "Ġexpertise": 6262, "BS": 6263, ",chr": 6264, "-A": 6265, "Ġdrawn": 6266, "Ġcyl": 6267, "Ġinformed": 6268, "Ġinfections": 6269, "ĠFebruary": 6270, "Ġfinally": 6271, "otes": 6272, "ĠHistory": 6273, "Ġbreaking": 6274, "enses": 6275, "Ġcompost": 6276, "ospital": 6277, "Ġconstantly": 6278, "EL": 6279, "Ġjud": 6280, "Ġsatellite": 6281, "Ġcit": 6282, "ĠBefore": 6283, "Ġdecay": 6284, "Me": 6285, "ĠLEDs": 6286, "Ġradar": 6287, "Ġmeter": 6288, "Ġknives": 6289, "Ġsharing": 6290, "ĠRuss": 6291, "Ġcomplement": 6292, "Ġcomparison": 6293, "Ġhen": 6294, "oma": 6295, "ris": 6296, "vs": 6297, "Ġtour": 6298, "ĠWhite": 6299, "Ġhardware": 6300, "Ġstronger": 6301, "Ġmission": 6302, "ĠSet": 6303, "Ġtrend": 6304, "--------": 6305, "NM": 6306, "Ġletters": 6307, "Ġbelt": 6308, "Ġton": 6309, "icular": 6310, "uum": 6311, "ĠWind": 6312, "Ġrelig": 6313, "stream": 6314, "ĠKing": 6315, ");": 6316, "iest": 6317, "ĠControl": 6318, "ĠCirc": 6319, "Ġforests": 6320, "77": 6321, "Ġwoodworking": 6322, "emic": 6323, "Ġlessons": 6324, "iture": 6325, "Ġdistingu": 6326, "Ġfrost": 6327, "Ġdim": 6328, "ools": 6329, "Ġrevolution": 6330, "Ġspent": 6331, "ĠAtl": 6332, "Ġstores": 6333, "iece": 6334, "Ġauthors": 6335, "Ġsatisf": 6336, "iral": 6337, "Ġelectronics": 6338, "Ġaccompl": 6339, "Ġmoves": 6340, "Reg": 6341, "Ġsupported": 6342, "Ġfelt": 6343, "ĠGreat": 6344, "Ġchromosome": 6345, "Ġpenet": 6346, "Ġshoes": 6347, "Ġinstalling": 6348, "ĠExt": 6349, "Ġshoot": 6350, "Ġrestrict": 6351, "Ġble": 6352, "Ġelectromagnetic": 6353, "Ġvalid": 6354, "Ġaccurately": 6355, "Ġmovie": 6356, "Ġmineral": 6357, "Ġgran": 6358, "imensional": 6359, "Ġtrain": 6360, "Ġsubstr": 6361, "oons": 6362, "Ġash": 6363, "ette": 6364, "Â·": 6365, "Ġfault": 6366, "HO": 6367, "ĠSand": 6368, "Ġprol": 6369, "Ġsubstant": 6370, "Ġguidance": 6371, "Ġcalculated": 6372, "600": 6373, "ĠEc": 6374, "Ġmount": 6375, "Dr": 6376, "Ġmixing": 6377, "Ġanxiety": 6378, "56": 6379, "Ġbranch": 6380, "Ġdream": 6381, "Ġrenewable": 6382, "ĠBay": 6383, "Ġalle": 6384, "Ġminute": 6385, "Ġdespite": 6386, "ĠFlorida": 6387, "Ġcircular": 6388, "Ġconfident": 6389, "Ġbelieved": 6390, "Solar": 6391, "Ġdetermining": 6392, "Ġconvey": 6393, "ĠDecember": 6394, "ĠWork": 6395, "Ġoceans": 6396, "ĠMa": 6397, "Ġdried": 6398, "Ġremark": 6399, "Ġbarrier": 6400, "ĠKnow": 6401, "Ġeducational": 6402, "!!": 6403, "Ġrecognition": 6404, "atching": 6405, "gs": 6406, "Ġpercentage": 6407, "Ġcities": 6408, "Ġcoat": 6409, "Ġsch": 6410, "oving": 6411, "Ġnotes": 6412, "Ġboards": 6413, "riers": 6414, "Ġprobability": 6415, "Ġcav": 6416, "zer": 6417, "Ġequations": 6418, "Ġknows": 6419, "Ġmillions": 6420, "Ġreput": 6421, "Ġmountain": 6422, "Ġinfrastructure": 6423, "zyme": 6424, "bur": 6425, "Ġarticles": 6426, "Ġchapter": 6427, "Le": 6428, "Ġunknown": 6429, "Ġglue": 6430, "Ġstrain": 6431, "Ġoscill": 6432, "Ġwardrobe": 6433, "ĠUnder": 6434, "Ġtap": 6435, "Ġseek": 6436, "Ġancest": 6437, "ĠCT": 6438, "Ġdrawings": 6439, "Ġflexible": 6440, "Ġartists": 6441, "Rel": 6442, "usiness": 6443, "mor": 6444, "Or": 6445, "ĠChange": 6446, "AV": 6447, "Ġquantity": 6448, "Ġintroduction": 6449, "Ġfa": 6450, "AG": 6451, "ĠLong": 6452, "Ġdough": 6453, "Ġpackaging": 6454, "drome": 6455, "Ġcuis": 6456, "iat": 6457, "Ġfilling": 6458, "gers": 6459, "Ġchannels": 6460, "Ġshorter": 6461, "Ġoffered": 6462, "ĠSociety": 6463, "Ġagent": 6464, "zed": 6465, "________": 6466, "Ġcampa": 6467, "Ġmul": 6468, "Ġhandling": 6469, "Ġneck": 6470, "Ġlanding": 6471, "Ġintegrity": 6472, "aming": 6473, "ĠIN": 6474, "Ġfrequent": 6475, "urch": 6476, "Ġmassive": 6477, "otype": 6478, "Ġengage": 6479, "Ġtie": 6480, "ĠStand": 6481, "Ġimpossible": 6482, "Ġdefine": 6483, "Ġreb": 6484, "rue": 6485, "Ġrecognize": 6486, "ĠGood": 6487, "my": 6488, "Ġacadem": 6489, "II": 6490, "ME": 6491, "ĠEast": 6492, "Ġcomprom": 6493, "aint": 6494, "Ġassessment": 6495, "la": 6496, "Ġcontinued": 6497, "Ġwheel": 6498, "ĠAR": 6499, "Ġsections": 6500, "Ġpossibility": 6501, "Ġcomplicated": 6502, "reek": 6503, "Ġcloud": 6504, "Ġow": 6505, "ĠHave": 6506, "Share": 6507, "abs": 6508, "Fe": 6509, "ĠConcrete": 6510, "Ġdrones": 6511, "Ġhaven": 6512, "Ġfascinating": 6513, "Ġultimately": 6514, "Ġvictim": 6515, "Ġknowing": 6516, "ĠFin": 6517, "oids": 6518, "Ġtrick": 6519, "Ġsensitivity": 6520, "Ġrequest": 6521, "Ġutility": 6522, "width": 6523, "uing": 6524, ".âĢĿĊ": 6525, "Ġtraits": 6526, "Ġlies": 6527, "Ġrecycled": 6528, "Go": 6529, "Ġassembly": 6530, "requency": 6531, "Ġrobust": 6532, "Ġwish": 6533, "ora": 6534, "ĠLearning": 6535, "otal": 6536, "250": 6537, "Ġresidential": 6538, "Ġderived": 6539, "Ġsupplies": 6540, "Ġtrigger": 6541, "Ġpilots": 6542, "Ġcolleagues": 6543, "Ġexplanation": 6544, "Ġslic": 6545, "Ġtag": 6546, "Ġrecorded": 6547, "no": 6548, "airs": 6549, "ĠOpt": 6550, "ether": 6551, "Ġimagine": 6552, "Ġversatility": 6553, "dering": 6554, "Ġunus": 6555, "Comp": 6556, "DC": 6557, "Ġdeck": 6558, "Ġsegment": 6559, "Ġaudio": 6560, "oli": 6561, "cel": 6562, "04": 6563, "ĠDarwin": 6564, "Ġunderst": 6565, "Ġanywhere": 6566, "Ġrely": 6567, "care": 6568, "ham": 6569, "Ġvelocity": 6570, "sters": 6571, "Ġintensity": 6572, ",rs": 6573, "ĠAsia": 6574, "Ġcarp": 6575, "Ġcompat": 6576, "reens": 6577, "iber": 6578, "ulum": 6579, "band": 6580, "math": 6581, "Ġshut": 6582, "ĠYear": 6583, "cil": 6584, "ĠProcess": 6585, "ðŁ": 6586, "ixtures": 6587, "anged": 6588, "},Ċ": 6589, "using": 6590, "Ġcoverage": 6591, "anned": 6592, "Ġhybrid": 6593, "Ġinject": 6594, "07": 6595, "Ġchromosomes": 6596, "Ġlamps": 6597, "Ġcheap": 6598, "ĠHuman": 6599, "uzz": 6600, "stone": 6601, "Ġemployees": 6602, "Ġdestroy": 6603, "Ġimprovement": 6604, "Ġfeather": 6605, "ĠTex": 6606, "Ġvine": 6607, "Ġformer": 6608, "ĠPotter": 6609, "Ġmovements": 6610, "Ġloads": 6611, "Ġestimate": 6612, "ipal": 6613, "Ġinstant": 6614, "Ġorganism": 6615, "Ġmir": 6616, "Ġeruption": 6617, "Ġphysic": 6618, "Ġadvent": 6619, "Ġcomplexity": 6620, "Ġmer": 6621, "Ġexcessive": 6622, "Ġmature": 6623, "ĠRel": 6624, "68": 6625, "Ġoccurred": 6626, "Ġkeeps": 6627, "Ġtow": 6628, "ĠStudents": 6629, "Ġvibrant": 6630, "Ġsymmet": 6631, "ĠFinally": 6632, "Ġmanip": 6633, "Ġthanks": 6634, "Ġpolymer": 6635, "ĠDisc": 6636, "Ġdisorders": 6637, "Ġconfiguration": 6638, "Ġtough": 6639, "Ġhypothes": 6640, "Ġmembr": 6641, "ĠLa": 6642, "Ġschedule": 6643, "Ġgravel": 6644, "Ġcorner": 6645, "Ġscene": 6646, "Ġ.Ċ": 6647, "ola": 6648, "add": 6649, "Ġwireless": 6650, "Ġcann": 6651, "Ġprices": 6652, "ondon": 6653, "Ġshing": 6654, "ĠForm": 6655, "overn": 6656, "Ġweeds": 6657, "ĠDifferent": 6658, "ĠTHE": 6659, "ĠBiology": 6660, "Ġaccident": 6661, "son": 6662, "Ġreached": 6663, "osal": 6664, "Ġadaptation": 6665, "Ġhidden": 6666, "Ġenables": 6667, "ĠStr": 6668, "rons": 6669, "Ġdriver": 6670, "Ġcooling": 6671, "Ġparticipants": 6672, ">T": 6673, "ĠAmazon": 6674, "Ġriver": 6675, "Ġpreferred": 6676, "ĠGeor": 6677, "asted": 6678, "ĠSciences": 6679, "001": 6680, "ĠAnim": 6681, "ĠSpace": 6682, "ovolta": 6683, "Ġprofile": 6684, "Ġisland": 6685, "velength": 6686, "berg": 6687, "Ġherb": 6688, "anted": 6689, "193": 6690, "ĠDrawing": 6691, "Ġhat": 6692, "Ġdedicated": 6693, "ander": 6694, "otide": 6695, "Ġmas": 6696, "Ġbowl": 6697, "Ġunderlying": 6698, "Ġcul": 6699, "Ġautomatically": 6700, "ashington": 6701, "Ġlisted": 6702, "ĠWorks": 6703, "Ġjump": 6704, "Ġdomain": 6705, "Ġsaving": 6706, "Ġbub": 6707, "âĢ¦ĊĊ": 6708, "(s": 6709, "Ġflows": 6710, "\"Ċ": 6711, "Ġpou": 6712, "Water": 6713, "terest": 6714, "Ġrod": 6715, "Ġfluores": 6716, "ĠKey": 6717, "Ġintegrated": 6718, "Ġviol": 6719, "Ġnoted": 6720, "-T": 6721, "Ġcarrying": 6722, "Ġjobs": 6723, "ĠI'd": 6724, "Ġforming": 6725, "ĠLearn": 6726, "Read": 6727, "Ġdivision": 6728, "char": 6729, "ĠProfessor": 6730, "Ġmosquito": 6731, "ading": 6732, "Ġweigh": 6733, "Ġkeyword": 6734, "Ġserving": 6735, "Ġfriendly": 6736, "Ġrecipes": 6737, "Ġapparent": 6738, "Ġdirt": 6739, "ĠCe": 6740, "ĠID": 6741, "Ġwed": 6742, "Ġment": 6743, "print": 6744, "Ġaid": 6745, "190": 6746, "Ġparasites": 6747, "Ġwrote": 6748, "Ġoven": 6749, "aped": 6750, "phone": 6751, "Ġextent": 6752, "ĠOb": 6753, "Ġcharged": 6754, "Ġtransmit": 6755, "part": 6756, "ommon": 6757, "Ġattractive": 6758, "-level": 6759, "Ġnation": 6760, "Ġobserve": 6761, "Ġblend": 6762, "ado": 6763, "Ġacts": 6764, "Ġcompr": 6765, "Ġruns": 6766, "ĠAnt": 6767, "ota": 6768, "Ġpeak": 6769, "ĠEducation": 6770, "Ġtranscription": 6771, "Ġmessages": 6772, "Ġsubsequ": 6773, "Ġgrows": 6774, "-E": 6775, "ĠDIY": 6776, "Ġdeter": 6777, "Ġthoughts": 6778, "etal": 6779, ">A": 6780, "ĠPlease": 6781, "Ġorbit": 6782, "Ġpotato": 6783, "Ġidentifying": 6784, "Ġlimestone": 6785, "Ġspeak": 6786, "emperature": 6787, "Ġdive": 6788, "Ġcoloring": 6789, "Ġprinter": 6790, "Ġinspection": 6791, "Ġidentification": 6792, "men": 6793, "Ġphenomenon": 6794, "ĠRiver": 6795, "earing": 6796, "Ġreson": 6797, "ĠMedicine": 6798, "Ġgirls": 6799, "Ġposts": 6800, "Ġpurs": 6801, "Ġtum": 6802, "inds": 6803, "Ġinfected": 6804, "Ġparasite": 6805, "Inst": 6806, "ĠOh": 6807, "Ġhtt": 6808, "aters": 6809, "Ġstraw": 6810, "192": 6811, "Ġpersonality": 6812, "Ġonions": 6813, "Ġgarage": 6814, "Ġerrors": 6815, "een": 6816, "OD": 6817, "Ġdepos": 6818, "ĠPost": 6819, "Ġconversion": 6820, "ĠAT": 6821, "Ġhazard": 6822, "Ġaccessible": 6823, "Ġcurve": 6824, "-pro": 6825, "Ġshif": 6826, "Ġminor": 6827, "41": 6828, "Ġgardening": 6829, "Ġbehaviour": 6830, "Ġobservations": 6831, "Ġherbs": 6832, "Ġlik": 6833, "Understanding": 6834, "Ġconscious": 6835, "Ġcellular": 6836, "Ġconvenient": 6837, "Ġunw": 6838, "Ġillness": 6839, "PT": 6840, "Ġaxis": 6841, "Ġhousehold": 6842, "Ġnutrient": 6843, "istance": 6844, "alysis": 6845, "Ġpopularity": 6846, "Ġcovering": 6847, "west": 6848, "ĠTom": 6849, "Ġmatrix": 6850, "Ġasking": 6851, "Ġdoll": 6852, "Ġmachining": 6853, "Ġemotional": 6854, "Ġlimits": 6855, "Ġgases": 6856, "Ġscore": 6857, "lements": 6858, "Ġrising": 6859, "MA": 6860, "Ġdirections": 6861, "Ġcomposed": 6862, "Ġgenerations": 6863, "ĠExp": 6864, "atively": 6865, "Ġswimming": 6866, "Ġflexibility": 6867, "ibration": 6868, "-scale": 6869, "Ġsetup": 6870, "ĠFurthermore": 6871, "ĠFed": 6872, "Ġconsumers": 6873, "CH": 6874, "-con": 6875, "Ġdescribes": 6876, "Ġaccounts": 6877, "Ġdelay": 6878, "Ġfle": 6879, "alc": 6880, "Ġsin": 6881, "Ġfacilities": 6882, "Ġfinger": 6883, "Ġexperimental": 6884, "iances": 6885, "Ġrough": 6886, "Ġrevealed": 6887, "Ġinnovation": 6888, "Ġaviation": 6889, "Ġroofs": 6890, "arn": 6891, "ĠChoose": 6892, "Source": 6893, "Ġholding": 6894, "type": 6895, "ĠAcadem": 6896, "Ġdigestive": 6897, "ĠDevelopment": 6898, "Ġcoil": 6899, "isk": 6900, "agram": 6901, "Ġwoman": 6902, "etime": 6903, "ĠData": 6904, "âĢĭ": 6905, "Ġfav": 6906, "ĠAtt": 6907, "Ġmitig": 6908, "Ġdemonstrate": 6909, "Ġpermanent": 6910, "Ġknew": 6911, "Ġlibrary": 6912, "Ġrotation": 6913, "appe": 6914, "Ġbrings": 6915, "Ġtack": 6916, "iated": 6917, "Ġembry": 6918, "Ġpounds": 6919, "Ġnose": 6920, "Ġfairly": 6921, "Ġmicrob": 6922, "ĠSpanish": 6923, "Ġpassing": 6924, "03": 6925, "43": 6926, "Ġcrew": 6927, "Ġcultures": 6928, "ophy": 6929, "orrect": 6930, "Ġlightweight": 6931, "cohol": 6932, "Ġsecret": 6933, "Ġfiles": 6934, "action": 6935, "Ġconsideration": 6936, "lessly": 6937, "ĠCell": 6938, "Ġcoal": 6939, "charge": 6940, "Ġentertain": 6941, "Fig": 6942, "Ġaggregate": 6943, "FA": 6944, "Ġassume": 6945, "Ġtruth": 6946, "Ġstylish": 6947, "Ġpests": 6948, "Ġnucleus": 6949, "ĠFind": 6950, "Ġraise": 6951, "comes": 6952, "Ġarc": 6953, "Ġworkers": 6954, "ĠMedical": 6955, "Ġsector": 6956, "\"ĊĊ": 6957, "owns": 6958, "Ġsupports": 6959, "ĠRight": 6960, "esides": 6961, "Ġprotocol": 6962, "ĠUnderstanding": 6963, "Ġartist": 6964, "mas": 6965, "Ġstro": 6966, "Ġgap": 6967, "SS": 6968, "Ġfr": 6969, "Ġdetected": 6970, "Ġfossil": 6971, "Ġ...Ċ": 6972, "Ġgenetics": 6973, "Ġstations": 6974, "uts": 6975, "Ġtrade": 6976, "Ġhouses": 6977, "Ġmodule": 6978, "Ġpipe": 6979, "box": 6980, "ĠArduino": 6981, "Ġnarrow": 6982, "Ġarrange": 6983, "Ġplates": 6984, "puter": 6985, "Ġengineers": 6986, "Ġsales": 6987, "Ġmicrosc": 6988, "Ġlaun": 6989, "ĠAvoid": 6990, "-being": 6991, "ĠGerman": 6992, "owered": 6993, "mal": 6994, "],": 6995, "ĠCommon": 6996, "inals": 6997, "Ġsoup": 6998, "ĠCoun": 6999, "Ġdefense": 7000, "IP": 7001, "ĠQuestions": 7002, "Ġexistence": 7003, "Ġmuscle": 7004, "uty": 7005, "ĠGarden": 7006, "Ġengaging": 7007, "Lear": 7008, "Ġwooden": 7009, "ulent": 7010, "Ġenzyme": 7011, "Ġshrimp": 7012, "ĠFore": 7013, "Ġmodified": 7014, "RL": 7015, "hab": 7016, "Ġcred": 7017, "Ġvulnerable": 7018, "Ġgal": 7019, "ĠSuch": 7020, "Ġring": 7021, "Other": 7022, "Ġpainting": 7023, "Ġparty": 7024, "Ġspeaking": 7025, "Get": 7026, "Ġspeech": 7027, "istor": 7028, "Ġships": 7029, "Ġgone": 7030, "Ġdisorder": 7031, "you": 7032, "ael": 7033, "Ġproof": 7034, "ĠMill": 7035, "-dimensional": 7036, "ĠTable": 7037, "Ġpor": 7038, "ĠWilli": 7039, "Ġreceiving": 7040, "otive": 7041, "Ġcontam": 7042, "59": 7043, "Ġrestaur": 7044, "ĠGener": 7045, "Ġheads": 7046, "kay": 7047, "Ġinterference": 7048, "car": 7049, "Ġboxes": 7050, "Ġsmell": 7051, "Ġstom": 7052, "Ġthoroughly": 7053, "Ġamb": 7054, "ĠFact": 7055, "vas": 7056, "Ġorb": 7057, "Ġdisad": 7058, "ĠCounty": 7059, "Ġcrust": 7060, "ĠFish": 7061, "ĠMoreover": 7062, "Ġseeking": 7063, "Ġharder": 7064, "ĠCurrent": 7065, "Ġexterior": 7066, "ĠCam": 7067, "ude": 7068, "Ġrepresented": 7069, "Ġcolumn": 7070, "uous": 7071, "Ġjoin": 7072, "Ġcards": 7073, "Ġunf": 7074, "lined": 7075, "Ġpresentation": 7076, "Ġmotors": 7077, "Ġshock": 7078, "Ġeffectiveness": 7079, "Ġli": 7080, "Ġmotiv": 7081, "Ġdip": 7082, "Also": 7083, "Ġtons": 7084, "Pe": 7085, "rep": 7086, "Ġexpansion": 7087, "Ġauthen": 7088, "Ġyeast": 7089, "ĠEngland": 7090, "Ġinjury": 7091, "Ġsen": 7092, "Ġchild's": 7093, "Ġalph": 7094, "ĠAP": 7095, "Ġoxidation": 7096, "Ġpossibilities": 7097, "ĠRoof": 7098, "Ġcub": 7099, "Ġfewer": 7100, "Ġretur": 7101, "Ġhappening": 7102, "Ġwatching": 7103, "Ġprevents": 7104, "Because": 7105, "Ġbacterial": 7106, "ommod": 7107, "Ġbonds": 7108, "ĠWashington": 7109, "Ġspeaker": 7110, "Ġcommand": 7111, "ĠLondon": 7112, "ĠGold": 7113, "58": 7114, "Ġsavings": 7115, "During": 7116, "Ġairplane": 7117, "Ġdrying": 7118, "ĠSuper": 7119, "Ġadequate": 7120, "Ġdatas": 7121, "Ġprogramming": 7122, "ĠCat": 7123, "Ġbear": 7124, "Ġcollege": 7125, "Ġwavelength": 7126, "Sim": 7127, "eping": 7128, "Ġstones": 7129, "\"We": 7130, "Ġflash": 7131, "Ġfacing": 7132, "Ġconclud": 7133, "Ġyes": 7134, "Ġrib": 7135, "Ġleak": 7136, "Ġcommunications": 7137, "plate": 7138, "ona": 7139, "estyle": 7140, "ĠHouse": 7141, "ĠVis": 7142, "Ġanch": 7143, "ods": 7144, "gl": 7145, "yself": 7146, "Ġcharges": 7147, "Ġorient": 7148, "Stud": 7149, "rame": 7150, "bed": 7151, "ctu": 7152, "Ġmachinery": 7153, "ĠFree": 7154, "ultane": 7155, "Ġrecords": 7156, "Ġneuro": 7157, "Ġvacuum": 7158, "Ġsymbols": 7159, "Ġastron": 7160, "Ġexists": 7161, "Ġnecessarily": 7162, "Ġsupporting": 7163, "Ġink": 7164, "Ġsick": 7165, "Ġchances": 7166, "Ġpup": 7167, "mers": 7168, "Ġaffordable": 7169, "ometer": 7170, "ĠIsland": 7171, "ĠST": 7172, "kins": 7173, "ĠBest": 7174, "ĠSil": 7175, "elly": 7176, "Ġske": 7177, "ipation": 7178, "ĠSal": 7179, "Ġevaluate": 7180, "Ġindoors": 7181, "Ġsong": 7182, "Ġstanding": 7183, "Ġpond": 7184, "Ġfacts": 7185, "on's": 7186, "Ġmosquitoes": 7187, "ĠMot": 7188, "800": 7189, "Ġluck": 7190, "Ind": 7191, "ĠofĠthe": 7192, "ĠinĠthe": 7193, "ĠtoĠthe": 7194, "ĠonĠthe": 7195, "ĠisĠa": 7196, "ĠandĠthe": 7197, "ĠisĠthe": 7198, "ĠcanĠbe": 7199, "ĠforĠthe": 7200, "ĠtoĠbe": 7201, "ĠfromĠthe": 7202, "ĠofĠa": 7203, "ĠinĠa": 7204, "ĠwithĠthe": 7205, "ĠsuchĠas": 7206, "ĠatĠthe": 7207, "ĠwithĠa": 7208, "ĠitĠis": 7209, "ĠbyĠthe": 7210, "ĠthatĠthe": 7211, "ĠasĠa": 7212, "ĠwillĠbe": 7213, "ĠtoĠa": 7214, "ĠforĠa": 7215, "ĠyouĠcan": 7216, "ĠclimateĠchange": 7217, "ĠhaveĠa": 7218, "ĠintoĠthe": 7219, "ĠusedĠto": 7220, "ĠasĠthe": 7221, "ĠasĠwell": 7222, "ĠhasĠbeen": 7223, "ĠneedĠto": 7224, "ĠWhatĠisĠthe": 7225, "ĠandĠa": 7226, "ĠonĠa": 7227, "ĠshouldĠbe": 7228, "ĠtheyĠare": 7229, "ĠisĠnot": 7230, "ĠnumberĠof": 7231, "ĠhaveĠbeen": 7232, "ĠofĠyour": 7233, "ĠthatĠis": 7234, "ĠmayĠbe": 7235, "ĠandĠother": 7236, "ĠtypeĠof": 7237, "ĠthatĠare": 7238, "ĠetĠal": 7239, "ĠItĠis": 7240, "ĠareĠthe": 7241, "ĠmoreĠthan": 7242, "ĠtoĠmake": 7243, "ĠthereĠare": 7244, "ĠifĠyou": 7245, "ĠofĠthis": 7246, "ĠsolarĠpanels": 7247, "ĠableĠto": 7248, "ĠofĠthese": 7249, "ĠoneĠofĠthe": 7250, "ĠisĠan": 7251, "ĠtypesĠof": 7252, "ĠwhichĠis": 7253, "ĠdueĠto": 7254, "ĠamountĠof": 7255, "ĠinĠyour": 7256, "ĠisĠto": 7257, "ĠforĠyour": 7258, "ĠtheĠsame": 7259, "ĠasĠwellĠas": 7260, "ĠhasĠa": 7261, "ĠthroughĠthe": 7262, "ĠwantĠto": 7263, "ĠaboutĠthe": 7264, "ĠduringĠthe": 7265, "ĠusedĠin": 7266, "ĠyouĠare": 7267, "ĠatĠa": 7268, "ĠtoĠuse": 7269, "ĠusedĠfor": 7270, "ĠfromĠa": 7271, "ĠoverĠthe": 7272, "ĠwouldĠbe": 7273, "ĠupĠto": 7274, "ĠallĠthe": 7275, "ĠuseĠof": 7276, "ĠbetweenĠthe": 7277, "ĠdoĠnot": 7278, "ĠbyĠa": 7279, "ĠrangeĠof": 7280, "ĠinĠthis": 7281, "ĠtoĠget": 7282, "ĠyouĠhave": 7283, "ĠtoĠensure": 7284, "ĠcanĠalso": 7285, "ĠdoesĠnot": 7286, "ĠtheĠmost": 7287, "ĠcouldĠbe": 7288, "ĠisĠthat": 7289, "ĠwayĠto": 7290, "ĠofĠan": 7291, "ĠaroundĠthe": 7292, "ĠThisĠis": 7293, "ĠaĠlot": 7294, "ĠusingĠa": 7295, "ĠtoĠyour": 7296, "ĠthatĠcan": 7297, "ĠimportantĠto": 7298, "ĠthereĠis": 7299, "ĠwhenĠthe": 7300, "ĠareĠnot": 7301, "ĠofĠtheir": 7302, "ĠatĠleast": 7303, "ĠaĠfew": 7304, "ĠhowĠto": 7305, "ĠvarietyĠof": 7306, "ĠsolarĠenergy": 7307, "ĠandĠis": 7308, "ĠmustĠbe": 7309, "ĠIfĠyou": 7310, "ĠonĠyour": 7311, "ĠwithinĠthe": 7312, "ĠUniversityĠof": 7313, "ĠtoĠhelp": 7314, "ĠInĠthe": 7315, "ĠifĠthe": 7316, "ĠtoĠdo": 7317, "ĠandĠthen": 7318, "ĠinĠan": 7319, "ĠinĠtheir": 7320, "ĠtoĠkeep": 7321, "ĠtheĠfirst": 7322, "ĠisĠalso": 7323, "ĠpartĠofĠthe": 7324, "ĠorĠa": 7325, "ĠtoĠcreate": 7326, "ĠthanĠthe": 7327, "ĠThereĠare": 7328, "ĠintoĠa": 7329, "ĠbasedĠon": 7330, "ĠnotĠbe": 7331, "ĠhaveĠto": 7332, "ĠU.S": 7333, "ĠorderĠto": 7334, "ĠTheyĠare": 7335, "ĠandĠmore": 7336, "ĠtheĠright": 7337, "ĠthatĠyou": 7338, "ĠofĠour": 7339, "Ġgluten-free": 7340, "ĠwhereĠthe": 7341, "ĠtoĠprevent": 7342, "ĠtheĠbest": 7343, "ĠitĠwas": 7344, "ĠacrossĠthe": 7345, "ĠandĠare": 7346, "ĠusingĠthe": 7347, "ĠweĠcan": 7348, "ĠleadĠto": 7349, "ĠyouĠwill": 7350, "ĠForĠexample": 7351, "ĠofĠwater": 7352, "ĠtoĠprovide": 7353, "ĠwhichĠare": 7354, "ĠknownĠas": 7355, "ĠforĠtheir": 7356, "ĠofĠclimateĠchange": 7357, "ĠtoĠhave": 7358, "ĠsolarĠpower": 7359, "ĠaĠnew": 7360, "ĠwithĠan": 7361, "ĠsolarĠpanel": 7362, "ĠtheyĠcan": 7363, "ĠareĠsome": 7364, "ĠtoĠsee": 7365, "ĠnotĠonly": 7366, "ĠYouĠcan": 7367, "ĠUnitedĠStates": 7368, "ĠaĠlotĠof": 7369, "ĠriskĠof": 7370, "ĠabilityĠto": 7371, "ĠbutĠalso": 7372, "ĠtheĠwater": 7373, "ĠInĠthis": 7374, "ĠtimeĠto": 7375, "ĠareĠa": 7376, "ĠthatĠwill": 7377, "ĠinĠwhich": 7378, "ĠandĠtheir": 7379, "ĠasĠan": 7380, "ĠcomparedĠto": 7381, "ĠbutĠthe": 7382, "ĠofĠits": 7383, "ĠitĠwill": 7384, "ĠcanĠhelp": 7385, "ĠsoĠthat": 7386, "ĠuseĠa": 7387, "ĠyouĠto": 7388, "ĠandĠits": 7389, "ĠitĠcan": 7390, "ĠofĠlight": 7391, "ThereĠare": 7392, "ĠhaveĠthe": 7393, "ĠWhatĠis": 7394, "ĠthatĠcanĠbe": 7395, "ĠandĠhow": 7396, "ĠorĠthe": 7397, "ĠfoundĠin": 7398, "ĠassociatedĠwith": 7399, "ĠreduceĠthe": 7400, "ĠinĠorderĠto": 7401, "ĠInĠaddition": 7402, "ĠofĠall": 7403, "ĠdesignedĠto": 7404, "ĠweĠare": 7405, "ĠaĠgood": 7406, "ĠneedĠtoĠbe": 7407, "ĠofĠmalaria": 7408, "ĠpH": 7409, "ĠkindĠof": 7410, "ĠoutĠof": 7411, "ĠweĠhave": 7412, "ĠitĠcomes": 7413, "ĠandĠto": 7414, "ĠareĠalso": 7415, "InĠthe": 7416, "ĠinĠour": 7417, "ĠdueĠtoĠthe": 7418, "ĠforĠexample": 7419, "ĠthemĠto": 7420, "ĠmightĠbe": 7421, "ĠasĠit": 7422, "ĠforĠthis": 7423, "ĠtoĠtheir": 7424, "ĠupĠthe": 7425, "ĠeasyĠto": 7426, "ĠIfĠthe": 7427, "ĠandĠcan": 7428, "ĠthroughoutĠthe": 7429, "IfĠyou": 7430, "ĠunderĠthe": 7431, "ĠsomeĠofĠthe": 7432, "ĠandĠit": 7433, "ĠasĠthey": 7434, "ĠalongĠthe": 7435, "ĠofĠtime": 7436, "ĠthatĠthey": 7437, "ĠthisĠis": 7438, "ĠlessĠthan": 7439, "ĠandĠin": 7440, "ĠwasĠthe": 7441, "ĠhowĠmuch": 7442, "ĠlikeĠa": 7443, "ĠwasĠa": 7444, "ĠyouĠneedĠto": 7445, "ĠtoĠfind": 7446, "ĠtoĠtake": 7447, "ĠcausedĠby": 7448, "ĠmakingĠit": 7449, "ĠthatĠa": 7450, "ĠorĠother": 7451, "ĠofĠDNA": 7452, "ĠtheĠtime": 7453, "ĠoffĠthe": 7454, "ĠandĠeven": 7455, "ĠlevelĠof": 7456, "ĠtoĠan": 7457, "ĠseaĠlevel": 7458, "ĠwillĠhelp": 7459, "ĠaccordingĠtoĠthe": 7460, "ĠsuitableĠfor": 7461, "ĠsourceĠof": 7462, "ĠyouĠshould": 7463, "ĠofĠtheĠfollowing": 7464, "ĠitĠto": 7465, "ĠandĠalso": 7466, "ĠthereĠisĠa": 7467, "ĠbecauseĠthe": 7468, "ĠformĠof": 7469, "ĠorĠmore": 7470, "ĠuseĠthe": 7471, "ĠgoingĠto": 7472, "ĠwhichĠcan": 7473, "ĠoverĠtime": 7474, "ĠoutĠthe": 7475, "ĠofĠthem": 7476, "ĠthatĠit": 7477, "ĠweĠwill": 7478, "ĠtoĠavoid": 7479, "ĠClimateĠChange": 7480, "ĠitĠcomesĠto": 7481, "ĠwhenĠyou": 7482, "ĠbutĠit": 7483, "ĠratherĠthan": 7484, "ĠtheĠother": 7485, "ĠneedĠfor": 7486, "Ġlong-term": 7487, "ĠendĠofĠthe": 7488, "ĠlikeĠthe": 7489, "ĠthroughĠa": 7490, "ĠtoĠthis": 7491, "ĠmakeĠsure": 7492, "ĠprovideĠa": 7493, "ĠofĠeach": 7494, "ĠafterĠthe": 7495, "ĠbasedĠonĠthe": 7496, "ĠonĠtheir": 7497, "ĠwithĠyour": 7498, "ĠinĠterms": 7499, "ĠtoĠwork": 7500, "ĠroleĠin": 7501, "ĠandĠwater": 7502, "ĠtoĠbuild": 7503, "ĠdevelopmentĠof": 7504, "ĠyouĠmay": 7505, "ĠlevelsĠof": 7506, "ĠthatĠwe": 7507, "ĠtoĠproduce": 7508, "ĠincreaseĠthe": 7509, "ĠcostĠof": 7510, "ĠwithĠother": 7511, "ĠaccordingĠto": 7512, "ĠforĠan": 7513, "ItĠis": 7514, "ĠyourĠhome": 7515, "ĠshouldĠyou": 7516, "ĠrenewableĠenergy": 7517, "ĠwillĠalso": 7518, "ĠdifferenceĠbetween": 7519, "ĠyourĠlawn": 7520, "ĠprocessĠof": 7521, "ĠsuchĠasĠthe": 7522, "ĠcreateĠa": 7523, "ĠmostĠcommon": 7524, "ĠcanĠalsoĠbe": 7525, "ĠtoĠdetermine": 7526, "ĠpartĠof": 7527, "ĠasĠmuch": 7528, "e.g": 7529, "ĠIĠhave": 7530, "ĠandĠthey": 7531, "ĠaĠlittle": 7532, "ĠtheĠlight": 7533, "ĠchangesĠin": 7534, "ĠLEDĠlights": 7535, "ĠglobalĠwarming": 7536, "ĠeffectsĠof": 7537, "ĠforĠyou": 7538, "ĠcanĠcause": 7539, "ĠmadeĠof": 7540, "ĠforĠeach": 7541, "ĠhasĠthe": 7542, "ĠsetĠof": 7543, "ĠoverĠa": 7544, "ĠaccessĠto": 7545, "ĠdoĠyou": 7546, "ĠWhichĠofĠtheĠfollowing": 7547, "ĠAsĠa": 7548, "ĠtimeĠand": 7549, "ĠinĠplace": 7550, "ĠDepartmentĠof": 7551, "ĠdependingĠonĠthe": 7552, "ĠisĠoneĠofĠthe": 7553, "Ġhigh-quality": 7554, "ĠeachĠother": 7555, "ĠtoĠmaintain": 7556, "ĠtoĠconsider": 7557, "ĠandĠI": 7558, "ĠorĠeven": 7559, "ĠwideĠrangeĠof": 7560, "ĠlikelyĠto": 7561, "ĠmuchĠmore": 7562, "ĠasĠpossible": 7563, "ĠinĠtheĠworld": 7564, "ĠinsteadĠof": 7565, "ĠandĠwill": 7566, "ĠbenefitsĠof": 7567, "ĠhealthĠand": 7568, "ĠdoesĠthe": 7569, "ĠaĠsmall": 7570, "ĠatĠall": 7571, "ĠtoĠprotect": 7572, "ĠtoĠreduce": 7573, "ĠforĠall": 7574, "ĠisĠmore": 7575, "ĠandĠthat": 7576, "ĠhowĠthe": 7577, "ĠinĠmany": 7578, "ĠandĠan": 7579, "ĠinĠsome": 7580, "ĠtoĠremove": 7581, "ĠunderstandĠthe": 7582, "ĠaroundĠtheĠworld": 7583, "ĠonĠthis": 7584, "WhatĠis": 7585, "ĠisĠvery": 7586, "ĠmakeĠit": 7587, "ĠwhileĠthe": 7588, "ĠforĠany": 7589, "ĠisĠessential": 7590, "ĠcanĠbeĠusedĠto": 7591, "ĠtheĠnumberĠof": 7592, "Ġand/or": 7593, "ĠWhatĠareĠthe": 7594, "ĠdidĠnot": 7595, "ĠthatĠhave": 7596, "ĠyearsĠago": 7597, "ĠthousandsĠof": 7598, "ĠenoughĠto": 7599, "ĠincreaseĠin": 7600, "ĠmadeĠfrom": 7601, "ĠtoĠlearn": 7602, "ĠthereĠisĠno": 7603, "ĠtoĠdevelop": 7604, "ĠwaterĠand": 7605, "ĠoneĠof": 7606, "ĠmakesĠit": 7607, "ĠrelatedĠto": 7608, "ĠsuchĠa": 7609, "ĠlackĠof": 7610, "ĠdifficultĠto": 7611, "ĠinĠtermsĠof": 7612, "ĠIĠam": 7613, "ĠtheĠsurface": 7614, "ĠtheirĠown": 7615, "ĠoutĠofĠthe": 7616, "ĠrateĠof": 7617, "ĠforĠits": 7618, "HowĠto": 7619, "ĠtheĠamountĠof": 7620, "ĠareĠmore": 7621, "ĠtheĠuseĠof": 7622, "ĠinĠmind": 7623, "ĠthatĠyour": 7624, "ĠneedsĠtoĠbe": 7625, "ĠdifferentĠtypesĠof": 7626, "ĠsinceĠthe": 7627, "ĠlightĠbulbs": 7628, "ĠlookĠat": 7629, "ĠaffectĠthe": 7630, "ĠaĠgreat": 7631, "ĠtoĠimprove": 7632, "ĠbecauseĠit": 7633, "ĠIĠwas": 7634, "ĠtheĠfollowing": 7635, "ĠwhatĠis": 7636, "ĠchoiceĠfor": 7637, "ĠisĠused": 7638, "ĠinĠall": 7639, "ĠofĠany": 7640, "ĠtoĠachieve": 7641, "ĠcanĠbeĠused": 7642, "ĠmakingĠthem": 7643, "ĠneedĠa": 7644, "ĠinĠits": 7645, "ĠisĠcrucial": 7646, "ĠandĠnot": 7647, "ĠbutĠnot": 7648, "ĠhighĠschool": 7649, "ĠhaveĠan": 7650, "ĠwaterĠquality": 7651, "ĠprovidesĠa": 7652, "ĠcapableĠof": 7653, "ĠdownĠthe": 7654, "ĠNewĠYork": 7655, "ĠtoĠcreateĠa": 7656, "ĠhadĠa": 7657, "ĠfoundĠthat": 7658, "ĠbothĠthe": 7659, "ĠtoĠits": 7660, "ĠtheĠpower": 7661, "ĠimportanceĠof": 7662, "ĠwhoĠare": 7663, "ĠbeforeĠthe": 7664, "ĠmeansĠthat": 7665, "ĠbecauseĠthey": 7666, "ĠincludingĠthe": 7667, "ĠisĠusedĠto": 7668, "ĠcarbonĠdioxide": 7669, "ĠpresenceĠof": 7670, "ĠyouĠknow": 7671, "ĠatĠnight": 7672, "ĠthatĠhas": 7673, "ĠcombinationĠof": 7674, "ĠpartsĠofĠthe": 7675, "ĠwithĠtheir": 7676, "ĠcontinueĠto": 7677, "ĠareĠoften": 7678, "ĠcanĠbeĠa": 7679, "ĠmostĠofĠthe": 7680, "ĠthatĠthis": 7681, "ĠaĠlarge": 7682, "ĠtoĠgo": 7683, "ĠmRNA": 7684, "ĠsolarĠcells": 7685, "ĠtoĠbeĠa": 7686, "ĠgroupĠof": 7687, "ĠspeciesĠof": 7688, "ĠresultĠin": 7689, "ĠinsideĠthe": 7690, "ĠtheĠworld": 7691, "OneĠofĠthe": 7692, "ĠseriesĠof": 7693, "ĠinĠone": 7694, "ĠtoĠour": 7695, "ĠandĠso": 7696, "ĠreferredĠto": 7697, "ĠtheĠsignal": 7698, "ĠisĠNOT": 7699, "ĠsystemĠis": 7700, "ĠaĠsingle": 7701, "ĠWhatĠareĠsome": 7702, "ĠtheyĠhave": 7703, "ĠtooĠmuch": 7704, "ĠidealĠfor": 7705, "ĠcreatingĠa": 7706, "ĠmakeĠa": 7707, "ĠmayĠalso": 7708, "ĠusedĠinĠthe": 7709, "ĠisĠoften": 7710, "ĠalongĠwith": 7711, "ĠadditionĠto": 7712, "ĠanyĠother": 7713, "ĠareĠavailable": 7714, "ĠinĠtheĠfuture": 7715, "ĠamountsĠof": 7716, "ĠpieceĠof": 7717, "ĠtryingĠto": 7718, "Ġwell-being": 7719, "ĠatĠtheĠsame": 7720, "ĠinĠdifferent": 7721, "ĠmayĠhave": 7722, "ĠsimilarĠto": 7723, "ĠradioĠwaves": 7724, "ĠorĠnot": 7725, "ĠwillĠnot": 7726, "ĠandĠcanĠbe": 7727, "ĠcannotĠbe": 7728, "ĠofĠlife": 7729, "ĠtoĠsupport": 7730, "ĠofĠpeople": 7731, "ĠtheĠsoil": 7732, "ĠandĠwhat": 7733, "ĠsizeĠofĠthe": 7734, "ĠtoĠgrow": 7735, "ĠitĠisĠnot": 7736, "ĠinĠthese": 7737, "ĠdesignedĠfor": 7738, "ĠasĠyou": 7739, "WhatĠisĠthe": 7740, "ĠinĠtheĠsame": 7741, "ĠlightĠbulb": 7742, "ĠforĠmany": 7743, "ĠmoreĠabout": 7744, "ĠisĠstill": 7745, "ĠofĠenergy": 7746, "ĠaĠmore": 7747, "ĠinterestedĠin": 7748, "ĠisĠcalled": 7749, "ĠthatĠcould": 7750, "ĠitâĢĻs": 7751, "ĠagainstĠthe": 7752, "ĠasĠwellĠasĠthe": 7753, "ĠitĠhas": 7754, "ĠanĠimportant": 7755, "ĠleadingĠto": 7756, "ĠwhichĠthe": 7757, "ĠaĠyear": 7758, "ĠinĠvarious": 7759, "ĠisĠno": 7760, "ĠallĠofĠthe": 7761, "ĠsetĠup": 7762, "ĠTheĠfirst": 7763, "ĠbutĠthey": 7764, "ĠtoĠidentify": 7765, "ĠyearsĠof": 7766, "ĠaĠbit": 7767, "ĠfromĠyour": 7768, "ĠWhichĠofĠtheĠfollowingĠisĠNOT": 7769, "ĠsoĠthe": 7770, "ĠwhenĠthey": 7771, "ĠdesignĠand": 7772, "ĠIĠthink": 7773, "ĠofĠit": 7774, "ĠtoĠcome": 7775, "ĠsizeĠand": 7776, "ĠmostĠimportant": 7777, "ĠresponsibleĠfor": 7778, "ĠInĠfact": 7779, "ĠofĠtwo": 7780, "ĠandĠhave": 7781, "ĠneededĠto": 7782, "ĠmayĠnot": 7783, "ĠofĠthat": 7784, "ĠtheĠcurrent": 7785, "ĠinĠany": 7786, "ĠheĠsaid": 7787, "ĠpossibleĠto": 7788, "ĠisĠusually": 7789, "ĠitĠcanĠbe": 7790, "ĠexposedĠto": 7791, "ĠfocusĠon": 7792, "ĠcleanĠand": 7793, "ĠcanĠleadĠto": 7794, "ĠmakeĠthe": 7795, "ĠseaĠlevelĠrise": 7796, "ĠandĠthis": 7797, "ĠandĠsome": 7798, "ĠuntilĠthe": 7799, "ĠandĠwe": 7800, "ĠaĠsignificant": 7801, "ĠWhenĠthe": 7802, "ĠyouĠneed": 7803, "ĠlightĠsource": 7804, "ĠifĠthey": 7805, "ĠresearchĠand": 7806, "ĠThisĠwill": 7807, "ĠtakeĠa": 7808, "ĠWhatĠshouldĠyou": 7809, "ĠofĠdifferent": 7810, "ĠscienceĠand": 7811, "ĠwithĠthis": 7812, "ĠmoreĠinformation": 7813, "ĠItĠwas": 7814, "ĠnearĠthe": 7815, "ĠtheĠway": 7816, "ĠitĠisĠimportantĠto": 7817, "ĠsolarĠsystem": 7818, "ĠtoĠmakeĠsure": 7819, "ĠwaysĠto": 7820, "ĠthatĠwas": 7821, "ĠlayerĠof": 7822, "ĠlikeĠto": 7823, "ĠimpactĠof": 7824, "ĠkHz": 7825, "ĠcarriedĠout": 7826, "ĠaĠday": 7827, "ĠinĠmy": 7828, "ĠtoĠclimateĠchange": 7829, "ĠkindsĠof": 7830, "ĠbecauseĠofĠthe": 7831, "ĠisĠit": 7832, "YouĠcan": 7833, "ĠlotĠof": 7834, "ĠdependsĠonĠthe": 7835, "InĠthis": 7836, "ĠforĠuse": 7837, "ĠdoesĠit": 7838, "ĠtoĠmeet": 7839, "ĠthoseĠwho": 7840, "ĠtoĠgive": 7841, "ĠyouĠget": 7842, "ĠisĠin": 7843, "ĠwithinĠa": 7844, "ĠdB": 7845, "Ġi.e": 7846, "ĠitsĠown": 7847, "ĠreducingĠthe": 7848, "ĠinĠtheĠUnitedĠStates": 7849, "ĠLEDĠlighting": 7850, "ĠdonâĢĻt": 7851, "ĠhavingĠa": 7852, "ĠhundredsĠof": 7853, "ĠmayĠnotĠbe": 7854, "ĠhadĠbeen": 7855, "ĠasĠaĠresult": 7856, "ĠupĠand": 7857, "ĠofĠwhich": 7858, "ĠInstituteĠof": 7859, "ĠlossĠof": 7860, "ĠsideĠofĠthe": 7861, "ĠandĠyour": 7862, "ĠbyĠan": 7863, "ĠtheĠentire": 7864, "ĠofĠhow": 7865, "ĠtheĠnew": 7866, "ĠworkingĠwith": 7867, "Ġhands-on": 7868, "ĠfromĠone": 7869, "ĠpeopleĠwho": 7870, "ĠtoĠother": 7871, "ĠandĠhigh": 7872, "ĠareasĠof": 7873, "ĠopportunityĠto": 7874, "ĠareĠvery": 7875, "ĠtheĠnext": 7876, "i.e": 7877, "ĠWhichĠofĠtheĠfollowingĠisĠNOTĠa": 7878, "ĠtopĠofĠthe": 7879, "ĠaboveĠthe": 7880, "ĠItĠalso": 7881, "ĠItĠisĠa": 7882, "ĠthatĠwould": 7883, "ĠonĠan": 7884, "ĠwillĠhave": 7885, "ĠtoĠinstall": 7886, "ĠisĠrequired": 7887, "ĠaĠvarietyĠof": 7888, "ĠfactĠthat": 7889, "ĠcaseĠof": 7890, "ĠinvolvedĠin": 7891, "ĠofĠwhat": 7892, "ĠIĠcan": 7893, "ĠasĠlong": 7894, "ĠperĠyear": 7895, "ĠareaĠof": 7896, "ĠaĠvery": 7897, "ĠandĠhas": 7898, "ĠonĠour": 7899, "ĠawayĠfrom": 7900, "ĠmethodĠof": 7901, "ĠglutenĠfree": 7902, "ĠyourĠown": 7903, "ĠexpectedĠto": 7904, "ĠwhenĠitĠcomesĠto": 7905, "Ġgluten-freeĠdiet": 7906, "Ġit'sĠnot": 7907, "ĠproductionĠof": 7908, "ĠbecomeĠa": 7909, "ĠisĠnow": 7910, "ĠaĠhigh": 7911, "ĠsignsĠof": 7912, "ĠamongĠthe": 7913, "ĠtheĠenergy": 7914, "ĠisĠbeing": 7915, "ĠtimeĠof": 7916, "ĠthanĠa": 7917, "ĠevenĠmore": 7918, "ĠanalysisĠof": 7919, "ĠaffectedĠby": 7920, "ĠatĠtheĠUniversityĠof": 7921, "ĠwhichĠwill": 7922, "ĠtheyĠwill": 7923, "ĠyouĠwantĠto": 7924, "ĠofĠcourse": 7925, "ĠforĠour": 7926, "ĠofĠsolar": 7927, "ĠofĠthose": 7928, "ĠexposureĠto": 7929, "ĠthatĠwere": 7930, "ĠgreenhouseĠgas": 7931, "ĠthatĠmay": 7932, "ĠtheĠmore": 7933, "ĠusedĠby": 7934, "ĠtoĠknow": 7935, "ĠofĠusing": 7936, "ĠinĠtheĠtext": 7937, "ĠplentyĠof": 7938, "ĠsureĠto": 7939, "ĠOneĠofĠthe": 7940, "ĠfishĠtank": 7941, "ĠbackĠto": 7942, "ĠplayĠa": 7943, "ĠfrequencyĠof": 7944, "ĠthisĠyear": 7945, "ĠAsĠthe": 7946, "ĠaĠnumberĠof": 7947, "ĠfromĠan": 7948, "ĠThisĠisĠa": 7949, "ĠeffectĠof": 7950, "ĠlistĠof": 7951, "ĠandĠtime": 7952, "ĠtoĠform": 7953, "ĠinĠSTEM": 7954, "ĠonĠtheĠother": 7955, "ĠbyĠusing": 7956, "ĠIĠwould": 7957, "ĠdependingĠon": 7958, "ĠinĠboth": 7959, "ĠinĠtheĠwater": 7960, "ĠtheĠblade": 7961, "ĠshownĠin": 7962, "ĠjustĠa": 7963, "ĠtheĠotherĠhand": 7964, "ĠpublicĠhealth": 7965, "ĠtheĠonly": 7966, "ĠwhichĠcanĠbe": 7967, "ĠperĠcent": 7968, "ĠandĠmany": 7969, "ĠifĠyou're": 7970, "ĠbecauseĠof": 7971, "ĠyouĠmight": 7972, "ĠisĠmade": 7973, "ĠwayĠof": 7974, "ĠusĠto": 7975, "ĠawayĠfromĠthe": 7976, "ĠnoĠlonger": 7977, "ĠinĠother": 7978, "ĠseeĠthe": 7979, "ĠimmuneĠsystem": 7980, "ĠwasĠnot": 7981, "ĠimpactĠon": 7982, "ĠrequireĠa": 7983, "ĠnecessaryĠto": 7984, "ĠstudentsĠto": 7985, "ĠeasierĠto": 7986, "ĠdetermineĠthe": 7987, "ĠwhatĠthe": 7988, "ĠresultingĠin": 7989, "ĠinĠtheĠfield": 7990, "ĠchangeĠthe": 7991, "<|endoftext|>": 7992, "<think>": 7993, "</think>": 7994, "<answer>": 7995, "<|reserved_0|>": 7996, "<|reserved_1|>": 7997, "<|reserved_2|>": 7998, "<|reserved_3|>": 7999}, "merges": [["Ġ", "t"], ["Ġ", "a"], ["i", "n"], ["h", "e"], ["r", "e"], ["o", "n"], ["Ġt", "he"], ["Ġ", "s"], ["e", "r"], ["a", "t"], ["Ġ", "c"], ["Ġ", "o"], ["e", "n"], ["e", "s"], ["Ġ", "w"], ["a", "n"], ["i", "t"], ["i", "s"], ["in", "g"], ["Ġ", "p"], ["o", "r"], ["Ġ", "f"], ["Ġa", "n"], ["Ġ", "b"], ["a", "l"], ["o", "u"], ["Ġ", "m"], ["e", "d"], ["Ġt", "o"], ["Ġo", "f"], ["a", "r"], ["Ġ", "in"], ["Ġan", "d"], ["Ġ", "d"], ["i", "on"], ["i", "c"], ["l", "e"], ["r", "o"], ["a", "s"], ["Ġt", "h"], ["c", "t"], ["Ġ", "h"], ["Ġ", "e"], ["en", "t"], ["Ġ", "l"], ["i", "l"], ["Ġ", "re"], ["o", "m"], ["Ġ", "is"], ["v", "e"], ["u", "s"], [".", "Ċ"], ["e", "t"], ["Ġ", "g"], ["l", "y"], ["Ġ", "n"], ["Ġ", "y"], ["o", "w"], ["u", "t"], ["i", "m"], ["o", "l"], ["Ġ", "T"], ["Ġb", "e"], ["Ġy", "ou"], ["s", "t"], ["c", "e"], ["i", "d"], ["i", "g"], ["o", "t"], ["Ġf", "or"], ["r", "a"], ["c", "h"], ["at", "ion"], ["Ġs", "t"], ["Ġ", "A"], ["u", "r"], ["Ġ", "on"], ["Ġth", "at"], ["i", "r"], ["Ġ", "I"], ["e", "l"], ["v", "er"], ["Ġa", "re"], ["u", "l"], ["Ġ", "it"], ["it", "h"], ["Ġp", "ro"], ["a", "y"], ["u", "n"], ["i", "f"], ["Ġ", "S"], ["Ġc", "on"], ["s", "e"], ["Ġw", "ith"], ["Ġo", "r"], ["Ġa", "s"], ["a", "m"], [".Ċ", "Ċ"], ["Ġa", "l"], ["he", "r"], ["Ċ", "Ċ"], ["Ġ", "C"], ["a", "d"], ["es", "t"], ["o", "d"], ["Ġc", "an"], ["t", "er"], ["g", "e"], ["q", "u"], ["u", "re"], ["at", "e"], ["ĠT", "he"], ["k", "e"], ["Ġw", "h"], ["Ġc", "om"], ["u", "m"], ["an", "t"], ["es", "s"], ["il", "l"], ["p", "e"], ["ig", "h"], ["a", "b"], ["Ġ", "us"], ["Ġe", "x"], ["o", "re"], ["Ġ", "W"], ["er", "s"], ["Ġ", "v"], ["it", "y"], ["m", "ent"], ["Ġw", "e"], ["i", "ve"], ["Ġs", "e"], ["Ġ", "("], ["is", "t"], ["Ġd", "e"], ["Ġh", "a"], ["Ġ", "P"], ["ro", "m"], ["t", "h"], ["o", "s"], ["Ġyou", "r"], ["a", "c"], ["Ġ", "he"], ["a", "in"], ["'", "s"], ["i", "es"], ["an", "d"], ["Ġ", "M"], ["p", "p"], ["Ġc", "h"], ["i", "al"], ["Ġ", "en"], ["e", "ct"], ["l", "d"], ["Ġs", "h"], ["ou", "n"], ["Ġn", "e"], ["Ġ", "r"], ["Ġ", "B"], ["Ġa", "t"], ["igh", "t"], ["e", "m"], ["Ġs", "u"], ["o", "p"], ["Ġf", "rom"], ["Ġp", "l"], ["Ġ", "D"], ["re", "n"], ["al", "l"], ["or", "t"], ["Ġha", "ve"], ["i", "v"], ["re", "s"], ["Ġb", "y"], ["Ġ", "H"], ["p", "er"], ["Ġ", "le"], ["â", "Ģ"], ["Ġ", "F"], ["ic", "al"], ["om", "e"], ["Ġn", "ot"], ["o", "c"], ["Ġ", "un"], ["us", "t"], ["Ġth", "is"], ["id", "e"], ["ar", "t"], ["u", "d"], ["a", "ct"], ["Ġm", "a"], ["r", "i"], ["in", "e"], ["Ġ", "R"], ["Ġ", "E"], ["at", "er"], ["ou", "ld"], ["p", "l"], ["d", "u"], ["Ġa", "b"], ["ar", "d"], ["p", "t"], ["o", "g"], ["o", "st"], ["re", "d"], ["ion", "s"], ["as", "t"], ["Ġ", "im"], ["Ġw", "ill"], ["ou", "t"], ["ic", "h"], ["Ġcom", "p"], ["Ġw", "he"], ["Ġin", "t"], ["i", "z"], ["el", "l"], ["f", "f"], ["a", "ge"], ["a", "g"], ["Ġw", "or"], ["Ġ", "k"], ["t", "her"], ["Ġd", "o"], ["ou", "r"], ["n", "s"], ["Ġa", "d"], ["T", "he"], ["g", "h"], ["oun", "d"], ["Ġ", "L"], ["ab", "le"], ["k", "ing"], ["Ġthe", "y"], ["at", "ed"], ["Ġ", "G"], ["Ġ", "N"], ["Ġthe", "ir"], ["an", "s"], ["ou", "gh"], ["Ġal", "l"], ["Ġcon", "t"], ["Ġm", "ore"], ["o", "od"], ["an", "ce"], ["d", "er"], ["r", "u"], ["r", "y"], ["Ġc", "l"], ["Ġw", "as"], ["i", "p"], ["ou", "s"], ["k", "s"], ["o", "o"], ["al", "ly"], ["Ġ", "O"], ["Ġs", "o"], ["ĠT", "h"], ["Ġm", "e"], ["Ġre", "s"], ["ul", "t"], ["ĠI", "n"], ["or", "m"], ["s", "o"], ["c", "c"], ["ation", "s"], ["en", "d"], ["Ġb", "ut"], ["Ġwh", "ich"], ["ct", "ion"], ["Ġt", "e"], ["u", "p"], ["Ġin", "c"], ["in", "d"], ["i", "b"], ["e", "p"], ["f", "e"], ["on", "g"], ["Ġo", "ut"], ["Ġs", "p"], ["Ġh", "as"], ["ig", "n"], ["Ġ", "j"], ["Ġd", "is"], ["2", "0"], ["Ġim", "p"], ["Ġ", "\""], ["im", "e"], ["i", "ke"], ["ren", "t"], ["a", "ce"], ["a", "v"], ["Ġ", "ro"], ["i", "e"], ["ve", "l"], ["Ġo", "ther"], ["as", "e"], ["w", "er"], ["Ġal", "so"], ["e", "ar"], ["h", "at"], ["Ġa", "r"], ["Ġs", "pe"], ["le", "ct"], ["en", "ce"], ["Q", "u"], ["Ġon", "e"], ["a", "p"], ["est", "ion"], ["Ġ", "U"], ["as", "s"], ["Ġm", "an"], ["i", "re"], ["on", "e"], ["Ġg", "en"], ["Ġf", "l"], ["Ġs", "c"], ["ent", "s"], ["or", "s"], ["it", "e"], ["a", "ch"], ["res", "s"], ["it", "ion"], ["Ġp", "er"], ["en", "s"], ["ic", "e"], ["ver", "y"], ["ac", "k"], ["a", "us"], ["Ġe", "v"], ["Ġthe", "m"], ["ĠI", "t"], ["Ġp", "re"], ["ar", "y"], ["Ġf", "e"], ["Ġ", "qu"], ["t", "e"], ["'", "t"], ["Ġ", "up"], ["Ġab", "out"], ["Ġl", "ike"], ["ns", "wer"], ["Ġd", "if"], ["Ġs", "y"], ["n", "ow"], ["Qu", "estion"], ["Ġwhe", "n"], ["Ġt", "r"], ["Ġus", "e"], ["ar", "i"], ["Ġs", "ome"], ["c", "es"], ["is", "h"], ["i", "le"], ["Ġt", "ime"], ["at", "ing"], ["ĠA", "nswer"], ["ĠTh", "is"], ["f", "orm"], ["Ġus", "ed"], ["Ġint", "o"], ["u", "e"], ["Ġa", "pp"], ["l", "l"], ["ro", "w"], ["Ġp", "art"], ["a", "re"], ["re", "e"], ["r", "ic"], ["Ġne", "ed"], ["a", "il"], ["if", "ic"], ["Ġ", "if"], ["b", "er"], ["Ġh", "ow"], ["Ġit", "s"], ["il", "d"], ["l", "es"], ["an", "g"], ["Ġc", "o"], ["a", "k"], ["Ġth", "an"], ["ay", "s"], ["ing", "s"], ["c", "ess"], ["Ġ", "âĢ"], ["Ġc", "ol"], ["Ġb", "et"], ["Ġan", "y"], ["Ġm", "ay"], ["am", "e"], ["o", "se"], ["Ġd", "es"], ["Ġo", "ver"], ["Ġbe", "c"], ["Ġthe", "re"], ["Ġ", "Y"], ["Ġ", "ra"], ["Ġcom", "m"], ["w", "e"], ["Ġs", "a"], ["t", "s"], ["Ġspe", "c"], ["Ġdif", "fe"], ["Ġthe", "se"], ["l", "ow"], ["i", "a"], ["Ġcon", "s"], ["re", "at"], ["Ġw", "ater"], ["st", "em"], ["0", "0"], ["ol", "og"], ["t", "ing"], ["Ġre", "c"], ["Ġin", "d"], ["aus", "e"], ["Ġpro", "du"], ["Ġk", "now"], ["ul", "ar"], ["Ġb", "l"], ["d", "s"], ["Ġhe", "l"], ["ow", "er"], ["on", "s"], ["Ġs", "ol"], ["Ġm", "et"], ["Ġt", "ra"], ["ic", "k"], ["r", "ough"], ["Ġp", "e"], ["Ġe", "ff"], ["o", "ve"], ["ĠW", "hat"], ["Ġg", "r"], ["ot", "h"], ["Ġt", "w"], ["u", "b"], ["at", "ure"], ["Ġsu", "ch"], ["Ġhel", "p"], ["ver", "s"], ["Ġa", "cc"], ["Ġ", "J"], ["t", "en"], ["al", "s"], ["Ġpl", "ant"], ["il", "ity"], ["j", "ect"], ["m", "s"], ["oo", "k"], ["c", "k"], ["Ġt", "y"], ["Ġm", "ost"], ["p", "le"], ["Ġg", "o"], ["Ġo", "ur"], ["Ġst", "ud"], ["a", "ke"], ["y", "s"], ["Ġun", "der"], ["Ġwh", "at"], ["Ġad", "d"], ["Ġma", "ke"], ["en", "c"], ["he", "s"], ["an", "ge"], ["Ġg", "et"], ["Ġa", "m"], ["p", "h"], ["or", "y"], ["ment", "s"], ["Ġpro", "v"], ["Ġsy", "stem"], ["i", "ent"], ["ur", "ing"], ["Ġy", "ear"], ["at", "es"], ["Ġp", "o"], ["Ġof", "f"], ["l", "ud"], ["Ġa", "ct"], ["ic", "s"], ["Ġsh", "ould"], ["Ġs", "m"], ["er", "g"], ["Ġp", "r"], ["x", "t"], ["Ġp", "h"], ["Ġwe", "re"], ["Ġne", "w"], ["he", "n"], ["Ġe", "lect"], ["Ġtw", "o"], ["or", "d"], ["o", "v"], ["t", "ain"], ["Ġh", "igh"], ["Ġtr", "ans"], ["Ġs", "ur"], ["Ġbe", "en"], ["Ġa", "g"], ["Ġdiffe", "rent"], ["b", "s"], ["er", "v"], ["n", "ing"], ["ĠS", "t"], ["Ġw", "ould"], [".", "."], ["Ġ", "ke"], ["it", "s"], ["Ġth", "rough"], ["ir", "st"], ["ĠA", "n"], ["Ġ", "V"], ["Ġ", "K"], ["b", "le"], ["ch", "n"], ["Ġwh", "o"], ["f", "ul"], ["on", "d"], ["u", "al"], ["ad", "e"], ["Ġe", "m"], ["Ġon", "ly"], ["Ġv", "ari"], ["Ġinc", "lud"], ["ow", "n"], ["Ġin", "ter"], ["is", "e"], ["Ġl", "ight"], ["we", "en"], ["Ġb", "u"], ["Ġwor", "k"], ["f", "t"], ["I", "n"], ["Ġc", "re"], ["n", "e"], ["in", "t"], ["Ġn", "o"], ["Ġre", "p"], ["Ġm", "od"], ["Ġman", "y"], ["f", "ore"], ["Ġp", "os"], ["Ġre", "l"], ["Ġj", "ust"], ["at", "ive"], ["Ġs", "im"], ["Ġ", "-"], ["op", "le"], ["Ġbet", "ween"], ["ater", "ial"], ["Ġin", "st"], ["ib", "le"], ["Ġre", "g"], ["Ġus", "ing"], ["Ġre", "m"], ["it", "ies"], ["Ġd", "et"], ["oun", "t"], ["Ġw", "ell"], ["c", "ed"], ["Ġc", "ar"], ["Ġs", "ign"], ["Ġd", "i"], ["Ġfor", "m"], ["ar", "k"], ["he", "d"], ["iz", "e"], ["1", "0"], ["Ġpro", "cess"], ["1", "9"], ["l", "ic"], ["er", "m"], ["g", "et"], ["ut", "ion"], ["Ġwhe", "re"], ["Ġdo", "es"], ["ra", "ct"], ["ent", "ial"], ["o", "b"], ["Ġa", "c"], ["Ġg", "row"], ["Ġl", "ong"], ["Ġf", "un"], ["Ġimp", "ort"], ["vel", "op"], ["Ġm", "aterial"], ["Ġf", "irst"], ["Ġpe", "ople"], ["Ġre", "qu"], ["in", "k"], ["i", "ence"], ["ra", "m"], ["in", "es"], ["ar", "ch"], ["?", "Ċ"], ["f", "ter"], ["Ġthe", "n"], ["Ġte", "chn"], ["as", "ed"], ["Ġm", "ain"], ["Ġc", "he"], ["Ġex", "per"], ["Ġw", "ay"], ["u", "ally"], ["ir", "c"], ["ĠC", "h"], ["ru", "ct"], ["ical", "ly"], ["u", "ch"], ["Ġat", "t"], ["Ġin", "v"], ["Ġc", "ould"], ["om", "et"], ["erg", "y"], ["Ġm", "y"], ["Ġbec", "ause"], ["pe", "ct"], ["ĠI", "f"], ["Ġgen", "er"], ["Ġp", "at"], ["ri", "b"], ["20", "1"], ["e", "ver"], ["i", "qu"], ["Ġc", "ur"], ["Ġde", "velop"], ["ĠH", "ow"], ["a", "w"], [")", "."], ["Ġp", "ower"], ["if", "e"], ["Ġe", "ach"], ["Ġin", "s"], ["Ġev", "en"], ["Ġde", "c"], ["Ġex", "p"], ["ra", "w"], ["Ġb", "r"], ["ure", "s"], ["in", "s"], ["Ġit", "'s"], ["Ġl", "ar"], ["Ġn", "um"], ["Ġ", "very"], ["olog", "y"], ["Ġf", "ol"], ["i", "ous"], ["ĠThe", "y"], ["al", "th"], ["r", "on"], ["ir", "on"], ["Ġas", "s"], ["is", "s"], ["Ġex", "t"], ["Ġg", "l"], ["n", "'t"], ["c", "ial"], ["on", "'t"], ["Ġe", "very"], ["Ġimport", "ant"], ["Ġsu", "pp"], ["m", "er"], ["ur", "al"], ["Ġdes", "ign"], ["el", "s"], ["Ġcon", "c"], ["Ġres", "ult"], ["Ġre", "se"], ["Ġsm", "all"], ["Ġeff", "ect"], ["Ġex", "am"], ["?", "ĊĊ"], ["st", "and"], ["Ġs", "et"], ["ĠW", "h"], ["h", "ing"], ["i", "ed"], ["Ġa", "v"], ["ĠâĢ", "ĵ"], ["e", "f"], ["al", "ity"], ["Ġse", "e"], ["Ġg", "ra"], ["Ġp", "a"], ["ĠU", "n"], ["Ġm", "in"], ["e", "re"], ["g", "an"], ["Ġsu", "b"], ["ol", "d"], [")", ","], ["âĢ", "Ļ"], ["i", "an"], ["Ġm", "uch"], ["ĠY", "ou"], ["i", "x"], ["il", "y"], ["Ġen", "ergy"], ["p", "s"], ["'", "re"], ["ag", "es"], ["Ġh", "um"], ["Ġdis", "c"], ["Ġty", "p"], ["r", "it"], ["Ġf", "ind"], ["Ġp", "ot"], ["Ġl", "oc"], ["Ġcomp", "le"], ["v", "ent"], ["ro", "s"], ["Ġc", "or"], ["Ġb", "ack"], [",", "\""], ["et", "y"], ["Ġe", "as"], ["Ġh", "is"], ["Ġe", "qu"], ["Ġg", "ood"], ["Ġin", "f"], ["Ġch", "ar"], ["Ġyear", "s"], ["enc", "y"], ["im", "ate"], ["form", "ation"], ["at", "a"], ["Ġinc", "re"], ["Ġall", "ow"], ["e", "c"], ["Ġw", "ant"], ["N", "A"], ["id", "ent"], ["Ġwh", "ile"], ["T", "h"], ["Ġst", "r"], ["g", "g"], ["Ġs", "ame"], ["pt", "ion"], ["Ġf", "ound"], ["Ġc", "all"], ["ist", "s"], ["v", "iron"], ["u", "c"], ["Ġfol", "low"], ["Ġh", "and"], ["as", "es"], ["oc", "k"], ["o", "f"], ["Ġp", "ers"], ["Ġar", "t"], ["Ġm", "ade"], ["i", "el"], ["o", "ol"], ["Ġse", "c"], ["Ġd", "ist"], ["Ġpro", "per"], ["Ġf", "act"], ["ĠA", "s"], ["Ġst", "art"], ["Ġh", "ad"], ["Ġde", "p"], ["Ġle", "ar"], ["id", "er"], ["Ġwor", "ld"], ["ot", "her"], ["Ġv", "al"], ["u", "es"], ["o", "y"], ["w", "or"], ["ĠW", "e"], ["Ġc", "le"], ["en", "g"], ["Ġp", "res"], ["i", "o"], ["Ġex", "pl"], ["el", "f"], ["Ġc", "ell"], ["iz", "ed"], ["at", "her"], ["Ġs", "k"], ["re", "ad"], ["Ġd", "uring"], ["Ġbe", "ing"], ["Ġcont", "ro"], ["i", "um"], ["Ġbe", "fore"], ["Ġsh", "ow"], ["Ġpart", "ic"], ["Ġt", "ake"], ["Ġar", "ound"], ["ic", "es"], ["Ġs", "he"], ["Ġo", "b"], ["Ġa", "ut"], ["Ġa", "fter"], ["iv", "es"], ["ro", "p"], ["Ġle", "vel"], ["ation", "al"], ["ĠF", "or"], ["id", "es"], ["d", "ition"], ["Ġb", "oth"], ["Ġm", "at"], ["it", "t"], ["Ġof", "ten"], ["Ġhe", "alth"], ["Ġd", "own"], ["ar", "m"], ["Ġa", "ir"], ["Ġt", "em"], ["Ġr", "ight"], ["ur", "n"], ["Ġ", "ent"], ["Ġpro", "t"], ["Ġb", "o"], ["l", "ed"], ["Ġf", "ood"], ["Ġch", "ild"], ["Ġen", "s"], ["Ġb", "est"], ["ter", "n"], ["Ġcomm", "on"], ["Ġh", "ome"], ["Ġc", "ut"], ["Ġ", "her"], ["h", "od"], ["Ġg", "u"], ["w", "n"], ["Ġen", "viron"], ["e", "g"], ["t", "y"], ["Ġe", "ar"], ["Ġprodu", "ct"], ["Ġin", "formation"], ["Ġre", "du"], ["Ġl", "ook"], ["n", "ess"], ["o", "id"], ["et", "ic"], ["w", "ard"], ["W", "hat"], ["im", "es"], [":", "Ċ"], [".", "\""], ["ĠP", "ro"], ["et", "s"], ["Ġd", "r"], ["Ġre", "f"], ["om", "m"], ["Ġcon", "st"], ["Ġke", "ep"], ["a", "ve"], ["Ġ", "ve"], ["Ġa", "p"], ["Ġsol", "ar"], ["Ġnum", "ber"], ["Ġen", "g"], ["20", "0"], ["Ġd", "on't"], ["Ġpl", "ay"], ["Ġl", "ess"], ["Ġto", "o"], ["Ġd", "ata"], ["Ġth", "ose"], ["od", "y"], ["act", "er"], ["Ġpro", "ble"], ["Ġ", "'"], ["Ġpro", "ject"], ["Ġd", "ire"], ["Ġpos", "s"], ["ic", "t"], ["Ġv", "ol"], ["-", "s"], ["Ġplant", "s"], ["v", "ed"], ["Ġt", "est"], ["Ġbu", "ild"], ["Ġunder", "stand"], ["Ġde", "f"], ["Ġpl", "an"], ["Ġp", "op"], ["Ġen", "d"], ["i", "er"], ["al", "e"], ["ul", "l"], ["Ġra", "d"], ["Ġd", "raw"], ["Ġle", "ad"], ["Ġsur", "f"], ["as", "on"], ["Ġl", "ife"], ["Ġf", "in"], ["Ġv", "is"], ["and", "s"], ["Ġm", "on"], ["Ġcur", "rent"], ["n", "ect"], ["Ġad", "v"], ["Ġpers", "on"], ["i", "red"], ["Ġre", "ad"], ["t", "he"], ["ion", "al"], [":", "ĊĊ"], ["H", "ow"], ["-", "b"], ["Ġc", "irc"], ["i", "vers"], ["ie", "w"], ["Ġo", "wn"], ["on", "t"], ["ĠThe", "se"], ["v", "ing"], ["o", "le"], ["Ġto", "ol"], ["ren", "ce"], ["Ġs", "l"], ["..", "."], ["as", "h"], ["ce", "pt"], ["in", "ed"], ["ĠE", "n"], ["Ġcomm", "un"], ["Ġprov", "ide"], ["Ġ", "ed"], ["Ġch", "ange"], ["Ġc", "ost"], ["Ġmet", "hod"], ["ul", "ation"], ["Ġme", "as"], ["Ġty", "pe"], ["Ġm", "ed"], ["Ġp", "ar"], ["ut", "e"], ["Ġsa", "id"], ["per", "ature"], ["Ġe", "le"], ["ĠA", "l"], ["re", "en"], ["Ġenviron", "ment"], ["1", "2"], ["re", "qu"], ["Ġ", "="], ["Ġs", "omet"], ["it", "ed"], ["l", "ess"], ["Ġlar", "ge"], ["v", "es"], ["Th", "is"], ["g", "er"], ["a", "ir"], ["Ġn", "ow"], ["ter", "s"], ["w", "ay"], ["-", "c"], ["iel", "d"], ["p", "en"], ["Ġor", "gan"], ["iv", "id"], ["an", "y"], ["ot", "s"], ["Ġma", "king"], ["Ġexam", "ple"], ["Ġc", "r"], ["ĠT", "o"], ["ĠH", "e"], ["ar", "s"], ["Ġstud", "y"], ["Ġf", "ish"], ["ab", "ility"], ["in", "ing"], ["is", "m"], ["it", "ions"], ["Ġpro", "g"], ["a", "king"], ["Ġm", "ight"], ["Ġd", "ay"], ["Ġpro", "f"], ["ch", "ool"], ["w", "ays"], ["at", "or"], ["-", "f"], ["Ġspec", "ies"], ["an", "k"], ["ant", "s"], ["Ġd", "am"], ["Ġc", "at"], ["Ġto", "p"], ["Ġwith", "out"], ["Ġdis", "e"], ["oc", "i"], ["in", "ce"], ["l", "ing"], ["er", "t"], ["Ġ", "ident"], ["Ġcre", "ate"], ["Ġst", "ruct"], ["Ġc", "ent"], ["Ġp", "ur"], ["e", "w"], ["Ġrese", "arch"], ["ou", "se"], ["ĠS", "c"], ["Ġmaterial", "s"], ["Ġcont", "ain"], ["Ġprot", "ect"], ["Ġs", "erv"], ["e", "x"], ["Ġo", "pt"], ["Ġtem", "perature"], ["ff", "ect"], ["Ġc", "are"], ["Ġknow", "n"], ["Ġo", "per"], ["if", "y"], ["1", "5"], ["Ġg", "reat"], ["Ġ", "ide"], ["at", "h"], ["Ġo", "cc"], ["Ġan", "im"], ["d", "ay"], ["v", "en"], ["Ġth", "ree"], ["Ġcontro", "l"], ["iv", "ing"], ["Ġsign", "ific"], ["er", "n"], ["Ġb", "re"], ["Ġst", "ill"], ["Ġbet", "ter"], ["Ġcl", "ass"], ["ip", "s"], ["Ġch", "ang"], ["y", "c"], ["Ġh", "y"], ["iv", "ity"], ["a", "pe"], ["Ġper", "form"], ["ros", "s"], ["Ġm", "ust"], ["ĠThe", "re"], ["iv", "en"], ["ust", "r"], ["e", "ad"], ["Ġs", "er"], ["p", "ut"], ["Ġinclud", "ing"], ["k", "es"], ["Ġimp", "ro"], ["os", "s"], ["Ġpo", "int"], ["Ġb", "en"], ["Ġcon", "nect"], ["Ġfe", "w"], ["Ġc", "ap"], ["a", "red"], ["Ġpl", "ace"], ["Ġst", "ep"], ["Ġb", "as"], ["Ġcall", "ed"], ["l", "ine"], ["c", "ing"], ["Ġare", "a"], ["ĠAn", "d"], ["iqu", "e"], ["Ġd", "id"], ["Ġb", "ir"], ["Ġspec", "ific"], ["n", "er"], ["Ġh", "ard"], ["Ġag", "ain"], ["i", "or"], ["m", "e"], ["Ġre", "al"], ["I", "t"], ["Ġsurf", "ace"], ["g", "en"], ["Ġc", "al"], ["Ġap", "pe"], ["it", "ive"], ["Ġso", "il"], ["Ġcons", "ider"], ["Ġres", "p"], ["I", "f"], ["Ġl", "ow"], ["Ġan", "al"], ["Ġ", "ess"], ["ĠB", "ut"], ["ĠHow", "ever"], ["Ġp", "ol"], ["ĠA", "d"], ["âĢĻ", "s"], ["b", "r"], ["ol", "ution"], ["ĠW", "hen"], ["a", "pt"], ["Ġhum", "an"], ["Ġapp", "ro"], ["o", "es"], ["Ġpot", "ential"], ["her", "s"], ["-", "t"], ["Ġn", "at"], ["Ġp", "an"], ["Ġl", "ine"], ["Ġs", "w"], ["ĠI", "'"], ["p", "ar"], ["Ġvari", "ous"], ["en", "se"], ["Ġs", "ure"], ["Ġf", "requ"], ["Ġke", "y"], ["id", "s"], ["1", "8"], ["it", "al"], ["he", "re"], ["Ġl", "oo"], ["Ġbe", "h"], ["Ġrequ", "ire"], ["3", "0"], ["Ġimp", "act"], ["av", "es"], ["Ġcon", "f"], ["Ġpre", "vent"], ["Ġapp", "lic"], ["o", "ad"], ["ro", "du"], ["Ġch", "o"], ["h", "y"], ["ent", "ion"], ["er", "tain"], ["Ġwith", "in"], ["ĠP", "l"], ["Ġb", "ody"], ["ĠS", "o"], ["Ġf", "am"], ["Ġb", "i"], ["Ġdire", "ct"], ["Ġstud", "ents"], ["Ġfun", "ction"], ["Ġtyp", "es"], ["iz", "ation"], ["Ġst", "and"], ["Ġr", "is"], ["in", "ation"], ["in", "ess"], ["Ġsp", "ace"], ["Ġp", "ract"], ["Ġth", "ink"], ["Ġyou", "'re"], ["Ġde", "v"], ["Ġs", "ize"], ["Ġadd", "ition"], ["Ġbe", "l"], ["Ġte", "xt"], ["Ġfollow", "ing"], ["Ġth", "ough"], ["Ġelect", "r"], ["Ġs", "our"], ["Ġis", "s"], ["o", "or"], ["Ġd", "el"], ["ed", "s"], ["Ġsupp", "ort"], ["A", "n"], ["Ġc", "aus"], ["Ġind", "ivid"], ["Ġens", "ure"], ["p", "r"], ["ot", "t"], ["ou", "p"], ["Ġha", "pp"], ["Ġcont", "in"], ["Ġav", "ail"], ["Ġle", "t"], ["re", "te"], ["Ġm", "ark"], ["Ġma", "g"], ["er", "ing"], ["ent", "ly"], ["a", "x"], ["ast", "e"], ["00", "0"], ["5", "0"], ["is", "hed"], ["Ġsystem", "s"], ["ent", "al"], ["itt", "le"], ["d", "e"], ["is", "ion"], ["Ġr", "un"], ["Ġben", "ef"], ["il", "ar"], ["Ġma", "ch"], ["Ġlear", "n"], ["Ġw", "ood"], ["Ġd", "ue"], ["if", "ied"], ["ord", "ing"], ["Ġan", "other"], ["os", "ed"], ["o", "ver"], ["Ġe", "t"], ["Ġf", "il"], ["Ġposs", "ible"], ["Ġth", "ings"], ["od", "e"], ["Ġeff", "ic"], ["Ġm", "ill"], ["Ġm", "ult"], ["ivers", "ity"], ["Ġcon", "d"], ["om", "es"], ["Ġst", "y"], ["Ġp", "ass"], ["Ġl", "im"], ["Ġhe", "re"], ["p", "ort"], ["S", "t"], ["Ġelect", "ric"], ["Ġ", "est"], ["Ġf", "ree"], ["Ġwh", "y"], ["Ġinst", "all"], ["Ġc", "our"], ["re", "es"], ["Ġme", "ans"], ["ra", "in"], ["Ġse", "ver"], ["Ġdet", "erm"], ["-", "d"], ["Ġph", "ys"], ["Ġinv", "ol"], ["Ġh", "ig"], ["Ġst", "ate"], ["u", "g"], ["Ġl", "ay"], ["l", "ight"], ["Ġ", "z"], ["Ġab", "le"], ["us", "s"], ["'", "ll"], ["m", "b"], ["Ġres", "ist"], ["Ġs", "un"], ["c", "ul"], ["f", "er"], ["Ġs", "it"], ["Ġcom", "e"], ["Ġb", "us"], ["Ġinclud", "e"], ["i", "ver"], ["Ġr", "ange"], ["ĠD", "NA"], ["Ġcom", "b"], ["Ġmeas", "ure"], ["om", "s"], ["f", "act"], ["ĠS", "e"], ["Ġdep", "end"], ["Ġcol", "or"], ["Ġl", "ast"], ["Ġc", "ause"], ["Ġcle", "an"], ["Ġm", "ove"], ["Ġal", "ways"], ["ra", "ft"], ["Ġess", "ential"], ["Ġt", "ry"], ["Ġdes", "c"], ["Ġsomet", "hing"], ["Ġsignific", "ant"], ["Ġbec", "ome"], ["Ġan", "g"], ["Ġavail", "able"], ["in", "al"], ["en", "ces"], ["ĠA", "r"], ["b", "e"], ["m", "at"], ["Ġche", "m"], ["Ġst", "e"], ["Ġhe", "at"], ["Ġnat", "ural"], ["Ġcomp", "ut"], ["Ġc", "ount"], ["Ġp", "ub"], ["ard", "s"], ["Ġsever", "al"], ["ac", "es"], ["Ġp", "ut"], ["Ġw", "ind"], ["Ġprof", "ess"], ["ĠO", "n"], ["Ġgo", "ing"], ["Ġl", "ittle"], ["Ġme", "an"], ["Ġare", "as"], ["Ġchild", "ren"], ["Ġtechn", "ology"], ["an", "e"], ["ic", "le"], ["1", "1"], ["ĠC", "l"], ["c", "hes"], ["Ġsc", "ient"], ["-", "p"], ["Ġ", "["], ["Ġpres", "ent"], ["em", "ber"], ["Ġre", "ally"], ["Ġfe", "el"], ["Ġresult", "s"], ["ast", "ic"], ["Ġo", "pen"], ["Ġs", "al"], ["Ġfe", "ature"], ["Ġfl", "ow"], ["Ġa", "ffect"], ["at", "s"], ["cc", "ess"], [".", ","], ["Ġus", "ually"], ["Ġdise", "ase"], ["Ġs", "ay"], ["Ġwe", "ar"], ["ĠS", "h"], ["Ġm", "ic"], ["Ġb", "ased"], ["Ġgr", "ound"], ["an", "ces"], ["Ġl", "ot"], ["ak", "es"], ["ate", "g"], ["ere", "st"], ["th", "ing"], ["Ġneed", "s"], ["t", "il"], ["Ġhe", "ad"], ["Ġen", "ough"], ["Ġn", "on"], ["Ġe", "l"], ["r", "ation"], ["ill", "s"], ["a", "z"], ["ru", "ction"], ["Ġs", "ing"], ["t", "ed"], ["ic", "ation"], ["Ġte", "am"], ["Ġp", "ress"], ["1", "00"], ["Ġro", "of"], ["Ġh", "ist"], ["Ġma", "kes"], ["ĠE", "x"], ["Ġeng", "ine"], ["du", "ct"], ["Ġ", "er"], ["u", "ra"], ["mer", "ic"], ["i", "ation"], ["pl", "es"], ["om", "p"], ["Ġqu", "ality"], ["W", "e"], ["c", "ent"], ["ot", "e"], ["an", "n"], ["Ġacc", "ess"], ["o", "x"], ["wor", "k"], ["Ġint", "erest"], ["Ġcond", "itions"], ["i", "od"], ["ĠI", "s"], ["Ġre", "ce"], ["Ġt", "imes"], ["ab", "les"], ["Ġm", "ot"], ["Ġs", "chool"], ["Ġs", "ide"], ["am", "p"], ["ĠIt", "'s"], ["W", "hen"], ["Ġprov", "id"], ["Ġre", "st"], ["ar", "c"], ["Ġre", "pl"], ["Ġcell", "s"], ["f", "ort"], ["1", "6"], ["Ġ", "es"], ["ard", "en"], ["Ġd", "ig"], ["end", "ed"], ["Ġsh", "ort"], ["Ġbe", "g"], ["Ġf", "ield"], ["ĠR", "e"], ["Ġdevelop", "ment"], ["Ġp", "ain"], ["Ġor", "der"], ["Ġwe", "e"], ["ĠC", "on"], ["Ġt", "reat"], ["ab", "ly"], ["ff", "ic"], ["i", "ents"], ["Ġspec", "ial"], ["Ġpartic", "ular"], ["ur", "ther"], ["ĠR", "es"], ["Ġchar", "acter"], ["u", "fact"], ["Ġe", "c"], ["Ġob", "ject"], ["our", "s"], ["Ġg", "ive"], ["Ġ", "$"], ["ie", "ve"], ["E", "D"], ["Ġde", "m"], ["l", "and"], ["Ġocc", "ur"], ["1", "4"], ["Ġexper", "ience"], ["Ġre", "act"], ["in", "c"], ["Ġm", "ar"], ["at", "ch"], ["A", "s"], ["âĢ", "Ķ"], ["Ġsim", "ilar"], ["Ġeas", "y"], ["em", "s"], ["le", "t"], ["o", "ot"], ["Ġto", "get"], ["Ġtoget", "her"], ["Ġpr", "im"], ["pe", "cial"], ["Ġo", "pp"], ["Ġs", "ens"], ["pp", "ing"], ["r", "ound"], ["i", "res"], ["Ġcomp", "on"], ["ĠW", "ith"], ["Ġsec", "ond"], ["Ġpro", "te"], [")", "Ċ"], ["Ġmod", "el"], ["Ġen", "c"], ["a", "ut"], ["âĢ", "Ŀ"], ["Ġre", "t"], ["Ġc", "ertain"], ["or", "ies"], ["Ġ", "&"], ["Ġp", "ost"], ["h", "ip"], ["Ġo", "ld"], ["Ġrep", "ort"], ["as", "ter"], ["ra", "ph"], ["b", "ers"], ["r", "ing"], ["Ġc", "ase"], ["eng", "th"], ["Ġs", "ince"], ["f", "ect"], ["ou", "th"], ["âĢ", "ĵ"], ["h", "or"], ["Ġcomple", "te"], ["-", "-"], ["Ġproble", "m"], ["Ġcl", "imate"], ["Ġconc", "rete"], ["Ġt", "er"], ["ĠB", "y"], ["Ġsim", "ple"], ["Ġdam", "age"], ["ch", "an"], ["Ġmain", "tain"], ["Ġb", "ig"], ["Ġm", "ov"], ["Ġeffect", "ive"], ["in", "ts"], ["a", "f"], ["ust", "om"], ["Ġhig", "her"], ["Ġne", "cess"], ["Ġun", "til"], ["ĠA", "meric"], ["Ġam", "ount"], ["at", "ter"], ["ag", "n"], ["Ġp", "ie"], ["oc", "us"], ["m", "ed"], ["as", "ing"], ["d", "ing"], ["olog", "ical"], ["ore", "d"], ["Ġprog", "ram"], ["ri", "end"], ["en", "n"], ["Ġwor", "ks"], ["pp", "er"], ["Ġcom", "es"], ["re", "ct"], ["Ġb", "ro"], ["it", "her"], ["l", "ish"], ["a", "u"], ["ra", "y"], ["Ġchang", "es"], ["or", "n"], ["Ġor", "ig"], ["Ġne", "ar"], ["ate", "ly"], ["l", "u"], ["Ġl", "aw"], ["Ġt", "ri"], ["on", "es"], ["Ġtool", "s"], ["u", "it"], ["w", "are"], ["ĠUn", "iversity"], ["us", "h"], ["Ġne", "xt"], ["Ġo", "bs"], ["ut", "ure"], ["o", "pe"], ["Ġdet", "ail"], ["ver", "t"], ["Ġstr", "ong"], ["Ġal", "ong"], ["Ġt", "urn"], ["Ġrep", "res"], ["1", "3"], ["oo", "se"], ["Ġwe", "bs"], ["Ġpop", "ular"], ["Ġsing", "le"], ["Ġdif", "f"], ["Ġl", "ab"], ["-", "l"], ["t", "on"], ["ĠWh", "ich"], ["Ġproduct", "s"], ["r", "al"], ["Ġg", "iven"], ["v", "iew"], ["Ġbuild", "ing"], ["Ġ", "vers"], ["ip", "le"], ["j", "or"], ["Ġpa", "per"], ["Ġn", "ut"], ["Ġpro", "m"], ["Ġloc", "al"], ["ĠA", "t"], ["Ġw", "ide"], ["st", "er"], ["Ġgrow", "th"], ["Ġqu", "ick"], ["Ġd", "ry"], ["r", "ies"], ["Ġab", "ove"], ["Ġinv", "est"], ["b", "on"], ["at", "ic"], ["Ġpre", "c"], ["al", "k"], ["ĠB", "e"], ["Ġmag", "n"], ["Ġman", "ufact"], ["Ġbus", "iness"], ["Ġan", "s"], ["at", "ors"], ["Ġc", "ult"], ["Ġsu", "ccess"], ["Ġimpro", "ve"], ["Ġa", "way"], ["Ġro", "le"], ["âĢ", "¦"], ["Ġc", "reat"], ["Ġval", "ue"], ["\"", ":"], ["Ġs", "um"], ["Ġun", "ique"], ["-", "m"], ["Ġh", "ouse"], [",", "Ċ"], ["Ġcont", "ent"], ["Ġwor", "king"], ["Ġ", "."], ["ut", "es"], ["Ġd", "ays"], ["Ġt", "ur"], ["ĠIn", "d"], ["Ġe", "y"], ["p", "or"], ["ir", "t"], ["ĠP", "h"], ["Ġmon", "th"], ["un", "d"], ["Ġmet", "al"], ["or", "ing"], ["Ġre", "le"], ["Ġk", "ind"], ["Ġstruct", "ure"], ["in", "ter"], ["iz", "ing"], ["Ġincre", "ase"], ["Ġcomple", "x"], ["Ġper", "iod"], ["Ġc", "e"], ["Ġlear", "ning"], ["Y", "ou"], ["iss", "ion"], ["Ġph", "ot"], ["Ġpro", "b"], ["Ġdesign", "ed"], ["Ġf", "ocus"], ["Ġsu", "gg"], ["v", "ious"], ["2", "5"], ["ress", "ion"], ["The", "re"], ["pecial", "ly"], ["oc", "ial"], ["Ġgen", "e"], ["Ġav", "oid"], ["n", "ot"], ["Ġl", "ist"], ["Ġse", "qu"], ["l", "us"], ["Ġgen", "es"], ["ĠT", "e"], ["Ġn", "ame"], ["ain", "s"], ["Ġfe", "ed"], ["20", "2"], ["ĠN", "ew"], ["Ġg", "arden"], ["Ġb", "it"], ["st", "r"], ["a", "h"], ["Ġf", "ore"], ["Ġac", "ross"], ["Ġrec", "omm"], ["Ġw", "all"], ["Ġm", "al"], ["Ġchem", "ical"], ["l", "er"], ["1", "7"], ["Ġj", "o"], ["t", "ic"], ["Ġf", "our"], ["le", "ction"], ["Ġch", "all"], ["ĠTh", "at"], ["Ġse", "arch"], ["Ġme", "chan"], ["Ġma", "jor"], ["Ġgr", "oup"], ["ust", "ry"], ["Ġm", "em"], ["t", "o"], ["ig", "ure"], ["Ġris", "k"], ["ĠS", "p"], ["Ġn", "et"], ["Ġv", "ide"], ["4", "0"], ["est", "ions"], ["Ġm", "ix"], ["Ġle", "ast"], ["pp", "ed"], ["Ġd", "one"], ["is", "ed"], ["Ġf", "ull"], ["Ġa", "ch"], ["ag", "ing"], ["t", "age"], [")", "ĊĊ"], ["Ġm", "o"], ["Ġp", "red"], ["Ġc", "ru"], ["Ġc", "ustom"], ["ĠC", "an"], ["ist", "ic"], ["Ġelectr", "ical"], ["om", "en"], ["Ġproble", "ms"], ["Ġother", "s"], ["Ġt", "erm"], ["Ġprodu", "ction"], ["Ġass", "oci"], ["et", "h"], ["Ġf", "uture"], ["ĠD", "e"], ["ic", "ult"], ["O", "N"], ["ific", "ation"], ["Ġlike", "ly"], ["Ġre", "d"], ["e", "red"], ["Ġg", "reen"], ["Ġt", "ree"], ["Ġp", "ast"], ["y", "n"], ["Ġagain", "st"], ["c", "er"], ["Ġear", "ly"], ["fe", "rence"], ["Ġ", "Z"], ["Ġact", "ually"], ["Ġfact", "ors"], ["c", "y"], ["Ġha", "ving"], ["it", "ing"], ["Ġappe", "ar"], ["Ġl", "and"], ["T", "o"], ["Ġde", "g"], ["Ġsa", "f"], ["n", "a"], ["Ġpart", "s"], ["ĠEn", "g"], ["Ġc", "ra"], ["ren", "g"], ["um", "e"], ["Ġm", "ole"], ["ib", "ility"], ["Ġt", "ru"], ["ĠâĢ", "ľ"], ["id", "ence"], ["Ġlevel", "s"], ["Ġsign", "al"], ["I", "N"], ["Ġspe", "ed"], ["Ġf", "ac"], ["ĠIn", "st"], ["dition", "al"], ["Ġsu", "it"], ["Ġbeg", "in"], ["ol", "ar"], ["Ġprodu", "ce"], ["g", "es"], ["Ġallow", "s"], ["Ġsa", "fe"], ["Ġbeh", "av"], ["ens", "ive"], ["Ġtrans", "m"], ["Ġcle", "ar"], ["re", "t"], ["ĠE", "ar"], ["Ġunderstand", "ing"], ["Ġex", "ce"], ["Ġn", "orm"], ["Ġvari", "ety"], ["Ġcour", "se"], ["Ġrequ", "ired"], ["os", "p"], ["ly", "ing"], ["Ġredu", "ce"], ["Ġh", "im"], ["ig", "ns"], ["Ġf", "ar"], ["Ġdesc", "rib"], ["Ġm", "il"], ["Ġloo", "king"], ["Ġbe", "low"], ["Ġrese", "arc"], ["Ġsour", "ce"], ["Ġg", "re"], ["T", "E"], ["Ġsaf", "ety"], ["c", "om"], ["Ġw", "ays"], ["Ġexper", "im"], ["ash", "ion"], ["Ġes", "pecially"], ["ip", "ment"], ["Ġo", "il"], ["_", "_"], ["ur", "y"], ["f", "or"], ["Ġ", "i"], ["t", "ies"], ["Ġcl", "ose"], ["th", "ough"], ["it", "es"], ["Ġo", "x"], ["Ġl", "ower"], ["'", "ve"], ["um", "p"], ["m", "an"], ["F", "or"], ["Ġgen", "etic"], ["av", "or"], ["Ġre", "ason"], ["ce", "an"], ["Ġe", "ither"], ["Ġab", "s"], ["Ġle", "aves"], ["et", "er"], ["Ġdet", "ect"], ["Ġind", "ustry"], ["ĠW", "or"], ["an", "ced"], ["im", "um"], ["irc", "raft"], ["Ġco", "ver"], ["ys", "is"], ["ĠS", "ome"], ["Ġnecess", "ary"], ["y", "l"], ["Ġl", "ength"], ["Ġfl", "u"], ["Ġapplic", "ations"], ["Ġsugg", "est"], ["og", "n"], ["Ġm", "ind"], ["Ġact", "iv"], ["Ġdiffe", "rence"], ["!", "ĊĊ"], ["Ġs", "qu"], ["Ġhy", "d"], ["Ġsty", "le"], ["it", "ch"], ["og", "raph"], ["iv", "ed"], ["Ġl", "ive"], ["Ġinter", "n"], ["en", "e"], ["Ġso", "ft"], ["L", "L"], ["Ġperform", "ance"], ["Ġle", "ft"], ["Ġacc", "ording"], ["Ġs", "ays"], ["Ġne", "ver"], ["Ġperson", "al"], ["Ġm", "ass"], ["Ġex", "ist"], ["Ġmark", "et"], ["6", "0"], ["Ġb", "ase"], ["ct", "or"], ["Ġprov", "ides"], ["Ġsol", "ution"], ["Ġth", "ing"], ["Ġreg", "ular"], ["Ġind", "ic"], ["Ġcor", "rect"], ["ĠâĢ", "Ķ"], ["Ġdiff", "icult"], ["W", "h"], ["Ġsc", "ience"], ["Ġth", "in"], ["ore", "s"], ["Ġwebs", "ite"], ["Ġt", "ar"], ["Ġf", "urther"], ["ound", "s"], ["U", "n"], ["led", "ge"], ["Ġconst", "ruction"], ["Ġst", "reng"], ["Ġfrequ", "ency"], ["Ġche", "ck"], ["Ġpro", "p"], ["Ġpur", "p"], ["Ġpat", "h"], ["ut", "ions"], ["Ġex", "pect"], ["Ġiss", "ues"], ["os", "ing"], ["iqu", "es"], ["ari", "a"], ["on", "om"], ["Ġper", "fect"], ["Ġev", "olution"], ["Ġwe", "ight"], ["res", "h"], ["Ġsh", "ape"], ["Ġmic", "ro"], ["il", "ities"], ["Ġs", "and"], ["Ġle", "g"], ["Ġdisc", "uss"], ["2", "4"], ["Ġen", "h"], ["Ġh", "al"], ["Ġfam", "ily"], ["u", "le"], ["Ġto", "day"], ["Ġev", "ent"], ["Ġd", "ress"], ["l", "ished"], ["Ġtyp", "ically"], ["Ġwh", "ite"], ["Ġdoes", "n't"], ["m", "ost"], ["Ġneed", "ed"], ["Ġpl", "astic"], ["i", "k"], ["ten", "ance"], ["i", "ency"], ["Ġve", "get"], ["p", "ro"], ["Ġde", "ep"], ["Ġqu", "estion"], ["Ġro", "t"], ["Ġbre", "ak"], ["Ġgrow", "ing"], ["uc", "le"], ["Ġst", "ress"], ["Ġoff", "er"], ["Ġbl", "ack"], ["Ġpress", "ure"], ["Ġele", "ments"], ["Ġwhe", "ther"], ["Ġres", "our"], ["ĠI'", "m"], ["Ġhelp", "s"], ["Ġse", "lect"], ["ra", "p"], ["Ġdraw", "ing"], ["Ġf", "all"], ["Ġcont", "rib"], ["s", "elf"], ["Ġequ", "ipment"], ["Ġrepres", "ent"], ["is", "ing"], ["Ġb", "ag"], ["Ġs", "ocial"], ["Ġ", "ut"], ["read", "y"], ["Ġab", "ility"], ["ĠC", "ol"], ["ĠB", "l"], ["Ġart", "icle"], ["ra", "g"], ["s", "ide"], ["m", "ing"], ["re", "am"], ["Ġa", "ircraft"], ["Ġs", "am"], ["y", "stem"], ["le", "ment"], ["Ġr", "ate"], ["end", "ing"], ["it", "ud"], ["Ġcru", "cial"], ["Ġon", "ce"], ["ward", "s"], ["ĠU", "S"], ["Ġam", "ong"], ["ĠO", "ne"], ["Ġfeature", "s"], ["Ġt", "rees"], ["Ġb", "ott"], ["c", "o"], ["Ġqu", "ant"], ["Ġl", "ines"], ["Ġl", "if"], ["one", "y"], ["at", "ory"], ["Ġv", "iew"], ["ĠY", "our"], ["ĠEar", "th"], ["Ġresist", "ance"], ["Ġg", "e"], ["un", "e"], ["ap", "s"], ["Ġ", "ill"], ["Ġb", "ul"], ["Ġmethod", "s"], ["ob", "al"], ["Ġs", "ite"], ["Ġeffect", "s"], ["ĠA", "ll"], ["Ġex", "c"], [",", "N"], ["Ġh", "ours"], ["Ġopt", "im"], ["in", "a"], ["Ġpan", "els"], ["C", "h"], ["age", "ment"], ["Ġl", "oad"], ["Ġresearc", "hers"], ["Ġcomput", "er"], ["Ġcut", "ting"], ["ĠO", "r"], ["Ġeas", "ily"], ["Ġinter", "act"], ["Ġw", "r"], ["il", "t"], [")", ".Ċ"], ["ir", "d"], ["Ġcons", "um"], ["ĠI", "m"], ["Ġrem", "ov"], ["Ġelect", "ron"], ["Ġ", "Qu"], ["ren", "ces"], ["av", "ing"], ["Ġcon", "duct"], ["ct", "ions"], ["Ġvol", "tage"], ["Ġw", "rit"], ["c", "an"], ["Ġapp", "l"], ["Ġhist", "ory"], ["Ġin", "it"], ["u", "als"], ["Ġindivid", "ual"], ["Ġem", "b"], ["Ġb", "ar"], ["us", "e"], ["Ġ", "+"], ["Ġh", "ol"], ["Ġk", "n"], ["v", "al"], ["Ġal", "ready"], ["Ġto", "t"], ["Ġse", "en"], ["Ġwho", "le"], ["Ġus", "es"], ["Ġgener", "al"], ["b", "o"], ["Ġf", "ashion"], ["\":", "\""], ["ir", "ing"], ["Ġcirc", "uit"], ["Ġlong", "er"], ["Ġcompon", "ents"], ["am", "es"], ["Ġinf", "ect"], ["b", "y"], ["Ġco", "ol"], ["row", "n"], ["Ġb", "all"], ["Ġcar", "bon"], ["Ġobs", "erv"], ["Ġcom", "fort"], ["Ġon", "line"], ["19", "9"], ["Ġbir", "ds"], ["Ġb", "al"], ["z", "e"], ["id", "d"], ["c", "ks"], ["Ġf", "riend"], ["ear", "ch"], ["Ġcho", "ice"], ["re", "l"], ["Ġappro", "ach"], ["Ġan", "t"], ["ĠL", "ED"], ["Ġprofess", "ional"], ["n", "g"], ["Ġbenef", "its"], ["pl", "oy"], ["Ġtar", "get"], ["Ġc", "rit"], ["Ġch", "oose"], ["\"", ",\""], ["Ġtechn", "iques"], ["Ġsub", "st"], ["Ġcomp", "any"], ["j", "ust"], ["Ġint", "eg"], ["Ġaut", "hor"], [".\"", "ĊĊ"], ["Ġac", "id"], ["Ġpub", "lic"], ["Ġadv", "ant"], ["Ġse", "par"], ["Ġins", "ide"], ["ac", "ed"], ["p", "ly"], ["Ġse", "ason"], ["re", "g"], ["Ġne", "g"], ["Ġe", "at"], ["Ġmach", "ine"], ["Ġt", "ell"], ["ak", "en"], ["l", "or"], ["Ġcol", "l"], ["Ġf", "ill"], ["Ġcap", "ac"], ["Ġp", "ort"], ["!", "Ċ"], ["ĠS", "E"], ["Ġste", "el"], ["r", "s"], ["Ġ", "X"], ["ort", "un"], ["Ġt", "as"], ["u", "ro"], ["Ġwe", "ather"], ["Ġcol", "lect"], ["Ġproper", "ties"], ["Ġw", "arm"], ["ful", "ly"], ["Ġpa", "rent"], ["ri", "ed"], ["ow", "s"], ["Ġstr", "ateg"], ["Ġphys", "ical"], ["oth", "ing"], ["Ġmo", "ist"], ["Ġident", "ify"], ["Ġh", "ot"], ["Ġstreng", "th"], ["Ġpos", "ition"], ["Ġwee", "k"], ["Ġent", "ire"], ["ide", "red"], ["Ġet", "c"], ["Ġsh", "ar"], ["Ġcons", "ist"], ["Ġtra", "ditional"], ["Ġknow", "ledge"], ["Ġide", "a"], ["Ġans", "wer"], ["s", "el"], ["Ġsu", "per"], ["Ġpo", "ly"], ["rop", "ri"], ["a", "e"], ["Ġanim", "als"], ["Ġed", "uc"], ["Ġ", "/"], ["u", "ck"], ["Ġsm", "o"], ["j", "oy"], ["Ġg", "as"], ["r", "um"], ["Ġext", "ra"], ["Ġs", "il"], ["Ġw", "ire"], ["Ġcre", "ating"], ["e", "e"], ["pl", "ic"], ["Ġresp", "ons"], ["y", "m"], ["Ġrad", "io"], ["enn", "is"], ["Ġcomp", "et"], ["Ġhe", "av"], ["ver", "age"], ["re", "me"], ["Ġhapp", "en"], ["ang", "u"], ["Ġma", "x"], ["he", "m"], ["Ġas", "k"], ["Ġe", "ver"], ["Ġscient", "ists"], ["Ġcal", "cul"], ["Ġvide", "o"], ["Ġsy", "n"], ["Ġeffic", "ient"], ["Ġcr", "us"], ["ib", "r"], ["ĠN", "o"], ["ver", "se"], ["A", "l"], ["Ġst", "ra"], ["Ġanal", "ysis"], ["Ġint", "rodu"], ["8", "0"], ["er", "al"], ["Ġcons", "idered"], ["er", "y"], ["Ġpo", "ints"], ["Ġper", "cent"], ["Ġte", "eth"], ["ĠG", "en"], ["Ġmult", "iple"], ["Ġf", "ram"], ["Ġse", "a"], ["u", "ff"], ["ĠG", "o"], ["Ġlar", "ger"], ["t", "a"], ["Ġbu", "y"], ["Ġg", "ar"], ["Ġb", "ook"], ["Ġp", "ay"], ["A", "S"], ["Ġf", "ru"], ["is", "ms"], ["E", "R"], ["ĠT", "r"], ["Ġqu", "estions"], ["Ġget", "ting"], ["Ġw", "ar"], ["Ġ", "x"], ["Ġinf", "lu"], ["Ġs", "low"], ["Ġover", "all"], ["Ġdeterm", "ine"], ["Ġw", "aste"], ["Ġad", "apt"], ["Ġhealth", "y"], ["Ġg", "ame"], ["Ġb", "atter"], ["Ġprote", "in"], ["Ġassoci", "ated"], ["iv", "al"], ["or", "th"], ["ad", "es"], ["ĠH", "ere"], ["Ġl", "ove"], ["Ġstand", "ard"], ["Ġl", "oss"], ["Ġbas", "ic"], ["Ġtreat", "ment"], ["Ġa", "ge"], ["ort", "s"], ["Ġim", "age"], ["Ġcon", "cept"], ["S", "o"], ["A", "R"], ["Ġp", "ack"], ["Ġs", "at"], ["Ġmain", "tenance"], ["2", "2"], ["Ġsk", "ills"], ["Ġthat", "'s"], ["Ġs", "elf"], ["ĠU", "s"], ["Ġb", "acter"], ["Ġc", "ases"], ["al", "ing"], ["Ġhal", "f"], ["at", "t"], ["Ġcont", "act"], ["Ġrel", "ated"], ["Ġrel", "ative"], ["ĠWh", "ile"], ["Ġdo", "ing"], ["Ġmill", "ion"], ["Ġdis", "pl"], ["Ġse", "eds"], ["Ġmat", "ter"], ["am", "m"], ["Ġm", "ut"], ["Ġhow", "ever"], ["Ġn", "ature"], ["Ġter", "ms"], ["Ġchall", "eng"], ["v", "ant"], ["O", "n"], ["Ġreg", "ul"], ["Â", "°"], ["le", "y"], ["Ġpos", "itive"], ["Ġme", "et"], ["e", "xt"], ["ron", "t"], ["Ġr", "ather"], ["Ġquick", "ly"], ["Ġsy", "m"], ["Ġc", "ode"], ["Ġact", "ivity"], ["Ġal", "g"], ["ĠC", "ent"], ["sel", "ves"], ["our", "n"], ["Ġmanufact", "ure"], ["Ġwor", "ds"], ["Ġang", "le"], ["Ġsit", "u"], ["Ġh", "old"], ["Ġout", "put"], ["Ġsome", "one"], ["iz", "es"], ["Ġelectric", "ity"], ["Ġl", "ink"], ["Ġdi", "et"], ["Ġexpl", "ain"], ["Ġproject", "s"], ["Ġen", "joy"], ["Ġmin", "utes"], ["c", "ri"], ["Ġcommun", "ity"], ["Ġenvironment", "al"], ["es", "e"], ["Ġse", "ed"], ["Ġm", "oney"], ["in", "o"], ["Ġs", "ense"], ["Ġmod", "ern"], ["ne", "y"], ["im", "ens"], ["le", "x"], ["Ġe", "gg"], ["Ġcan", "'t"], ["Ġopp", "ortun"], ["um", "in"], ["dition", "ally"], ["Ġindivid", "uals"], ["ul", "es"], ["Ġdevelop", "ed"], ["Ġexper", "i"], ["y", "p"], ["Ġl", "ater"], ["Ġprim", "ary"], ["Ġ", ","], ["Ġl", "o"], ["Ġadd", "ress"], ["og", "le"], ["it", "or"], ["op", "s"], ["Ġfe", "et"], ["ag", "ed"], ["Ġshow", "s"], ["is", "c"], ["Ġext", "reme"], ["on", "ds"], ["Ġm", "ention"], ["Ġwor", "d"], ["Ġw", "a"], ["Ġrel", "ations"], ["Ġc", "ook"], ["Ġbl", "ood"], ["itud", "e"], ["Ġsim", "ply"], ["Ġus", "er"], ["Ġlay", "er"], ["Ġrem", "ain"], ["Ġsh", "own"], ["Ġadd", "ed"], ["Ġrem", "ove"], ["Ġsh", "ap"], ["ĠD", "o"], ["now", "n"], ["Ġim", "m"], ["Ġtra", "vel"], ["-", "g"], ["Ġth", "ick"], ["Ġcre", "ated"], ["Ġf", "it"], ["Ġtot", "al"], ["Ġf", "resh"], ["Ġyou", "'ll"], ["Ġf", "ast"], ["Ġapp", "ropri"], ["Ġrep", "air"], ["A", "d"], ["Ġm", "us"], ["Ġcomp", "ared"], ["-", "w"], ["Ġdist", "rib"], ["Ġg", "ot"], ["op", "h"], ["-b", "ased"], ["re", "w"], ["Ġrec", "ogn"], ["Ġex", "act"], ["oo", "king"], ["un", "g"], ["Ġinst", "ead"], ["ĠL", "e"], ["Ġgener", "ally"], ["Ġeffic", "iency"], ["Ġcan", "not"], ["il", "s"], ["Ġt", "akes"], ["Ġaut", "om"], ["Ġd", "ura"], ["i", "pe"], ["Ġre", "ach"], ["Ġal", "tern"], ["ĠC", "al"], ["Ġrequ", "ires"], ["U", "LL"], ["o", "on"], ["Ġthough", "t"], ["Ġactiv", "ities"], ["Ġbr", "ing"], ["v", "est"], ["ĠG", "r"], ["ĠD", "r"], ["Ġd", "ou"], ["ĠSc", "ience"], ["Ġopt", "ions"], ["Ġ", "ing"], ["c", "ular"], ["Ġatt", "ention"], ["ĠAmeric", "an"], ["ut", "en"], ["Ġfl", "oor"], ["Ġthrough", "out"], ["o", "h"], ["Ġhum", "ans"], ["g", "ing"], ["ust", "ain"], ["Ġh", "arm"], ["ĠM", "ed"], ["Ġdig", "ital"], ["Ġo", "ption"], ["Ġan", "ten"], ["Ġcon", "dition"], ["Ġprob", "ably"], ["ĠC", "ont"], ["A", "T"], ["ight", "s"], ["Ġpre", "vious"], ["Ġind", "ustr"], ["Ġal", "most"], ["Ġstud", "ies"], ["Ġsa", "w"], ["lus", "ion"], ["Ġaddition", "al"], ["ive", "ly"], ["E", "S"], ["ĠC", "ar"], ["ĠA", "m"], ["Ġincre", "asing"], ["il", "i"], ["ist", "ics"], ["Ġgl", "obal"], ["Ġc", "yc"], ["Ġp", "age"], ["C", "on"], ["ro", "gen"], ["Ġpre", "p"], ["imate", "ly"], ["Ġbe", "aut"], ["Ġstep", "s"], ["mb", "ol"], ["Ġdev", "ices"], ["Ġt", "ou"], ["Ġd", "om"], ["Ġpract", "ice"], ["Ġyou", "ng"], ["Ġmonth", "s"], ["9", "0"], ["Ġmal", "aria"], ["n", "ov"], ["Ġm", "ess"], ["Ġsmall", "er"], ["Ġbir", "d"], ["i", "xt"], ["Ġlight", "ing"], ["ra", "d"], ["Ġser", "ies"], ["ac", "hes"], ["Ġinclud", "es"], ["Ġsuit", "able"], ["2", "3"], ["Ġgl", "ass"], ["Ġl", "angu"], ["Ġl", "iving"], ["Ġdev", "ice"], ["Ġcontin", "u"], ["Ġro", "om"], ["ĠC", "omm"], ["ch", "ing"], ["it", "er"], ["ist", "ry"], ["Ġbo", "x"], ["ĠC", "om"], ["Ġproper", "ty"], ["Ġy", "et"], ["Ġout", "side"], ["Ġa", "qu"], ["Ġa", "verage"], ["le", "ase"], ["Ġprovid", "ing"], ["Ġad", "just"], ["-", "in"], ["Ġach", "ieve"], ["Ġbehav", "ior"], ["Ġf", "ive"], ["Ġo", "cean"], ["w", "here"], ["n", "ers"], ["Ġh", "ar"], ["Ġ-", "-"], ["Ġm", "en"], ["Ġis", "n't"], ["Ġ", "u"], ["Ġincre", "ased"], ["Ġg", "ain"], ["il", "es"], ["ĠO", "f"], ["ou", "ps"], ["ell", "ing"], ["Ġt", "aking"], ["ab", "or"], ["Ġqu", "ite"], ["as", "ons"], ["g", "ed"], ["Ġdire", "ction"], ["if", "t"], ["er", "ve"], ["c", "hed"], ["ur", "ity"], ["er", "ous"], ["Ġgu", "ide"], ["ĠS", "he"], ["ens", "ity"], ["ec", "ause"], ["Ġyour", "self"], ["Ġrec", "yc"], ["Ġres", "pect"], ["2", "1"], ["Ġcontro", "ll"], ["Ġn", "ucle"], ["Ġt", "able"], ["Ġf", "ace"], ["Ġl", "og"], ["O", "ne"], ["oc", "ks"], ["Ġs", "ound"], ["ĠP", "r"], ["ac", "ks"], ["Ġest", "ab"], ["in", "ks"], ["Ġst", "ri"], ["in", "ary"], ["Ġcl", "othing"], ["Ġsub", "ject"], ["ell", "ow"], ["ĠC", "o"], ["p", "an"], [")", ".ĊĊ"], ["Ġs", "we"], ["am", "s"], ["Ġdef", "in"], ["Ġnorm", "al"], ["Ġresour", "ces"], ["Ġpurp", "ose"], ["Ġserv", "ice"], ["Ġh", "ab"], ["Ġcol", "ors"], ["in", "ate"], ["Ġse", "em"], ["Ġf", "ail"], ["med", "i"], ["C", "l"], ["ĠA", "fter"], ["Ġhigh", "ly"], ["o", "int"], ["Ġmoist", "ure"], ["Ġiss", "ue"], ["Ġan", "n"], ["Ġmin", "im"], ["Ġgo", "ver"], ["it", "ute"], ["Ġw", "on"], ["Ġgr", "ass"], ["Ġon", "es"], ["Ġp", "ict"], ["Ġf", "ib"], ["ric", "t"], ["Ġits", "elf"], [",N", "ULL"], ["Ġw", "inter"], ["Ġprodu", "ced"], ["Ġref", "lect"], ["os", "es"], ["Ġc", "apt"], ["-", "h"], ["Ġdirect", "ly"], ["Ġexp", "ress"], ["ĠH", "ar"], ["Ġsomet", "imes"], ["Ġcommon", "ly"], ["a", "i"], ["w", "ater"], ["ish", "ing"], ["Ġdist", "ance"], ["ĠN", "ational"], ["Ġfor", "ce"], ["Ġany", "thing"], ["se", "qu"], ["Ġconst", "ant"], ["itt", "ed"], ["Ġf", "oot"], ["Ġev", "ents"], ["e", "b"], ["Ġst", "ory"], ["Ġt", "end"], ["Ġp", "ri"], ["Ġas", "pect"], ["Ġro", "ot"], ["Ġprovid", "ed"], ["Ġevery", "thing"], ["ter", "ns"], ["r", "m"], ["Ġacc", "ur"], ["Ġt", "aken"], ["Ġem", "ploy"], ["Ġk", "ids"], ["os", "ition"], ["..", ".ĊĊ"], ["Ġcar", "ry"], ["Ġd", "ark"], ["u", "ce"], ["Ġb", "ad"], ["Ġcol", "d"], ["Ġapplic", "ation"], ["P", "ro"], ["s", "c"], ["Ġide", "al"], ["Ġst", "ay"], ["Ġin", "put"], ["l", "s"], ["Ġs", "n"], ["Ġcommun", "ication"], ["Ġinvol", "ved"], ["ra", "ms"], ["Ġt", "ank"], [".", "S"], ["E", "x"], ["um", "ent"], ["au", "gh"], ["Ġexpl", "ore"], ["Ġc", "oun"], ["Ġhe", "art"], ["Ġp", "ow"], ["Ġf", "ire"], ["Ġcost", "s"], ["Ġcomp", "an"], ["Ġserv", "ices"], ["ĠD", "es"], ["og", "en"], ["Ġstart", "ed"], ["Ġneg", "ative"], ["um", "b"], ["Ġcaus", "ed"], ["Ġf", "ix"], ["Ġtru", "e"], ["Ġsum", "mer"], ["Ġoff", "ers"], ["Ġe", "p"], ["f", "ric"], ["Ġt", "ennis"], ["Ġm", "om"], ["u", "el"], ["g", "est"], ["R", "I"], ["on", "se"], ["ĠM", "an"], ["ĠSE", "O"], ["Ġreg", "ion"], ["Ġsp", "read"], ["Ġtra", "ining"], ["ove", "red"], ["Ġuse", "ful"], ["Ġeas", "ier"], ["ĠC", "ons"], ["Ġrequire", "ments"], ["Ġear", "th"], ["Ġappropri", "ate"], ["7", "0"], ["g", "o"], ["k", "nown"], ["ro", "om"], ["Ġlight", "s"], ["se", "ct"], ["Ġit", "ems"], ["S", "h"], ["Ġra", "in"], ["ĠG", "u"], ["Ġrepl", "ace"], ["Ġthe", "ory"], ["Ġpat", "terns"], ["-", "st"], ["al", "t"], ["f", "ish"], ["Ġconc", "ent"], ["Ġ", "â"], ["Ġt", "ips"], ["Ġdepend", "ing"], ["ĠA", "pp"], ["Ġproper", "ly"], ["ĠK", "e"], ["Ġt", "ren"], ["r", "ig"], ["Ġsy", "mbol"], ["Ġt", "im"], ["Ġmod", "els"], ["Ġ", "|"], ["ĠU", "se"], ["re", "c"], ["ind", "ing"], ["ar", "ily"], ["W", "hy"], ["Ġreact", "ion"], ["Ġag", "o"], ["Ġrad", "i"], ["Ġthem", "selves"], ["l", "ike"], ["Ġgover", "n"], ["Ġpa", "ir"], [".\"", "Ċ"], ["Ġthey", "'re"], ["Ġsal", "t"], ["Ġc", "ou"], ["Ġparticular", "ly"], ["ffic", "ient"], ["r", "id"], ["ar", "ing"], ["y", "gen"], ["Ġcaus", "es"], ["Ġval", "ues"], ["Ġpred", "ict"], ["\"", ","], ["Ġfl", "ight"], ["Ġloc", "ation"], ["Ġch", "rom"], ["Ġsur", "v"], ["g", "ar"], ["Ġpop", "ulation"], ["Ġob", "tain"], ["ed", "ing"], ["Ġbott", "om"], ["ĠM", "e"], ["Ġfor", "ms"], ["Ġman", "agement"], ["l", "i"], ["Ġb", "ur"], ["Ġcomm", "er"], ["Ġrel", "i"], ["ail", "y"], ["Ġpie", "ces"], ["h", "ib"], ["Ġec", "onom"], ["ĠâĢ", "¦"], ["Ġj", "ob"], ["ure", "d"], ["Ġsh", "are"], ["Ġw", "omen"], ["ight", "ly"], ["Ġgre", "ater"], ["Ġanal", "y"], ["Ġref", "er"], ["Ġbeh", "ind"], ["Ġa", "ction"], ["ĠUn", "ited"], ["ĠA", "I"], ["enc", "ies"], ["he", "ad"], ["Ġtemperature", "s"], ["m", "on"], ["Ġro", "ck"], ["ĠC", "omp"], ["Ġun", "c"], ["id", "ing"], ["Ġprotect", "ion"], ["Ġce", "ment"], ["Ġnut", "ri"], ["Ġdise", "ases"], ["r", "ast"], ["Ġn", "ight"], ["2", "6"], ["Ġprocess", "es"], ["w", "h"], ["a", "im"], ["ĠRes", "earch"], ["Ġchar", "ge"], ["ĠGo", "ogle"], ["2", "8"], ["Ġa", "ud"], ["or", "por"], ["Ġpie", "ce"], ["Ġele", "ment"], ["Ġvis", "ual"], ["is", "es"], ["Ġgl", "uten"], ["ub", "e"], ["ĠN", "e"], ["Ġlead", "ing"], ["Ġcount", "ry"], ["Ġinit", "ial"], ["oo", "ks"], ["od", "es"], ["Ġreg", "ard"], ["ĠA", "fric"], ["Ġpro", "ced"], ["Ġim", "ages"], ["Ġs", "us"], ["an", "ks"], ["op", "y"], ["ot", "hes"], ["g", "round"], ["Ġcommer", "cial"], ["uro", "pe"], ["Ġpat", "ients"], ["Ġallow", "ing"], ["ru", "g"], ["Ġtry", "ing"], ["Ġtrans", "form"], ["Ġw", "ave"], ["enc", "ed"], ["Ġpr", "inc"], ["ar", "ies"], ["er", "c"], ["ert", "il"], ["al", "u"], ["Ġdem", "on"], ["ĠA", "re"], ["s", "h"], ["Ġfin", "al"], ["Ġs", "ustain"], ["ail", "s"], ["Ġc", "ard"], ["Ġacc", "ount"], ["Ġpur", "ch"], ["Ġw", "ild"], ["Ġsupp", "ly"], ["iel", "ds"], ["ĠM", "ay"], ["Ġut", "il"], ["-", "e"], ["ĠF", "rom"], ["Ġd", "oc"], ["Ġc", "ross"], ["is", "on"], ["Ġsp", "ring"], ["Ġp", "il"], ["Ġcount", "ries"], ["Ġpre", "fer"], ["ic", "ial"], ["os", "is"], ["ĠS", "u"], ["Ġsk", "in"], ["Ġexperim", "ent"], ["Ġadd", "ing"], ["Ġun", "it"], ["Ġ", "ver"], ["Ġcomplete", "ly"], ["Ġfram", "e"], ["Ġass", "ess"], ["Ġch", "ick"], ["Ġappl", "ied"], ["Ġf", "ine"], ["Ġrec", "ord"], ["Ġf", "em"], ["al", "le"], ["O", "T"], ["Ġmean", "ing"], ["B", "ut"], ["Ġrec", "ent"], ["i", "ans"], ["Ġstra", "ight"], ["Ġlangu", "age"], ["Ġbu", "ilt"], ["Ġgen", "ome"], ["ac", "hed"], ["Ġst", "ore"], ["Ġt", "re"], ["Ġ", "ir"], ["Ġresp", "onse"], ["Ġmention", "ed"], ["Ġv", "ary"], ["or", "ith"], ["ol", "l"], ["o", "ff"], ["A", "N"], ["Ġem", "erg"], ["-t", "o"], ["ang", "le"], ["Ġb", "rain"], ["O", "R"], ["Ġpartic", "ip"], ["Ġl", "a"], ["Ġgr", "oups"], ["Ġf", "ront"], ["ĠN", "ot"], ["Ġr", "ice"], ["ĠM", "ore"], ["Ġst", "op"], ["Ġing", "red"], ["Ġinteg", "r"], ["Ġabs", "or"], ["ul", "a"], ["Ġrecomm", "ended"], ["Ġbacter", "ia"], ["Ġcontin", "ue"], ["Ġto", "oth"], ["ir", "us"], ["Ġve", "h"], ["Ġro", "ll"], ["in", "ct"], ["Ġp", "ick"], ["Ġw", "at"], ["Ġf", "ul"], ["Ġey", "e"], ["Ġ", "ult"], ["Ġbel", "ieve"], ["Ġens", "uring"], ["Ġdi", "agn"], ["en", "ing"], ["Ġrecomm", "end"], ["Ġsw", "itch"], ["os", "ure"], ["Ġcrit", "ical"], ["Ġbel", "ie"], ["Ġsp", "ir"], ["Ġatt", "ract"], ["Ġw", "atch"], ["Ġar", "r"], ["ĠThe", "n"], ["Ġ", "\\"], ["r", "ist"], ["A", "C"], ["Ġt", "al"], ["2", "7"], ["idd", "le"], ["e", "or"], ["Ġfore", "st"], ["Ġcontain", "s"], ["Ġobject", "s"], ["Ġpan", "el"], ["Ġto", "wards"], ["Ġl", "ands"], ["Ġmov", "ing"], ["Ġ", "..."], ["Ġr", "at"], ["*", "*"], ["Ġdetail", "s"], ["Ġm", "iss"], ["a", "ks"], ["Ġsol", "id"], ["Ġs", "le"], ["3", "5"], ["in", "ally"], ["Ġc", "am"], ["Ġorig", "inal"], ["ne", "w"], ["Ġst", "one"], ["Ġanim", "al"], ["Ġfood", "s"], ["Ġre", "view"], ["art", "ment"], ["Ġcan", "cer"], ["4", "5"], ["Ġsour", "ces"], ["Ġimp", "lement"], ["ve", "y"], ["cc", "ording"], ["Ġpre", "t"], ["Ġinvest", "ig"], ["S", "T"], ["Ġheav", "y"], ["c", "king"], ["I", "s"], ["oun", "ts"], ["Ġh", "or"], ["<", "/"], ["Ġmed", "ical"], ["Ġto", "mat"], ["Ġbo", "ard"], ["ur", "b"], ["l", "oad"], ["ĠE", "urope"], ["ĠM", "ost"], ["her", "n"], ["Ġfact", "or"], ["Ġexce", "ll"], ["Ġmagn", "etic"], ["Ġbl", "ue"], ["Ġanten", "na"], ["Ġdr", "ive"], ["Ġbr", "an"], ["ab", "ric"], ["Ġequ", "al"], ["er", "o"], ["Ġdo", "or"], ["Ġf", "ly"], ["Ġthe", "rm"], ["Ġdep", "th"], ["Ġmot", "or"], ["Ġgu", "id"], ["Ġgra", "ph"], ["Ġg", "ives"], ["Ġread", "y"], ["ac", "y"], ["Ġro", "ad"], ["Ġev", "idence"], ["Ġmax", "imum"], ["r", "im"], ["red", "it"], ["Ġparent", "s"], ["Ġpain", "t"], ["w", "ise"], ["or", "age"], ["Ġte", "ach"], ["St", "ep"], ["Ġus", "ers"], ["Ġsol", "utions"], ["b", "ack"], ["ac", "ing"], ["Ġconnect", "ed"], ["Ġinc", "hes"], ["Ġsc", "reen"], ["Ġdec", "re"], ["ul", "ations"], ["Ġag", "g"], ["est", "s"], ["Ġvol", "can"], ["Ġdispl", "ay"], ["19", "8"], ["Ġte", "ac"], ["Ġsoft", "ware"], ["Ġnum", "bers"], ["Ġox", "ygen"], ["a", "pp"], ["Ġg", "ut"], ["E", "N"], ["Ġwee", "ks"], ["pe", "c"], ["Ġgo", "es"], ["Ġenh", "ance"], ["m", "in"], ["It", "'s"], ["Ġb", "ra"], ["Ġpub", "lished"], ["ic", "les"], ["ĠY", "es"], ["Ġenc", "ou"], ["al", "es"], ["Ġse", "ction"], ["ur", "s"], ["Ġinvol", "ves"], ["Ġel", "se"], ["om", "ic"], ["Ġnet", "work"], ["am", "ic"], ["Ġs", "ix"], ["Ġpri", "or"], ["r", "or"], ["Ġw", "el"], ["B", "e"], ["Ġthere", "'s"], ["m", "a"], ["Ġd", "est"], ["it", "ter"], ["Ġtechn", "ique"], ["I", "D"], ["Ġelectr", "ons"], ["c", "ient"], ["Ġlim", "it"], ["v", "olution"], ["Ġdis", "h"], ["ic", "ate"], ["Ġl", "iqu"], ["on", "ic"], ["Ġbro", "ad"], ["pt", "oms"], ["Ġa", "ff"], ["Ġstruct", "ures"], ["ĠS", "chool"], ["Ġalg", "orith"], ["Ġcent", "er"], ["ĠSt", "ud"], ["Ġinstall", "ation"], ["ou", "d"], ["Ġk", "it"], ["ĠTe", "chn"], ["ĠD", "ep"], ["olog", "ies"], ["p", "id"], ["Ġspe", "ct"], ["B", "y"], ["a", "ff"], ["ĠSt", "ates"], ["m", "et"], ["Ġappear", "ance"], ["Ġmove", "ment"], ["ari", "um"], ["Ġsmo", "oth"], ["om", "ing"], ["ĠP", "er"], ["Ġev", "ol"], ["w", "ood"], ["Ġey", "es"], ["Ġpartic", "les"], ["ĠR", "NA"], ["Ġcompan", "ies"], ["enc", "ing"], ["Ġbec", "omes"], ["Ġbl", "ade"], ["ĠB", "i"], ["Ġlim", "ited"], ["Ġb", "and"], ["ustr", "al"], [".", "com"], ["Ġst", "at"], ["Ġvers", "at"], ["W", "ith"], ["ut", "ed"], ["Ġd", "iv"], ["ĠL", "et"], ["Ġdeg", "rees"], ["Ġa", "im"], ["Ġout", "d"], ["Ġfru", "it"], ["ill", "ing"], ["Ġset", "t"], ["Ġm", "or"], ["it", "ting"], ["Ġpol", "l"], ["Ġch", "ann"], ["ĠM", "ar"], ["Ġbatter", "y"], ["Ġro", "ots"], ["Ġt", "alk"], ["Ġf", "igure"], ["Ġveget", "ables"], ["Ġhab", "it"], ["Ġimport", "ance"], ["y", "ond"], ["he", "ther"], ["ĠG", "l"], ["Ġdemon", "str"], ["Ġro", "b"], ["ĠWh", "y"], ["Ġha", "ir"], ["Ġact", "ive"], ["ill", "ed"], ["Ġvis", "it"], ["ĠF", "l"], ["Ġtrans", "fer"], ["C", "an"], ["Wh", "ile"], ["in", "ated"], ["ĠC", "O"], ["c", "ome"], ["2", "9"], ["ĠR", "em"], ["Ġevery", "one"], ["Ġl", "at"], ["Ġtest", "ing"], ["Ġ", "Q"], ["The", "se"], ["Ġre", "asons"], ["Ġscient", "ific"], ["Ġrad", "iation"], ["Ġdid", "n't"], ["he", "mat"], ["Ġre", "ve"], ["o", "ors"], ["Ġsequ", "ence"], ["Ġbl", "ock"], ["Ġco", "ast"], ["os", "ite"], ["in", "y"], ["Ġmed", "ia"], ["Ġfl", "at"], ["ep", "end"], ["Ġsa", "ve"], ["Ġt", "ail"], ["Ġhapp", "ens"], ["Ġex", "cess"], ["Ġb", "ud"], ["Ġprote", "ins"], ["ĠM", "any"], ["Ġappro", "x"], ["Ġad", "ult"], ["Ġfun", "d"], ["Ġcapac", "ity"], ["Ġev", "alu"], ["ĠN", "ow"], ["Ġsignificant", "ly"], ["ĠEng", "lish"], ["stand", "ing"], ["Ġac", "cept"], ["if", "ul"], ["Ġtrans", "port"], ["ĠS", "olar"], ["Ġsqu", "are"], ["o", "k"], ["ĠN", "orth"], ["Ġest", "im"], ["Ġlaw", "n"], ["ĠR", "ec"], ["Ġar", "ch"], ["ĠE", "lect"], ["Ġd", "ate"], ["ĠM", "et"], ["Ġide", "as"], ["ĠAs", "s"], ["Ġf", "ra"], ["Ġth", "r"], ["z", "y"], ["Ġw", "on't"], [".", "g"], ["ster", "oid"], ["Ġsur", "round"], ["m", "ore"], ["Ġf", "ertil"], ["c", "ape"], ["Ġsign", "als"], ["ul", "ated"], ["u", "ge"], ["Ġdi", "ag"], ["ĠM", "y"], ["Ġw", "in"], ["ell", "ig"], ["Ġinst", "ruct"], ["Ġhand", "s"], ["Ġmem", "bers"], ["m", "ber"], ["ĠAd", "ditionally"], ["Ġt", "it"], ["ĠD", "raw"], ["Ġpar", "am"], ["Ġv", "ac"], ["Ġin", "nov"], ["el", "i"], ["Ġexcell", "ent"], ["un", "ch"], ["Ġup", "on"], ["Ġb", "ill"], ["p", "a"], ["Ġcomb", "ination"], ["Ġst", "ates"], ["ĠR", "eg"], ["Ġrem", "ember"], ["âĢĻ", "t"], ["if", "orm"], ["ri", "er"], ["..", ".."], ["Ġhand", "le"], ["Ġget", "s"], ["Ġres", "id"], ["Ġtou", "ch"], ["am", "b"], ["Ġ", "iron"], ["Ġpr", "int"], ["Ġout", "f"], ["Ġpl", "at"], ["or", "k"], ["Ġb", "read"], ["v", "ity"], ["Ġl", "ate"], ["he", "ns"], ["Ġredu", "cing"], ["o", "e"], ["ĠT", "ra"], ["Ġf", "avor"], ["Ġh", "ost"], ["il", "ing"], ["Ġexp", "ression"], ["Ġhe", "ight"], ["Ġapp", "ly"], ["Ġc", "ame"], ["Ġ", "Â"], ["Ġloo", "ks"], ["Ġs", "ent"], ["ĠAl", "so"], ["ĠP", "re"], ["Ġl", "ives"], ["Ġpot", "at"], ["Ġra", "pid"], ["Ġse", "ems"], ["Ġf", "abric"], ["ous", "ly"], ["Ġr", "out"], ["Ġwall", "s"], ["Ġthere", "fore"], ["in", "der"], ["Ġim", "medi"], ["Ġnew", "s"], ["ĠP", "e"], ["ĠOn", "ce"], ["Ġse", "lection"], ["b", "it"], ["ixt", "ure"], ["Ġl", "ed"], ["7", "5"], ["ak", "er"], ["b", "ility"], ["ast", "ing"], ["ĠI'", "ve"], ["ourn", "al"], ["5", "00"], ["ve", "re"], ["Ġsit", "es"], ["Ġt", "iss"], ["Ġcharacter", "istics"], ["Ġd", "ang"], ["ĠS", "outh"], ["Ġa", "w"], ["Ġth", "us"], ["Ġdepend", "s"], ["m", "osp"], ["oci", "ety"], ["Ġcat", "s"], ["et", "ers"], ["Ġret", "urn"], ["ul", "ate"], ["Ġfun", "ctions"], ["Ġpar", "as"], ["\"", "."], ["Ġed", "ge"], ["Ġbenef", "it"], ["__", "__"], ["Ġ", "vert"], ["Ġpl", "aced"], ["âĢ", "¢"], ["ot", "ic"], ["erv", "ation"], ["Ġchalleng", "es"], ["ur", "ation"], ["t", "t"], ["Ġm", "el"], ["ĠA", "ustral"], ["Ġread", "ing"], ["ĠWor", "ld"], ["Ġstart", "ing"], ["Ġexact", "ly"], ["Ġst", "age"], ["Ġmom", "ent"], ["ĠS", "im"], ["Ġwe", "b"], ["Ġpret", "ty"], ["Ġd", "ental"], ["Ġsun", "light"], ["Ġtra", "ffic"], ["Ġcon", "vers"], ["Ġcomfort", "able"], ["Ġshap", "es"], ["ĠO", "ur"], ["Ġn", "av"], ["R", "e"], ["Ġin", "sect"], ["ĠA", "g"], ["ob", "ile"], ["Ġass", "ist"], ["Ġval", "u"], ["Ġs", "ides"], ["Ġoper", "ation"], ["Ġdiffe", "rences"], ["Ġexp", "ensive"], ["Ġph", "ase"], ["Ġexam", "ples"], ["Ġmar", "ine"], ["Ġpat", "tern"], ["Ġth", "reat"], ["Ġsym", "ptoms"], ["rough", "t"], ["Ġle", "ave"], ["Ġdisc", "overed"], ["ĠC", "he"], ["Ġser", "ve"], ["Ġso", "on"], ["Ġgo", "al"], ["w", "ers"], ["ĠA", "b"], ["Ġd", "rug"], ["Ġf", "at"], ["T", "R"], ["Ġorgan", "ic"], ["Ġb", "ond"], ["Ġinc", "orpor"], ["Ġrelative", "ly"], ["-f", "ree"], ["Ġ", ":"], ["Ġ", "ice"], ["Ġfl", "avor"], ["em", "pt"], ["if", "ically"], ["Ġ", "#"], ["Ġbal", "ance"], ["N", "ow"], ["Ġtas", "k"], ["Ġim", "ag"], ["Ġst", "orage"], ["Ġc", "ry"], ["Ġd", "aily"], ["s", "et"], ["Ġp", "hen"], ["Ġmat", "ch"], ["Ġp", "ul"], ["Ġr", "ise"], ["Ġf", "uel"], ["as", "c"], ["Ġpres", "ence"], ["ĠIn", "tern"], ["ĠInst", "itute"], ["ro", "ll"], ["Ġstud", "ent"], ["Ġc", "ooking"], ["Ġadvant", "age"], ["Ġdevelop", "ing"], ["-", "qu"], ["Ġcent", "ury"], ["Ġfil", "m"], ["res", "p"], ["Ġpr", "ice"], ["Ġwor", "th"], ["I", "C"], ["--", "--"], ["bo", "ard"], ["H", "e"], ["ĠS", "ystem"], ["ĠA", "c"], ["Ġa", "er"], ["d", "en"], ["Ġh", "ope"], ["ir", "m"], ["Ġser", "ious"], ["Ġexpect", "ed"], ["Ġprec", "ise"], ["ĠS", "m"], ["P", "l"], ["Ġm", "outh"], ["Ġreg", "ions"], ["as", "er"], ["An", "d"], ["Ġeff", "ort"], ["Ġpo", "or"], ["Ġm", "old"], ["Ġs", "igns"], ["Ġsc", "ale"], ["Ġaccur", "ate"], ["Ġcompon", "ent"], ["al", "y"], ["c", "on"], ["or", "ial"], ["Ġengine", "ering"], ["Ġcl", "aim"], ["Ġpower", "ful"], ["at", "ives"], ["Ġb", "ow"], ["The", "y"], ["Ġwon", "der"], ["3", "6"], ["en", "ge"], ["Ġful", "ly"], ["Ġexist", "ing"], ["R", "NA"], ["id", "th"], ["cri", "ption"], ["ĠB", "ecause"], ["Ġinterest", "ing"], ["s", "y"], ["o", "very"], ["Ġmed", "ium"], ["Ġf", "ro"], ["or", "ation"], ["Ġexper", "t"], ["u", "ild"], ["Ġdescrib", "ed"], ["se", "mb"], ["Ġocc", "as"], ["Ġegg", "s"], ["Ġp", "en"], ["ib", "ly"], ["Ġplan", "e"], ["Ġsurf", "aces"], ["Ġrece", "ive"], ["ĠW", "ater"], ["ens", "ion"], ["Ġt", "aste"], ["Ġsl", "ightly"], ["Ġam", "pl"], ["R", "E"], ["am", "ed"], ["ro", "l"], ["ĠG", "od"], ["Ġw", "et"], ["b", "or"], ["Ġrun", "ning"], ["Ġra", "re"], ["Ġre", "pe"], ["ĠThe", "ir"], ["Ġbr", "ight"], ["Ġins", "ulation"], ["r", "an"], ["Ġident", "ified"], ["Ġsec", "urity"], ["Ġa", "steroid"], ["Ġin", "form"], ["Ġhar", "vest"], ["z", "z"], ["l", "ier"], ["wor", "ds"], ["Ġkn", "ife"], ["Ġdi", "am"], ["Ġt", "en"], ["ap", "ter"], ["-", "up"], ["ar", "r"], ["Ġsignific", "ance"], ["Ġgovern", "ment"], ["Ġeduc", "ation"], ["Ġv", "ia"], ["Ġresult", "ing"], ["-s", "h"], ["Ġdis", "p"], ["ograph", "y"], ["Ġplat", "form"], ["est", "he"], ["ic", "y"], ["er", "a"], ["om", "b"], ["Ġsuccess", "ful"], ["Ġwind", "ow"], ["Ġform", "ed"], ["Ġde", "ath"], ["ren", "ch"], ["Ġfriend", "s"], ["Ġang", "les"], ["Ġar", "g"], ["Ġbeaut", "iful"], ["Ġchrom", "os"], ["et", "ies"], ["Ġtransm", "ission"], ["ang", "ing"], ["Ġpr", "iv"], ["Ġredu", "ced"], ["p", "ite"], ["Ġat", "mosp"], ["Ġwear", "ing"], ["Ġnot", "hing"], ["Ġingred", "ients"], ["Ġdistrib", "ution"], ["Ġf", "lex"], ["Ġloc", "ated"], ["a", "ult"], ["Ġcon", "ver"], ["alle", "l"], ["Ġach", "ie"], ["an", "cing"], ["Ġset", "ting"], ["Ġem", "ot"], ["in", "ating"], ["id", "ed"], ["am", "ent"], ["r", "us"], ["Ġplay", "ers"], ["ĠHe", "alth"], ["Ġeffective", "ly"], ["Ġcaus", "ing"], ["Ġw", "aves"], ["ro", "ps"], ["b", "i"], ["ĠA", "ir"], ["Ġlab", "or"], ["ch", "ange"], ["Ġgener", "ate"], ["c", "l"], ["Ġrelations", "hip"], ["ĠD", "i"], ["fe", "rences"], ["ĠE", "ach"], ["ĠP", "C"], ["Ġd", "at"], ["ic", "ks"], ["Ġcurrent", "ly"], ["Ġdec", "ision"], ["Ġsec", "ure"], ["Ġon", "to"], ["Ġspir", "it"], ["H", "z"], ["Ġpract", "ical"], ["Ġtoo", "k"], ["I", "S"], ["Ġbe", "yond"], ["ap", "an"], ["Ġsa", "uce"], ["ĠAmeric", "a"], ["Ġel", "im"], ["Ġm", "ort"], ["y", "le"], ["in", "ting"], ["Ġpl", "aces"], ["Ġme", "at"], ["h", "ips"], ["ĠS", "w"], ["Ġth", "ird"], ["Ġf", "aster"], ["Ġliqu", "id"], ["Ġcyc", "le"], ["Ġdes", "ired"], ["ter", "m"], ["Ġwr", "ong"], ["is", "ions"], ["Ġincre", "ases"], ["Ġd", "imens"], ["Ġdou", "ble"], ["Ġmanufact", "uring"], ["Ġsp", "ot"], ["Ġr", "ound"], ["Ġnutri", "ents"], ["ĠM", "ake"], ["Ġcl", "os"], ["Ġextreme", "ly"], ["Ġco", "ating"], ["Ġr", "ich"], ["an", "cial"], ["Ġfor", "ward"], ["Ġmot", "ion"], ["Ġaltern", "ative"], ["Ġcult", "ure"], ["ĠO", "ver"], ["Ġl", "ack"], ["Ġill", "ustr"], ["Ġdem", "and"], ["Ġcol", "le"], ["Ġadv", "anced"], ["19", "7"], ["Ġins", "p"], ["I", "m"], ["Ġth", "ous"], ["ress", "ive"], ["Ġy", "ellow"], ["ĠTr", "ans"], ["iss", "ions"], ["ĠP", "ar"], ["Ġinclud", "ed"], ["Ġfound", "ation"], ["Ġadvant", "ages"], ["Ġsc", "rew"], ["Ġn", "it"], ["it", "ation"], ["Ġchang", "ing"], ["ĠH", "igh"], ["Ġg", "old"], ["Ġconst", "ruct"], ["er", "ation"], ["ric", "k"], ["r", "as"], ["o", "ly"], ["Ġoccur", "s"], ["ific", "ial"], ["im", "ent"], ["y", "pe"], ["Ġmach", "ines"], ["Ġtr", "ig"], ["w", "o"], ["ĠUs", "ing"], ["ĠIt", "s"], ["Ã", "©"], ["rodu", "ction"], ["re", "hens"], ["ĠO", "ther"], ["r", "ate"], ["Ġo", "p"], ["Ġcont", "ract"], ["Ġr", "ules"], ["Ġprocess", "ing"], ["Ġbec", "ame"], ["Ġb", "reat"], ["o", "ber"], ["Ġinflu", "ence"], ["Ġany", "one"], ["Ġsitu", "ation"], ["Ġvol", "ume"], ["TE", "M"], ["D", "o"], ["on", "al"], ["A", "t"], ["cul", "es"], ["Ġvers", "ion"], ["Ġpre", "par"], ["b", "all"], ["Ġmeas", "ures"], ["ĠA", "v"], ["Ġm", "os"], ["Ġtra", "ck"], ["A", "M"], ["Ġcom", "ing"], ["Ġcal", "c"], ["Ġd", "ri"], ["Ġinstall", "ed"], [".", "e"], ["Ġb", "rown"], ["iz", "er"], ["ul", "f"], ["r", "ight"], ["Ġthin", "king"], ["Ġrat", "io"], ["un", "k"], ["is", "p"], ["3", "2"], ["ic", "ine"], ["Ġrespons", "ible"], ["qu", "it"], ["Ġsw", "im"], ["ra", "ge"], ["Ġkeep", "ing"], ["tern", "al"], ["Ġf", "ields"], ["Ġhy", "p"], ["I", "T"], ["P", "S"], ["Ġ", "*"], ["Ġd", "ent"], ["Ġrem", "ains"], ["od", "ies"], ["Ġanim", "ation"], ["-qu", "ality"], ["h", "ood"], ["Ġconnect", "ion"], ["end", "s"], ["Ġwide", "ly"], ["Ġc", "amp"], ["Ġopportun", "ity"], ["Ġrec", "ently"], ["Ġhist", "or"], ["Ġcomp", "ar"], ["Ġsepar", "ate"], ["Ġ", ")"], ["od", "ium"], ["f", "ess"], ["ct", "ors"], ["an", "a"], ["Ġpat", "ient"], ["Ġd", "yn"], ["id", "ity"], ["d", "ed"], ["ĠT", "H"], ["Ġfil", "ter"], ["Ġse", "m"], ["n", "ed"], ["Ġdes", "igns"], ["ĠThere", "fore"], ["and", "om"], ["un", "ction"], ["ĠS", "ince"], ["Ġp", "et"], ["Ġfind", "ing"], ["Ġd", "er"], ["ĠM", "od"], ["Ġnot", "e"], ["ĠCh", "rist"], ["Ġal", "though"], ["Ġgener", "ation"], ["ĠL", "ear"], ["Ġobserv", "ed"], ["ĠS", "te"], ["Ġquant", "um"], ["Ġ", "{"], ["Ġtas", "ks"], ["Ġb", "ed"], ["Ġ", "ion"], ["ĠA", "ut"], ["Ġdist", "inct"], ["Ġ", "Î"], ["..", ".Ċ"], ["d", "om"], ["Ġun", "iform"], ["Ġatt", "empt"], ["Ġyou", "'ve"], ["Ġmole", "cular"], ["Ġp", "ages"], ["Ġplan", "et"], ["Ġh", "omes"], ["umin", "um"], ["Ġst", "uff"], ["al", "ed"], ["ĠE", "m"], ["Ġvalu", "able"], ["N", "C"], ["Ġint", "ellig"], ["ĠF", "irst"], ["ĠIn", "c"], ["Ġup", "d"], ["Ġdis", "s"], ["Ġaffect", "ed"], ["Ġde", "ad"], ["Ġact", "ual"], ["Ġc", "ateg"], ["Ġtechn", "ologies"], ["f", "l"], ["t", "le"], ["Ġinst", "ance"], ["Ġbl", "og"], ["Ġpict", "ure"], ["Ġh", "uge"], ["ĠCent", "er"], ["Ġf", "air"], ["Ġde", "al"], ["H", "ere"], ["Ġre", "n"], ["Ġplant", "ing"], ["Ġindustr", "ial"], ["A", "L"], ["ad", "em"], ["Ġch", "ance"], ["ĠR", "ep"], ["Ġd", "ust"], ["Ġfl", "our"], ["en", "ed"], ["Ġsu", "ff"], ["Ġplan", "ning"], ["Ġd", "og"], ["Ġc", "ity"], ["h", "aps"], ["Ġdoc", "ument"], ["Ġdura", "bility"], ["Ġr", "ates"], ["ura", "cy"], ["Ġb", "ound"], ["Ġun", "d"], ["S", "ome"], ["Ġm", "id"], ["Ġcoun", "ter"], ["Ġf", "arm"], ["iz", "ations"], ["Ġl", "ost"], ["ĠJ", "oh"], ["Ġm", "ixture"], ["Ġclean", "ing"], ["Ġelect", "ro"], ["ĠW", "est"], ["et", "ics"], ["Ġcustom", "ers"], ["Ġsp", "r"], ["Ġv", "irus"], ["Ġc", "as"], ["Ġsam", "ples"], ["Ġorgan", "isms"], ["h", "ouse"], ["U", "s"], ["Ġconc", "ern"], ["if", "orn"], ["ĠJ", "ust"], ["Ġcont", "ext"], ["Ġdef", "ined"], ["ĠW", "hether"], ["ĠR", "ed"], ["Ġreport", "ed"], ["Ġequ", "ation"], ["our", "ney"], ["Ġno", "ise"], ["R", "es"], ["ar", "ge"], ["our", "ce"], ["Ġg", "iving"], ["Ġpract", "ices"], ["k", "en"], ["P", "h"], ["l", "ands"], ["3", "00"], ["Ġr", "ub"], ["Ġexp", "and"], ["Ġv", "irt"], ["Ġst", "ar"], ["Ġd", "on"], ["sy", "ch"], ["he", "st"], ["y", "ing"], ["und", "red"], ["u", "its"], ["Ġre", "ference"], ["Ġd", "ensity"], ["he", "l"], ["Ġh", "our"], ["Ġgra", "du"], ["ch", "r"], ["Ġer", "u"], ["Ġshe", "ll"], ["â", "Ī"], ["Ġpo", "ol"], ["Ġp", "ull"], ["Ġcommun", "ities"], ["ĠF", "e"], ["Ġlar", "gest"], ["Ġchick", "en"], ["Ġs", "pl"], ["ve", "red"], ["'", "d"], ["Ġdisc", "over"], ["Ġexp", "osure"], ["m", "ar"], ["Ġco", "ord"], ["Ġcontrib", "ute"], ["omet", "ry"], ["ol", "es"], ["os", "ystem"], ["ĠJ", "apan"], ["3", "3"], ["Ġrele", "vant"], ["ĠAl", "though"], ["der", "standing"], ["Ġse", "vere"], ["i", "ate"], ["Ġmaintain", "ing"], ["How", "ever"], ["ic", "on"], ["Ġstrateg", "ies"], ["Ġin", "j"], ["Ġaspect", "s"], ["iforn", "ia"], ["ĠM", "in"], ["Ġs", "av"], ["te", "red"], ["Ġtest", "s"], ["ĠE", "ven"], ["Â", "Ń"], ["Ġcor", "resp"], ["Ġcrus", "her"], ["d", "y"], ["Ġreli", "able"], ["Ġc", "up"], ["Ġallow", "ed"], ["ing", "er"], ["|", "|"], ["Ġnot", "ice"], ["Ġinter", "p"], ["Ġaqu", "arium"], ["g", "r"], ["Ġte", "le"], ["ast", "s"], ["or", "der"], ["Ġm", "iddle"], ["Ġdi", "vers"], ["Ġmult", "i"], ["ĠSt", "ate"], ["w", "ord"], ["Ġfin", "ancial"], ["is", "hes"], ["Ġmole", "cules"], ["Ġne", "ut"], ["Ġsam", "ple"], ["Ġa", "x"], ["wor", "king"], ["S", "e"], ["Ġinfect", "ion"], ["pl", "ant"], ["Ġremov", "ed"], ["is", "ter"], ["Ġcho", "osing"], ["-", "term"], ["Ġe", "ating"], ["ĠP", "art"], ["k", "y"], ["Ġbehav", "i"], ["it", "ect"], ["ric", "ult"], ["Ġs", "ort"], ["Ġwind", "ows"], ["ĠA", "C"], ["pt", "ions"], ["Ġpar", "allel"], ["Ġs", "izes"], ["Ġprofess", "ion"], ["wor", "ks"], ["le", "br"], ["Ġper", "m"], ["ent", "y"], ["ĠB", "rit"], ["Ġare", "n't"], ["ĠP", "ot"], ["Ġcoll", "abor"], ["Ġb", "ab"], ["on", "y"], ["Ġstand", "ards"], ["ĠWh", "o"], ["Ġsur", "pr"], ["Ġwr", "ite"], ["Ġintern", "al"], ["Ġprog", "rams"], ["ĠS", "ec"], ["ic", "ious"], ["E", "T"], ["Ġsu", "gar"], ["re", "st"], ["Ġwrit", "ing"], ["Ġoper", "ations"], ["Ġf", "ile"], ["Ġst", "ick"], ["E", "n"], ["Ġco", "vered"], ["Ġtrans", "l"], ["Ġsc", "en"], ["ĠAr", "t"], ["Ġ", "<"], ["Ġr", "an"], ["Ġbas", "is"], ["Ġspec", "ifically"], ["Ġsle", "ep"], ["i", "pped"], ["ur", "rent"], ["Ġabsor", "b"], ["an", "cy"], ["Ġbe", "gan"], ["Ġun", "its"], ["agn", "etic"], ["Ġmos", "quit"], ["ĠN", "OT"], ["ĠP", "a"], ["Ġa", "esthe"], ["Con", "c"], ["ip", "es"], ["Ġat", "oms"], ["Ġcirc", "le"], ["qu", "e"], ["Ġbr", "and"], ["ic", "ations"], ["0", "5"], ["ĠThat", "'s"], ["t", "ime"], ["um", "ber"], ["el", "ines"], ["Ġfl", "ood"], ["Ġmon", "it"], ["Ġprom", "ot"], ["Ġtyp", "ical"], ["r", "ans"], ["Ġdeg", "ree"], ["A", "ll"], ["b", "les"], ["Ġimpact", "s"], ["r", "ition"], ["Ġm", "ist"], ["Ġswe", "et"], ["Ġcol", "lection"], ["Ġbag", "s"], ["Ġacc", "uracy"], ["Ġstruct", "ural"], ["as", "k"], ["Ġprec", "ision"], ["Ġh", "undred"], ["Ġwe", "'re"], ["Ġchall", "enge"], ["Ġbegin", "ning"], ["i", "ences"], ["Ġpr", "on"], ["Ġse", "x"], ["ĠS", "un"], ["Ġp", "ump"], ["o", "ch"], ["Ġp", "in"], ["Ġd", "ie"], ["4", "8"], ["Ġsh", "ip"], ["Ġc", "redit"], ["b", "l"], ["iver", "se"], ["as", "hing"], ["c", "he"], ["in", "king"], ["Ġind", "epend"], ["Ġenviron", "ments"], ["Ġlet", "'s"], ["Ġmeasure", "d"], ["Ġfrequ", "ently"], ["Ġj", "ourney"], ["Ġdescrib", "e"], ["Ġh", "ole"], ["ĠCal", "ifornia"], ["Ġcontain", "er"], ["Ġfem", "ale"], ["s", "p"], ["Ġhor", "iz"], ["u", "x"], ["Ġd", "rain"], ["yp", "es"], ["v", "ol"], ["Ġcomp", "rehens"], ["ify", "ing"], ["Ġhigh", "light"], ["ur", "ally"], ["C", "O"], ["Ġv", "ent"], ["-", "y"], ["Ġcl", "othes"], ["ic", "a"], ["Ġl", "inks"], ["Ġlay", "ers"], ["b", "ook"], ["if", "f"], ["ĠHar", "ry"], ["e", "k"], ["Ġinstruct", "ions"], ["Ġprog", "ress"], ["Ġle", "af"], ["Ġnav", "ig"], ["ĠM", "on"], ["U", "S"], ["o", "ice"], ["Ġre", "ality"], ["Ġh", "it"], ["Ġwrit", "ten"], ["Ġdetail", "ed"], ["ig", "en"], ["Ġm", "it"], ["z", "ing"], ["ĠR", "ad"], ["n", "y"], ["Ġfin", "ish"], ["Ġcl", "im"], ["3", "7"], [")", ":"], ["re", "et"], ["Ġeng", "ines"], ["Ġtext", "ure"], ["Ġz", "ero"], ["ad", "a"], ["3", "1"], ["IN", "G"], ["Ġexp", "osed"], ["Ġhol", "es"], ["Ġw", "alk"], ["Ġst", "ream"], ["Ġdesc", "ri"], ["Ġpow", "der"], ["A", "D"], ["ĠG", "erm"], ["e", "qu"], ["Ġwhe", "at"], ["Ġregular", "ly"], ["Ġg", "ir"], ["ab", "ilities"], ["l", "t"], ["g", "ram"], ["Ġelectron", "ic"], ["Ġf", "lying"], ["I", "ON"], ["Ġapprox", "imately"], ["h", "ol"], ["Ġgener", "ated"], ["Ġsu", "bs"], ["Ġh", "ous"], ["Ġgrow", "n"], ["ĠA", "ct"], ["Ġcl", "ock"], ["am", "ental"], ["Ġbec", "oming"], ["Ġpil", "ot"], [":", "c"], ["Ġpro", "port"], ["Ġse", "g"], ["Ġset", "s"], ["um", "m"], ["Ġph", "one"], ["Ġfl", "ower"], ["ur", "t"], ["viron", "ment"], ["Ġintern", "ational"], ["Ġtherm", "al"], ["us", "ion"], ["Ġnear", "ly"], ["el", "t"], ["Ġv", "ital"], ["Ġtop", "ic"], ["row", "s"], ["ĠT", "ime"], ["us", "ed"], ["am", "in"], ["act", "ers"], ["Ġk", "il"], ["ĠEng", "ine"], ["Ġmat", "hemat"], ["Ġele", "v"], ["Ġsh", "ad"], ["Ġp", "lease"], ["Ġoptim", "al"], ["Ġens", "ures"], ["Ġha", "z"], ["Ġtr", "ust"], ["t", "hes"], ["Ġmechan", "ism"], ["ire", "ct"], ["ĠP", "ower"], ["Ġv", "i"], ["Ġfra", "ud"], ["ĠM", "al"], ["Ġpl", "ays"], ["Ġc", "ore"], ["ĠA", "ccording"], ["am", "ps"], ["od", "ing"], ["Ġexperi", "ences"], ["ic", "ro"], ["Ġve", "ctor"], ["Ġvari", "eties"], ["Ġto", "x"], ["Ġask", "ed"], ["Ġec", "osystem"], ["Ġcon", "sequ"], ["i", "ra"], ["9", "9"], ["Ġopportun", "ities"], ["Ġas", "semb"], ["Ġflow", "ers"], ["Ġap", "art"], ["a", "res"], ["Ġ", "Ġ"], ["Ġt", "iny"], ["oc", "ol"], ["-l", "ike"], ["Ġt", "ax"], ["Ġstrateg", "y"], ["Ġsty", "les"], ["Ġcou", "ple"], ["ĠS", "TEM"], ["6", "5"], ["Ġsm", "art"], ["Ġoutd", "oor"], ["A", "fter"], ["Ġrele", "ase"], ["Ġw", "ent"], ["ag", "s"], ["Ġtri", "angle"], ["Ġass", "um"], ["An", "other"], ["ough", "ly"], ["Ġdura", "ble"], ["Ġstate", "ment"], ["E", "C"], ["it", "ary"], ["Ġbuild", "ings"], ["Ġinterest", "ed"], ["Ġqu", "al"], ["Ġcont", "rast"], ["ĠIn", "t"], ["Ġform", "al"], ["Ġimmedi", "ately"], ["augh", "t"], ["Ġconc", "er"], ["i", "os"], ["Ġdeterm", "ined"], ["Ġpl", "ate"], ["il", "le"], ["ill", "i"], ["av", "a"], ["ĠI", "ns"], ["-", "se"], ["br", "id"], ["Ġnum", "erous"], ["Ġeff", "orts"], ["um", "n"], ["Ġsuggest", "s"], ["i", "pp"], ["as", "m"], ["Ġconsum", "ption"], ["pect", "ive"], ["pr", "il"], ["Ġex", "hib"], ["Ġal", "ign"], ["Ġestab", "lish"], ["du", "c"], ["Ġproced", "ure"], ["ĠAfric", "a"], ["Ġem", "ail"], ["Ġrece", "ived"], ["Ġhyd", "ro"], ["-", "r"], ["Ġchang", "ed"], ["il", "ies"], ["Ġform", "ula"], ["19", "6"], ["?", "\""], ["br", "is"], ["Ġshow", "ed"], ["Ġinst", "rum"], ["A", "b"], ["Ġsp", "in"], ["m", "m"], ["Ġmil", "k"], ["Ġmin", "imum"], ["Ġh", "om"], ["Ġc", "y"], ["in", "for"], ["Ġr", "andom"], ["fe", "rent"], ["el", "ine"], ["Ġl", "iter"], ["az", "ing"], ["ol", "low"], ["Ġr", "ule"], ["f", "ace"], ["K", "e"], ["Ġv", "it"], ["oun", "tain"], ["Ġsim", "pl"], ["T", "hat"], ["op", "l"], ["ĠE", "d"], [".", "âĢĿ"], ["Ġex", "erc"], ["Ġvert", "ical"], ["Ġcl", "in"], ["igh", "ter"], ["3", "4"], ["Ġmil", "es"], ["Ġra", "w"], ["iven", "ess"], ["od", "ay"], [".", ")"], ["pl", "ace"], ["Ġqu", "ar"], ["Ġent", "er"], ["Ġfind", "ings"], ["Ġch", "lor"], ["A", "P"], ["Ġm", "obile"], ["Ġv", "ibr"], ["u", "ary"], ["Ġd", "ed"], ["Ġb", "ooks"], ["ir", "ts"], ["Ġrec", "ipe"], ["Ġcons", "ists"], ["Ġatmosp", "here"], ["Ġa", "st"], ["Ġoper", "ating"], ["Ġth", "or"], ["Ġrecyc", "ling"], ["3", "8"], ["Ġshar", "p"], ["Ġconsist", "ent"], ["Ġsh", "all"], ["er", "'s"], ["ut", "orial"], ["Ġris", "ks"], ["ruct", "ure"], ["Ġversat", "ile"], ["Ġprep", "ared"], ["Ġm", "ale"], ["A", "nswer"], ["Ġcare", "fully"], ["Ġco", "pper"], ["oc", "al"], ["Ġal", "t"], ["Ġperform", "ed"], ["S", "P"], ["Ġm", "is"], ["Ġback", "ground"], ["Ġpotential", "ly"], ["ili", "ar"], ["Ġal", "one"], ["Ġfavor", "ite"], ["Ġd", "rop"], ["Ġst", "able"], ["N", "o"], ["Ġbi", "ological"], ["Ġchar", "acters"], ["Ġveh", "icle"], ["rel", "ated"], ["c", "hen"], ["ond", "ing"], ["Ġsc", "he"], ["Ġce", "lebr"], ["Ġbul", "bs"], ["Ġcho", "ices"], ["a", "ren"], ["Ġident", "ity"], ["Ġbusiness", "es"], ["Ġindustr", "ies"], ["ros", "ion"], ["om", "an"], ["Ġst", "ation"], ["Ġc", "art"], ["r", "ical"], ["Ġevolution", "ary"], ["ĠJ", "an"], ["Ġag", "ree"], ["h", "old"], ["h", "a"], ["Ġsustain", "able"], ["Ġpurp", "oses"], ["y", "e"], [",", "âĢĿ"], ["D", "es"], ["ĠInd", "ia"], ["Ġpop", "ulations"], ["Ġsat", "is"], ["Ġmet", "als"], ["Ġmechan", "ical"], ["5", "5"], ["Ġroof", "ing"], ["Ġadv", "ance"], ["Ġex", "ternal"], ["Ġfib", "er"], ["Ġestab", "lished"], ["Ġsc", "an"], ["Ġhyd", "rogen"], ["ĠD", "ay"], ["ĠV", "ol"], ["Ġfix", "ed"], ["ic", "king"], ["Ġp", "enc"], ["at", "ically"], ["Ġfish", "ing"], ["ĠU", "K"], ["Ġart", "ificial"], ["t", "es"], ["ĠS", "l"], ["Ġschool", "s"], ["ĠâĢ", "¢"], ["ros", "c"], ["Ġphen", "omen"], ["Ġmost", "ly"], ["Ġ", "ur"], ["Ġst", "ain"], ["Ġp", "al"], ["R", "O"], ["Ġg", "ames"], ["Ġlat", "est"], ["Ġdi", "verse"], ["Ġde", "bris"], ["Ġform", "ation"], ["Ġimpro", "ved"], ["-", "S"], ["Ġg", "ear"], ["um", "an"], ["Ġappe", "ars"], ["Ġdiag", "ram"], ["Ġchann", "el"], ["ĠO", "ut"], ["O", "ur"], ["Ġtiss", "ue"], ["ru", "pt"], ["Ġn", "ational"], ["Ġcult", "ural"], ["Ġch", "ain"], ["ĠH", "ist"], ["Ġthe", "rap"], ["Ġst", "ability"], ["Ġp", "ig"], ["Ġun", "s"], ["Ġwe", "ak"], ["Ġche", "ese"], ["Ġis", "ol"], ["le", "ts"], ["Ġwant", "ed"], ["Ġorgan", "ization"], ["Ġal", "uminum"], ["ĠEn", "ergy"], ["Ġc", "os"], ["Ġcent", "ral"], ["i", "pping"], ["os", "en"], ["u", "k"], ["ĠL", "ight"], ["ĠAd", "d"], ["Ġhe", "ld"], ["Ġcas", "ual"], ["ĠCl", "ass"], ["v", "ision"], ["Ġarch", "itect"], ["Ġw", "al"], ["Ġne", "igh"], ["ol", "ute"], ["Ġoutf", "it"], ["Ġcomp", "ounds"], ["ĠPl", "ant"], ["Ġfollow", "ed"], ["On", "ce"], ["/", "/"], ["ĠD", "is"], ["ut", "h"], ["Ġphys", "ics"], ["Ġexperi", "enced"], ["Ġindic", "ate"], ["ĠSt", "ep"], ["-", "le"], ["Ġcomprehens", "ive"], ["y", "d"], ["ĠO", "ct"], ["Ġmess", "age"], ["rop", "ical"], ["Ġplay", "ing"], ["Ġhig", "hest"], ["Ġfun", "g"], ["ĠF", "rench"], ["Ġde", "b"], ["Ġv", "s"], ["Ġgr", "id"], ["hem", "ical"], ["Ġdam", "aged"], ["ac", "king"], ["vent", "ional"], ["Ġmain", "ly"], ["Ġprevious", "ly"], ["le", "an"], ["ĠCh", "ar"], ["Ġvis", "ible"], ["on", "ge"], ["ot", "ics"], ["Ġspect", "rum"], ["i", "ers"], ["ĠR", "ead"], ["al", "se"], ["Ġbi", "ology"], ["Ġcar", "s"], ["ĠS", "ch"], ["if", "ferent"], ["re", "ed"], ["Ġlearn", "ed"], ["w", "ide"], ["Ġsens", "itive"], ["Ġear", "lier"], ["7", "8"], ["Ġref", "ers"], ["Ġat", "om"], ["ph", "alt"], ["Ġam", "ounts"], ["ov", "es"], ["Ġad", "op"], ["ĠI", "I"], ["Ġlead", "s"], ["ĠO", "cean"], ["Ġbut", "ter"], ["Ġapp", "rec"], ["as", "p"], ["ic", "ed"], ["ĠS", "ur"], ["Ġteac", "hers"], ["Ġcl", "ick"], ["Ġlands", "cape"], ["iv", "il"], ["ĠDep", "artment"], ["Ġem", "issions"], ["ĠE", "very"], ["ra", "de"], ["c", "ious"], ["Ġsp", "ray"], ["ĠG", "e"], ["Ġwork", "ed"], ["ict", "ion"], ["4", "00"], ["Ġmeasure", "ment"], ["Ġs", "ounds"], ["Ġprep", "are"], ["Ġse", "al"], ["Ġtechn", "ical"], ["Ġb", "odies"], ["Ġfeed", "ing"], ["w", "in"], ["Ġcreat", "es"], ["an", "es"], ["Ġfl", "av"], ["Ġthous", "ands"], ["ab", "ol"], ["Ġc", "rop"], ["ĠD", "oes"], ["Ġcorrect", "ly"], ["Ġold", "er"], ["ke", "y"], ["a", "ur"], ["ĠPro", "fess"], ["Ġevent", "ually"], ["Ġmix", "ed"], ["ate", "ver"], ["ox", "ide"], ["Ġintrodu", "ced"], ["ĠS", "erv"], ["Ġf", "rag"], ["Ġcom", "plic"], ["ĠB", "et"], ["st", "ract"], ["Ġmus", "c"], ["Ġz", "one"], ["Ġob", "vious"], ["Ġexperim", "ents"], [">", "Ċ"], ["3", "9"], ["Ġcon", "ven"], ["Ġp", "sych"], ["Ġins", "pect"], ["Ġpotat", "oes"], ["Ġbut", "ton"], ["Ġfor", "ces"], ["ĠKe", "ep"], ["ir", "ds"], ["Ġpurch", "ase"], ["Ġcomp", "ound"], ["Ġcreat", "ive"], [">", "<"], ["Ġdiam", "eter"], ["Ġfunction", "al"], ["ĠD", "uring"], ["ic", "ated"], ["Ġalgorith", "m"], ["Ġcry", "st"], ["Ġmut", "ations"], ["Ġprim", "arily"], ["wh", "ich"], ["Ġcomb", "ined"], ["Ġsk", "et"], ["ce", "ler"], ["Ġ", "ign"], ["Ġcomm", "it"], ["Ġke", "pt"], ["P", "C"], ["u", "ly"], ["Ġsequ", "ences"], ["Ġcomp", "osition"], ["Ġagg", "reg"], ["Ġwor", "n"], ["Ġt", "un"], ["-", "C"], ["e", "es"], ["Ġhelp", "ful"], ["Ġs", "ell"], ["Ġin", "ver"], ["ect", "ion"], ["Ġd", "ivid"], ["c", "ap"], ["Ġhe", "ating"], ["u", "gg"], ["Ġsh", "o"], ["Ġhelp", "ing"], ["Ġturn", "ed"], ["est", "one"], ["A", "re"], ["Ġexper", "ts"], ["Ġconf", "idence"], ["e", "per"], ["Ġcare", "er"], ["Ġphot", "os"], ["hy", "d"], ["ĠCons", "ider"], ["if", "ier"], ["Ġl", "ic"], ["15", "0"], ["Ġrem", "ote"], ["Ġmay", "be"], ["ont", "al"], ["Ġc", "ab"], ["Ġopp", "osite"], ["Ġconc", "lusion"], ["Ġshe", "et"], ["Ġkind", "s"], ["row", "ing"], ["ant", "ic"], ["ĠA", "ug"], ["ĠW", "ar"], ["Ġtomat", "oes"], ["ce", "ll"], ["Ġt", "all"], ["Ġm", "aster"], ["at", "ural"], ["Ġar", "m"], ["Ġa", "ware"], ["Ġc", "opy"], ["Ġbill", "ion"], ["Ġre", "tain"], ["Ġm", "other"], ["Ġtal", "king"], ["Ġdig", "est"], ["Ġrepres", "ents"], ["Ġresour", "ce"], ["id", "a"], ["Ġprodu", "ces"], ["Ġan", "cient"], ["Ġcontroll", "ed"], ["om", "y"], ["Ġorig", "in"], ["Ġregard", "ing"], ["Ġcustom", "er"], ["Ġs", "end"], ["Ġans", "wers"], ["Ġfeel", "ing"], ["Ġn", "ice"], ["se", "e"], ["ĠDes", "ign"], ["Ġpl", "ans"], ["Ġl", "ots"], ["ing", "u"], ["ĠW", "ell"], ["s", "s"], ["Ġfrequ", "encies"], ["Ġac", "qu"], ["Ġin", "du"], ["Ġcar", "ried"], ["ĠH", "is"], ["Ġm", "ental"], ["Ġd", "en"], ["ak", "ed"], ["Y", "es"], ["im", "al"], ["Ġinvest", "ment"], ["ite", "ly"], ["Ġobtain", "ed"], ["Ġs", "now"], ["ĠB", "ar"], ["os", "ph"], ["o", "il"], ["S", "c"], ["Ġl", "aser"], ["en", "der"], ["Ġconcent", "ration"], ["Ġprodu", "cing"], ["he", "et"], ["Ġcap", "able"], ["Ġst", "em"], ["Ġto", "ler"], ["Ġparam", "eters"], ["Ġprofession", "als"], ["E", "M"], ["Ġlab", "el"], ["Ġoper", "ate"], ["e", "ch"], ["ĠCh", "ina"], ["Ġwh", "ose"], ["Ġinf", "l"], ["ie", "f"], ["f", "low"], ["Ġext", "ract"], ["Ġed", "ges"], ["Ġstart", "s"], ["Ġw", "iring"], ["N", "D"], ["A", "r"], ["un", "t"], ["Ġredu", "ction"], ["ĠM", "arch"], ["Ġdr", "ill"], ["Ġtren", "ds"], ["Ġplay", "er"], ["Ġsp", "aces"], [";", "Ċ"], ["we", "ight"], ["Ġh", "on"], ["Ġmus", "ic"], ["/", "or"], ["ph", "as"], ["ĠY", "ork"], ["ur", "ies"], ["Ġsay", "ing"], ["ĠD", "C"], ["rom", "e"], ["Ġrefer", "red"], ["Ġe",
[...]
